▁k 100
▁ɑ 100
▁n 100
▁ɯ 100
▁i 100
▁ɛ 100
▁ʌ 100
▁l 100
▁t 100
▁tɕ 100
▁m 100
* 100
h 100
▁s 100
▁o 100
▁ŋ 100
▁u 100
▁p 100
▁ 100
▁jʌ 100
▁jo 100
▁네 100
▁ja 100
▁그 100
▁뭐 100
▁거 100
▁jɛ 100
▁wa 100
▁조ᄆ 100
▁그러ᄂ 100
ᄂ 100
▁wɛ 100
▁ᅵ제 100
느ᄂ 100
도 100
▁많ᅵ 100
▁ᅡᄂ 100
▁ᅡ 100
▁그래서 100
ᄅ 100
▁ᅵᄂ제 100
▁그냐ᄋ 100
▁ᅵ러ᄒ게 100
▁하ᄂ 100
▁ᅥ 100
▁ju 100
▁제가 100
르ᄅ 100
▁wʌ 100
▁그ᄂ데 100
▁ᅨ 100
▁마ᄀ 100
▁또 100
▁다 100
▁되게 100
▁ᅦ 100
▁게 100
▁ᅵ 100
가 100
▁저느ᄂ 100
▁그러니까 100
▁ᅵ러ᄂ 100
▁ᅳᄆ 100
▁때 100
▁하고 100
▁자ᄅ 100
▁가트ᄂ 100
고 100
▁ᅵᄊ느ᄂ 100
▁가타ᅭ 100
▁수 100
▁그러ᄒ게 100
▁가지고 100
ᅭ 100
▁더 100
▁지그ᄆ 100
▁하느ᄂ 100
▁그게 100
▁wi 100
▁저희 100
▁가태ᅭ 100
▁ᅵᄊ고 100
▁해 100
마ᄂ 100
▁너무 100
▁그리고 100
서 100
게 100
k 100
▁ᅳ 100
ɑ 100
로 100
나 100
▁저 100
▁ᅵᄅ 100
▁거ᅴ 100
ʌ 100
▁제 100
▁ᅵ써ᅭ 100
▁보니까 100
n 100
▁때무네 100
▁벼ᄅ로 100
▁가티 100
▁ᅣᄀ가ᄂ 100
▁저ᄋ마ᄅ 100
▁해서 100
▁때느ᄂ 100
▁하ᄅ 100
▁거ᄉ도 100
▁다르ᄂ 100
▁저ᄋ도 100
▁거ᄂ 100
▁모ᄉ 100
▁사 100
▁조흐ᄂ 100
하고 100
ɛ 100
▁ᅵᄊ느ᄂ데 100
▁가 100
라고 100
i 100
▁보고 100
ɯ 100
▁거느ᄂ 100
▁거ᄅ 100
▁계소ᄀ 100
▁그때 100
tɕ 100
▁ᅥ떠ᄂ 100
기 100
▁괴ᄋ자ᄋ히 100
ᄊ더ᄂ 100
지 100
▁두 100
다 100
▁그러ᄒ죠 100
l 100
▁보며ᄂ 100
▁ᅤ기 100
▁그래도 100
▁하ᄀ교 100
▁ᅵ게 100
▁거기 100
▁가서 100
t 100
▁지ᄂ짜 100
▁ᅥᄡ느ᄂ 100
ᅦ 100
▁ᅡ니 100
▁저ᄂ 100
▁되느ᄂ 100
▁그래 100
▁버ᄂ 100
▁사시ᄅ 100
▁하느ᄂ데 100
▁ᅥ떠ᄒ게 100
▁ᅢ드리 100
▁치ᄂ구 100
▁새ᄋ가그ᄅ 100
▁해ᅣ 100
▁ᅵ써서 100
▁지그므ᄂ 100
▁해ᅭ 100
드리 100
▁저도 100
▁가태 100
▁ᅡ무래도 100
▁하ᄀ녀ᄂ 100
그ᄅ 100
니까 100
▁ᅵᄅ다ᄂ 100
o 100
▁가고 100
m 100
하ᄂ 100
▁사라미 100
▁ᅩ 100
▁그거 100
▁고드ᄋ하ᄀ교 100
▁그러고 100
라ᄋ 100
▁새ᄋ가기 100
▁사ᄅ 100
▁하 100
▁며ᄋ 100
▁되고 100
으ᄅ 100
죠 100
s 100
며ᄂ 100
▁녀ᄂ 100
▁거죠 100
▁며ᄎ 100
▁ᅤ기르ᄅ 100
▁ᅡ니며ᄂ 100
▁대 100
거드뇨 100
▁마 100
▁시 100
▁ᅥᄡᅥᅭ 100
느ᄅ 100
ᄀ 100
▁ᅥ느 100
▁그거ᄅ 100
▁데 100
▁하며ᄂ 100
▁거기서 100
▁내가 100
▁가느ᄂ 100
▁ᅵᄊ잖ᅡᅭ 100
니 100
▁쪼끄ᄆ 100
▁ᅥᄆ마 100
▁사라ᄆ드리 100
▁지베 100
▁주ᄋ하ᄀ교 100
ᅴ 100
▁ᅢ드ᄅ 100
ŋ 100
▁하ᄋ사ᄋ 100
▁거르ᄅ 100
ᅣ 100
▁하나 100
▁해ᄊ느ᄂ데 100
ᄋ 100
▁따ᄀ 100
▁ᅫ 100
▁차ᄆ 100
▁사ᄆ 100
▁머ᄀ고 100
▁주고 100
잖ᅡᅭ 100
▁나ᄆ자 100
▁뭐ᄂ가 100
▁ᅧ자 100
▁ᅥ려쓰ᄅ 100
u 100
▁자기 100
▁ᅵ쓰니까 100
▁초드ᄋ하ᄀ교 100
▁보토ᄋ 100
▁세 100
써ᅭ 100
▁시그로 100
▁ɰi 100
네 100
ᄆ 100
▁ᅡ니ᅭ 100
▁나 100
ᄂ데 100
▁ᅵ쓰ᄅ 100
▁가트ᄂ데 100
jʌ 100
▁때도 100
▁ᅥᄆ처ᄋ 100
▁마ᄅ 100
▁ᅯᄂ래 100
▁지ᄇ 100
▁ᅢ드르ᄂ 100
▁거ᅦᅭ 100
▁서로 100
▁다시 100
▁가ᄐ고 100
거나 100
기도 100
▁주 100
리 100
▁ᅧ러 100
▁소ᄅ지ᄀ히 100
▁치ᄂ구드ᄅ 100
▁지 100
하느ᄂ 100
▁겨우ᅦ느ᄂ 100
▁대해서 100
▁돼 100
▁저기 100
▁ᅮ리 100
▁ᅯᄂ 100
▁크ᄂ 100
▁사라ᄆ 100
쓰ᄅ 100
▁ᅭ즈ᄆ 100
▁거ᅦ 100
▁시가ᄂ 100
▁ᅧ 100
▁보ᄂ 100
해서 100
▁ᅵ리 100
▁사느ᄂ 100
▁가ᄅ 100
▁그러며ᄂ 100
▁ᅡ니라 100
▁무스ᄂ 100
▁새ᄋ가ᄀ 100
▁고 100
더라고ᅭ 100
▁제ᅵᄅ 100
▁ᅥᄡ고 100
▁ᅧᄋ화 100
▁보ᄅ 100
▁수도 100
▁ᅪ서 100
▁보 100
기ᄂ 100
▁ᅵ르ᄅ 100
▁고ᄋ부르ᄅ 100
▁대하ᄀ교 100
▁그거르ᄅ 100
▁무ᄅ로ᄂ 100
▁하ᄂ데 100
▁개 100
미 100
▁되ᄅ 100
▁ᅡ니고 100
▁ᅡ지ᄀ 100
▁ᅡ파트 100
▁가며ᄂ 100
▁자 100
▁하ᄂ구ᄀ 100
바께 100
ᄊ느ᄂ데 100
▁가ᄊ다 100
▁호ᄂ자 100
▁ᅩ히려 100
▁때부터 100
▁ᅥᄆ마가 100
느ᄂ데 100
▁보며느ᄂ 100
p 100
▁보느ᄂ 100
▁치ᄂ구드리 100
▁바ᄂ 100
▁저네 100
▁해써ᅭ 100
▁되느ᄂ데 100
지ᄂ 100
▁바로 100
▁하니까 100
▁내 100
▁해도 100
▁가끄ᄆ 100
▁주에 100
▁크게 100
▁ᅫ냐며ᄂ 100
해 100
▁다ᅳ메 100
▁ᅵ쓰며ᄂ 100
▁조하하느ᄂ 100
하ᄅ 100
▁치ᄂ구가 100
▁ᅡᅵ 100
므ᄅ 100
▁ᅵ써 100
▁ᅵᄊ고ᅭ 100
▁많고 100
ᅦ서 100
▁사ᄅ고 100
▁가ᄂ 100
▁자주 100
▁가ᄌ고 100
▁부ᄂ 100
▁드러 100
▁ᅧᄅ 100
부터 100
▁그러ᄂ데 100
까지 100
저기ᄂ 100
▁ᅡ빠가 100
▁많ᅳᄂ 100
▁겨우느ᄂ 100
▁주로 100
▁드러서 100
▁주느ᄂ 100
▁꼬ᄀ 100
▁되ᄂ 100
▁서ᄂ새ᄋ니ᄆ 100
▁그거느ᄂ 100
▁가자ᄋ 100
드르ᄂ 100
▁시프ᄂ 100
▁하궈ᄂ 100
고ᅭ 100
▁ᅡᆭ고 100
▁마리 100
▁가지 100
▁ᅧ어 100
▁ᅵ사 100
브ᄅ 100
▁그러ᄅ 100
▁조그ᄆ 100
▁되니까 100
라느ᄂ 100
▁시가니 100
▁나주에 100
▁하ᄂ버ᄂ 100
▁하며ᄂ서 100
▁ᅥᄡᅥ서 100
▁조 100
▁바 100
▁시ᄇ 100
▁ᅡᆭᅡᅭ 100
▁거ᅨᅭ 100
▁차 100
▁제ᄅ 100
▁ᅡ니ᄂ 100
▁그거ᄂ 100
이 100
▁ᅵᄊ거드뇨 100
▁ᅡᄅ고 100
▁게ᅵᄆ 100
▁ᅳᄋ 100
▁서ᄂ새ᄋ니미 100
▁쪼그로 100
▁그러ᄒ고 100
▁그러 100
▁ᅭ즈므ᄂ 100
▁수가 100
▁사시르ᄂ 100
▁ᅡᅨ 100
▁대하ᄀ 100
▁뭐ᄅ 100
▁마르ᄅ 100
▁따로 100
▁ᅥᄅ마 100
▁하지마ᄂ 100
▁ᅥ디 100
▁자기가 100
▁지베서 100
▁ᅵ거 100
▁나서 100
▁도ᄂ 100
▁ᅢ 100
지마ᄂ 100
▁ᅡ뇨 100
▁기ᅥ기 100
▁주ᄅ 100
▁하다 100
드ᄅ 100
▁마ᄂ나 100
며ᄂ서 100
▁하더라고ᅭ 100
▁하게 100
▁따ᄀ히 100
▁되며ᄂ 100
▁쓰느ᄂ 100
▁조하 100
▁ᅧ해ᄋ 100
▁대하ᄂ 100
더ᄂ 100
▁ᅩ래 100
▁ᅥᄡᅥ 100
▁다니고 100
▁치ᄂ하ᄂ 100
▁고ᄋ부 100
▁재미 100
며느ᄂ 100
▁주ᄋ 100
▁ᅡ빠 100
▁그러니까ᄂ 100
▁ᅵᄊ죠 100
▁거ᄂ데 100
▁치ᄂ구느ᄂ 100
▁나ᅵ 100
▁ᅩᄂ 100
▁ᅡ마 100
▁과ᄂ시미 100
시ᄂ 100
▁처ᅳ메 100
과 100
▁시퍼ᅭ 100
ᅦᅭ 100
▁거고 100
▁저희느ᄂ 100
▁부 100
▁배 100
▁모르게써ᅭ 100
▁ᅵ써ᄊ느ᄂ데 100
▁ᅪ 100
▁되지 100
라 100
▁거기ᅦ 100
▁하죠 100
▁마ᄌ느ᄂ 100
▁ᅧ기 100
▁모 100
▁ᅨ저네 100
▁도ᄋ네 100
에 100
▁그러다 100
▁저ᄂ혀 100
▁ᅥᄡ느ᄂ데 100
▁ᅣ 100
라드ᄂ지 100
▁소 100
▁ᅡᅵ드리 100
▁그러ᄆ 100
▁하지 100
▁처ᅳᄆ 100
ᅵ 100
▁나느ᄂ 100
처러ᄆ 100
▁거ᄅ로 100
▁그때느ᄂ 100
데 100
▁지그ᄆ도 100
▁대부부ᄂ 100
▁하ᄀ교ᅦ서 100
▁ᅵᄅ다느ᄂ 100
▁사라ᄆ드르ᄂ 100
▁ᅵᄅ보ᄂ 100
드르ᄅ 100
▁매ᄂ나ᄅ 100
▁모르게ᄊ느ᄂ데 100
▁저라ᄋ 100
▁치ᄂ구드르ᄂ 100
▁ᅥᄡᅵ 100
▁가ᄊ느ᄂ데 100
▁부니 100
▁사라ᄆ드ᄅ 100
두 100
메 100
▁ᅵ러 100
히 100
▁저하ᄂ테 100
▁ᅧᄅ시ᄆ히 100
▁새ᄋ가그ᄂ 100
▁ᅡ버지가 100
▁도느ᄅ 100
▁수ᅥᄇ 100
ᄇ 100
▁하며느ᄂ 100
▁돼서 100
▁서ᅮᄅ 100
▁ᅯ나ᄀ 100
▁하시느ᄂ 100
▁구 100
▁거ᄉ드리 100
▁ᅵᄊ스ᄇ니다 100
▁도니 100
▁사라 100
▁저희가 100
다고 100
▁머ᄂ저 100
▁기ᅥ게 100
▁서 100
▁ᅥ머니 100
▁나ᄅ 100
▁때메 100
ᄇ니다 100
▁ᅵ써써ᅭ 100
▁ᅵᄊ다 100
▁부부니 100
▁ᅲᄀ 100
▁ᅡ페 100
려고 100
▁ᅡ주 100
▁가타서 100
▁되나 100
▁봐ᅭ 100
▁머ᄀ느ᄂ 100
▁부ᄂ드리 100
▁저그ᄂ 100
▁ᅨ르ᄅ 100
▁봐ᄊ느ᄂ데 100
▁바께 100
▁거기느ᄂ 100
▁사고 100
▁많ᅡᅭ 100
ᅥ 100
▁그거ᄉ도 100
하게 100
▁노ᄅ 100
▁느끼미 100
▁쓰고 100
▁마냐게 100
▁부모니ᄆ 100
▁ᅩᄉ 100
▁타고 100
저그로 100
레 100
▁때ᄂ 100
▁ᅡ니ᄂ데 100
▁조ᄒ고 100
▁트ᄀ히 100
▁비스ᄉ하ᄂ 100
▁회사 100
세ᅭ 100
▁교ᅲᄀ 100
▁ᅩ고 100
▁스 100
르ᄂ 100
▁ᅵᄂ 100
▁ᅡ버지 100
▁주ᄋ구ᄀ 100
▁그래ᄊ느ᄂ데 100
▁다ᄅ 100
▁서ᄋ겨기 100
▁그러며ᄂ서 100
▁ᅢ가 100
▁지비 100
▁노ᄒ고 100
라서 100
▁하다가 100
▁새ᄋ가ᄀ해 100
▁무ᄂ제 100
▁데서 100
▁자체가 100
▁저ᄀ 100
▁해ᄊ더ᄂ 100
▁ᅨ저네느ᄂ 100
▁저ᄋ도로 100
▁ᅡᅵ드ᄅ 100
▁ᅵ시ᄇ 100
▁구ᄂ대 100
▁ᅥ리ᄅ 100
▁ᅥᄡᅳ니까 100
써ᄊ더ᄂ 100
▁쪼게 100
늬 100
▁시퍼 100
드ᄂ 100
▁다서ᄉ 100
그로 100
▁게ᅵ므ᄅ 100
▁화ᄀ시ᄅ히 100
▁가써ᅭ 100
▁봐써ᅭ 100
▁때가 100
▁노 100
▁펴니ᅦᅭ 100
▁겨우도 100
▁ᅥ머니가 100
▁ᅵᄊ지마ᄂ 100
▁자ᄆ까ᄂ 100
▁처ᅳ메느ᄂ 100
▁되ᄂ다 100
ᄊ거드뇨 100
러 100
▁도아ᄂ 100
보다느ᄂ 100
▁느끼 100
▁바다 100
▁바ᄇ 100
▁피료 100
▁봐쓰 100
▁쪼그ᄆ 100
써ᄊ느ᄂ데 100
▁며이 100
▁나ᅵ가 100
▁돼ᅭ 100
▁배ᄀ 100
므ᄂ 100
▁하잖ᅡᅭ 100
▁하ᄀ 100
다가 100
▁ᅱ해서 100
▁ᅥ려ᅮᄂ 100
▁치ᄂ구라ᄋ 100
▁히ᄆ드ᄂ 100
▁되 100
▁쪼ᄀ 100
▁ᅵ써ᄊ더ᄂ 100
▁그ᄂ처ᅦ 100
▁도ᄋ새이 100
▁새 100
▁바ᄃ고 100
▁드ᄅ고 100
▁수ᄅ 100
▁따 100
▁하고ᅭ 100
▁하ᄀ교ᅦ 100
해ᄊ더ᄂ 100
▁ᅥ쩌ᄅ 100
▁다여ᄂ히 100
▁노ᄅ고 100
▁자꾸 100
▁ᅡ니며느ᄂ 100
▁ᅭ즈메느ᄂ 100
▁ᅢ드ᄅ도 100
▁하기 100
▁두ᄅ 100
▁치 100
▁그러ᄂ지 100
▁보니까ᄂ 100
▁거니까 100
▁겨우가 100
▁쭈ᄀ 100
▁그래ᅭ 100
▁ᅵᄊ다고 100
하ᄂ테 100
▁가ᄐ 100
▁때까지 100
씨ᄀ 100
▁사ᄂ 100
▁너 100
▁ᅡ느ᄂ 100
드ᄅ도 100
▁ᅵᄊ기 100
▁펴 100
▁타 100
▁ᅨᄉ나레 100
▁서ᅮ레 100
▁많ᅡ서 100
▁훠ᄅ씨ᄂ 100
▁치ᄂ구드ᄅ하고 100
▁그러며느ᄂ 100
▁ᅵ써ᅣ 100
▁차ᅵ가 100
▁저ᄆ저ᄆ 100
▁끄ᄐ나고 100
▁뭐라 100
▁주시고 100
▁치ᄂ구드ᄅ도 100
▁ᅪᄂ저ᄂ 100
▁ᅩ며ᄂ 100
느로 100
드릐 100
▁ᅡ네 100
▁빠ᄅ리 100
▁그러ᄒ지 100
▁보ᅧ 100
▁그거ᅦ 100
▁조하ᅭ 100
▁ᅧ해으ᄅ 100
▁ᅥᄡᅥ써ᅭ 100
▁가ᅭ 100
ᄃ 100
▁ᅵ미 100
▁부ᄂ드ᄅ도 100
ᅡ 100
▁시ᄑ다 100
▁하거드뇨 100
▁새ᄋ화ᄅ 100
시고 100
그 100
▁부모니미 100
ᅵᄂ 100
▁그러ᄒ다고 100
▁치ᄂ구드리라ᄋ 100
▁ᅡᆭ느ᄂ 100
▁ᅲ 100
비 100
ᅪ 100
▁비 100
시 100
▁ᅭ즈메 100
▁펴니 100
▁누가 100
▁차라리 100
▁따라서 100
▁ᅡ빠라ᄋ 100
▁ᅥᄡ다 100
▁다드ᄅ 100
▁마ᄂ드러 100
▁무ᄂ화 100
▁다니느ᄂ 100
▁저ᄋ 100
▁ᅥᄡ 100
▁드 100
▁거기가 100
▁고ᄋ 100
▁모ᄉ하고 100
▁저ᄋ도느ᄂ 100
▁거ᄉ드ᄅ 100
▁저ᄆ 100
▁ᅩ느ᄂ 100
▁ᅡᆭᅳᄂ 100
▁부부네 100
▁가ᄇ자기 100
▁그ᄅ쎄ᅭ 100
▁ᅥᄆ마라ᄋ 100
▁다녀 100
▁ᅨᄉ나ᄅ 100
▁치ᄂ구도 100
▁부ᄂ드르ᄂ 100
▁하ᄀ새ᄋ드리 100
지느ᄂ 100
▁보며ᄂ서 100
▁새로 100
▁ᅮ리나라 100
▁과ᄂ시ᄆ 100
▁시허ᄆ 100
▁데리고 100
기가 100
▁ᅵ거ᄅ 100
▁ᅥᄡᅳᄅ 100
▁저ᄂ화 100
▁가ᄐ다 100
거 100
▁벼ᄅ 100
▁노느ᄂ 100
▁주벼네 100
▁추ᄀ구 100
▁ᅡ치메 100
▁자ᄅ하느ᄂ 100
▁사라므ᄂ 100
▁ᅥ째ᄊ드ᄂ 100
▁괘ᄂ찮ᅳᄂ 100
▁거ᄉ드르ᄅ 100
▁파ᄅ 100
▁버스 100
냐 100
ᄊ죠 100
▁나라 100
▁드러ᅭ 100
▁나ᅩ느ᄂ 100
▁ᅤ기도 100
▁ᅳᄂ 100
▁수ᄂ 100
▁ᅮ 100
▁누구 100
▁하ᄀ교르ᄅ 100
▁마ᄂ 100
으ᄂ 100
ᅧ 100
시느ᄂ 100
지도 100
▁도시 100
▁구디 100
▁가ᄐ기 100
▁나ᅪ서 100
▁돼써ᅭ 100
▁조하해 100
▁바ᄃ느ᄂ 100
▁사ᄆ시ᄇ 100
▁마시 100
▁ᅵᄊ지 100
까 100
▁나ᄆ 100
▁자그ᄂ 100
▁ᅱ 100
라ᄂ 100
▁가ᅣ 100
▁하ᄀ새ᄋ 100
▁노ᄅ러 100
▁거ᄉ 100
▁드ᄃ고 100
▁ᅮ리가 100
▁머그ᄅ 100
▁시프ᄂ데 100
그ᄂ 100
▁새ᄋ화르ᄅ 100
▁조흐ᄅ 100
▁다레 100
▁조흐ᄂ데 100
▁하시고 100
▁ᅥᄆ마느ᄂ 100
기르ᄅ 100
▁ᅡ무 100
▁마ᄂ나고 100
▁보내 100
▁하ᄀ교느ᄂ 100
▁지내 100
▁저ᄋ치 100
▁ᅥᄆ 100
▁봐 100
▁쓰 100
▁과ᄂ리 100
▁마ᄂ나느ᄂ 100
▁ᅵ버네 100
▁하루 100
▁보러 100
▁ᅡᄅ바 100
▁드러가서 100
▁ᅡᆭᅳᄅ까 100
▁ᅵ써ᄊ고 100
▁트ᄀ벼ᄅ히 100
▁ᅵ거ᄂ 100
▁서ᅮ레서 100
▁데가 100
▁ᅥᄡ고ᅭ 100
▁ᅵᄊ기ᄂ 100
▁화ᄀ 100
▁되ᄂ다고 100
▁그러느ᄂ 100
▁쪼게서 100
해ᅭ 100
▁도ᄋ새ᄋ 100
▁나가 100
▁나가서 100
▁고시 100
▁교 100
▁하ᄅ머니 100
▁사라므ᄅ 100
▁해보고 100
▁가끄ᄆ씨ᄀ 100
▁가ᄐ고ᅭ 100
▁초 100
자 100
▁기ᅥᄀ 100
▁두리 100
▁거잖ᅡᅭ 100
▁하거나 100
▁재미ᄊ느ᄂ 100
▁나ᄂ 100
▁쪼기 100
▁ᅡ지그ᄂ 100
▁조하해ᅭ 100
▁펴ᄂ하게 100
▁조하ᄊ더ᄂ 100
▁무ᄂ제가 100
▁사지ᄂ 100
▁부ᄅ펴ᄂ하 100
▁ᅡᅵ가 100
▁ᅵᅣ기 100
▁ᅪᄊ느ᄂ데 100
▁사라ᄆ도 100
▁가느ᄂ데 100
▁쓰ᄅ 100
▁ᅡ파트ᅦ 100
▁느끼ᄆ 100
▁드러가 100
▁겨우 100
▁ᅤ기느ᄂ 100
▁ᅡᆭᅡ 100
ᅮᄂ 100
▁도ᄋ 100
▁걔 100
▁하ᄂ다고 100
▁부모 100
마ᄂ크ᄆ 100
▁드ᄃ느ᄂ 100
▁ᅡᄅ 100
▁바메 100
▁대화 100
▁치ᄅ 100
▁재미ᄊ게 100
▁지ᄀ저ᄇ 100
▁사라ᄆ드ᄅ도 100
▁부부ᄂ 100
▁기 100
처ᄂ 100
▁ᅧ서ᄉ 100
▁나ᅩ고 100
▁나마 100
▁과 100
▁히ᄆ드ᄅ 100
▁처 100
▁거라고 100
▁나고 100
하그ᄅ 100
▁부뉘기 100
▁거ᅭ 100
▁저르ᄅ 100
▁노래 100
▁ᅡ네서 100
▁ᅵ래서 100
▁버리 100
▁ᅵᄅ찌ᄀ 100
▁수ᅥ브ᄅ 100
▁배ᅮ고 100
▁주요하ᄂ 100
▁조하해서 100
▁사리 100
▁ᅩᄅ 100
▁ᅡ니고ᅭ 100
▁봐서 100
▁흐 100
▁나ᅪ 100
▁녀네 100
ᄂ가 100
▁ᅲ며ᄋ하 100
▁ᅵ사ᄋ 100
ᅳᄂ 100
▁파 100
▁겨ᄅ호ᄂ 100
쓰니까 100
▁ᅵᄊ게 100
▁커 100
▁ᅭ 100
▁ᅡ까 100
▁나ᅭ 100
▁최그네 100
▁ᅡᄂ처ᄅ수 100
▁개ᅯᄅ 100
▁하ᅧ트ᄂ 100
▁모르고 100
▁바다서 100
▁ᅫ냐며느ᄂ 100
▁많지 100
▁바드ᄅ 100
▁ᅡ니ᅦᅭ 100
▁모르느ᄂ 100
▁다니ᄅ 100
▁드라마 100
▁ᅯᄂ하느ᄂ 100
▁그러느ᄂ데 100
▁ᅥᄂ니 100
▁쉬 100
▁피 100
▁치ᄂ 100
▁그러ᄒ 100
▁나ᅩᄂ 100
▁마트 100
ᄊ기 100
▁과ᅬ 100
자ᄋ 100
▁겨우ᅦ 100
으로 100
쓰며ᄂ 100
▁ᅥ너 100
▁ᅵᄊ 100
▁해ᄊ고 100
▁혀ᄋ 100
▁차가 100
긔 100
사ᄋ 100
▁주ᄂ비 100
부 100
▁ᅩ빠 100
▁버느ᄂ 100
ᄂ다고 100
▁가아지 100
가티 100
▁ᅧ페 100
▁해ᄂ드포ᄂ 100
▁하루ᅦ 100
▁거ᄂ지 100
▁모드 100
▁ᅡ파트가 100
▁화 100
▁드러가느ᄂ 100
▁ᅡᆭ나 100
구나 100
▁가쓰ᄅ 100
▁써 100
▁부ᄂ드ᄅ 100
▁다니며ᄂ서 100
▁모ᄉ하느ᄂ 100
▁조교 100
▁ᅵᄅ바ᄂ 100
써 100
▁머리 100
▁되ᅥ 100
▁그러지 100
▁빼 100
▁호 100
▁도아리 100
▁나머지 100
해ᅣ 100
▁시ᄑ고 100
▁제대로 100
▁마자ᅭ 100
▁시가느ᄅ 100
▁ᅵᄂ처ᄂ 100
▁조ᄒ다고 100
▁ᅬ구ᄀ 100
▁ᅢ드르ᄅ 100
▁따라 100
▁마ᄂ나서 100
▁걔느ᄂ 100
▁커피 100
트 100
▁트 100
▁드러써ᅭ 100
▁ᅤ기하고 100
▁가타 100
▁ᅡ빠느ᄂ 100
▁많ᅳᄂ데 100
▁수하ᄀ 100
▁ᅥᄂ제 100
▁시보 100
쓰ᄆ 100
▁하ᄀ교가 100
▁되게ᄊ다 100
▁버ᄂ도 100
▁ᅵ르ᄂ 100
▁배ᅮ 100
▁줘ᅣ 100
▁버 100
▁해써ᄊ느ᄂ데 100
▁해ᄊ거드뇨 100
▁미테 100
다느ᄂ 100
▁가게 100
▁하ᄀ새이 100
▁프로 100
▁차ᅵ 100
▁하려고 100
▁무 100
▁머ᄀ 100
▁치고 100
지고 100
▁개ᅵᄂ저그로 100
▁ᅡ드ᄅ 100
▁많ᅡ 100
ᅡᄂ 100
▁거시 100
▁ᅩᄅ라가 100
하며ᄂ서 100
▁하ᄂ구게 100
▁채ᄋ겨 100
▁하ᄂ구게서 100
▁지ᄀ자ᄋ 100
▁되며느ᄂ 100
▁조ᄒ게써ᅭ 100
▁ᅳᄅ 100
▁가ᄐ더라고ᅭ 100
▁고ᄋ부하느ᄂ 100
▁ᅵᄊ다가 100
▁테ᄂ데 100
▁내고 100
ᅳ 100
▁꾸미 100
▁가며느ᄂ 100
▁ᅯᄂ래느ᄂ 100
▁뭐가 100
ᅥ서 100
▁ᅩ시ᄇ 100
▁지브ᄅ 100
▁ᅡ니ᄂ가 100
셔서 100
jo 100
ᄉ 100
▁조하하고 100
▁하세ᅭ 100
되ᄂ 100
▁히ᄆ드러 100
▁시자ᄀ하 100
▁보다 100
▁보수 100
▁다ᄂ지 100
▁서ᄂ배 100
▁꽤 100
▁커ᄆ퓨터 100
구 100
▁ᅥ리ᄂ 100
ᄂ지 100
▁걔가 100
▁다미ᄆ 100
▁ᅧᄂ라그ᄅ 100
ᅵᄅ 100
▁ᅢ기 100
▁마ᄅ고 100
▁대하궈ᄂ 100
▁그대로 100
▁새ᄋ가ᄀ해ᅭ 100
ᄊ다고 100
▁ᅧ어르ᄅ 100
의 100
▁나느ᄂ데 100
▁새ᄋ가ᄀ도 100
▁ᅧᄀ사 100
▁조ᄒ게 100
▁저ᄅ대 100
▁사서 100
▁ᅵ사ᄋ하ᄂ 100
▁싸ᅮ 100
▁도 100
▁ᅡᅮ 100
▁티브ᅵ 100
▁새ᄋ가ᄀ하고 100
▁새ᄋ기ᄂ 100
▁조ᄒ게ᄊ다 100
대 100
▁바ᄋ하ᄀ 100
▁사ᄋ화이 100
▁가기 100
▁피료하ᄂ 100
보다 100
▁태ᅥ나 100
▁ᅴ미 100
▁젊ᅳ 100
에서 100
▁기회가 100
▁무조거ᄂ 100
▁가까ᅮ 100
▁부ᄂ며ᄋ히 100
▁ᅥᄡ지마ᄂ 100
▁ᅥᄡ잖ᅡᅭ 100
▁새이ᄅ 100
▁ᅵᄊ더라고ᅭ 100
▁나가고 100
▁새ᄋ가ᄀ하ᄅ 100
써써ᅭ 100
사 100
▁도ᄋ새으ᄂ 100
▁마ᄂ드느ᄂ 100
▁ᅧᄋ화르ᄅ 100
ᄊ고 100
▁보지 100
▁돼ᄊ느ᄂ데 100
▁데느ᄂ 100
▁ᅤ기가 100
▁가ᄊ더ᄂ 100
지르ᄅ 100
저이 100
▁해쓰ᄅ 100
▁나ᅩ 100
▁부ᄅ 100
▁교사 100
사르ᄅ 100
▁무ᄂ자 100
▁하ᄀ기 100
▁허 100
▁지나 100
셔ᄊ느ᄂ데 100
▁ᅧᄂ기 100
▁드느ᄂ 100
▁바꾸 100
▁주마레 100
▁스트레스 100
▁미구ᄀ 100
▁ᅵᄂ터네ᄉ 100
▁미수ᄅ 100
▁자바 100
스 100
▁ᅥᄡ죠 100
▁쉬ᄇ게 100
▁조하써ᅭ 100
▁기ᅥ그ᄂ 100
▁ᅥᄂ니가 100
▁ᅵ버ᄂ 100
▁회사ᅦ서 100
▁ᅤ기하느ᄂ 100
▁ᅡ버지느ᄂ 100
▁ᅵᄊ다느ᄂ 100
▁ᅥ머니느ᄂ 100
▁되잖ᅡᅭ 100
▁해ᄊ지마ᄂ 100
▁ᅵᄇ시 100
▁지그ᄆ까지 100
▁매 100
▁거처러ᄆ 100
▁ᅪ써ᅭ 100
▁소리 100
▁저게 100
세 100
기느ᄂ 100
▁교회 100
ᄊ지마ᄂ 100
하며ᄂ 100
▁마ᄅ로 100
▁기ᄅ 100
▁처ᄂ 100
▁지ᄂ보 100
▁데도 100
라도 100
치 100
▁조ᄒ 100
▁사ᄅ기 100
ja 100
▁다니 100
▁따ᄅ 100
▁거지 100
▁서ᄋ햐이 100
▁느 100
▁ᅳ마ᄀ 100
▁ᅡ호 100
▁ᅬ구기ᄂ 100
▁계세ᅭ 100
▁기부니 100
▁그다메 100
▁ᅡ페서 100
▁까ᄆ짜ᄀ 100
▁ᅡ무리 100
▁ᅵᄅ고ᄇ 100
▁ᅵᅲ가 100
▁겨ᄅ호느ᄅ 100
▁그래ᅣ 100
▁ᅵᄅ주ᅵᄅ 100
▁가ᄐ지 100
▁과ᄂ려ᄂ되ᄂ 100
▁ᅥᄆ마하ᄂ테 100
▁ᅵ쓰며느ᄂ 100
▁치ᄂ구드ᄅ끼리 100
▁ᅡ라서 100
▁ᅱᅦ 100
▁비싸ᄂ 100
▁마ᅳᄆ 100
▁저ᄋ보 100
▁부부느ᄂ 100
리나 100
▁그ᄆ바ᄋ 100
▁서ᄂ 100
▁ᅧᄂ 100
▁고기 100
▁과ᄂ시므 100
▁마시고 100
사ᄂ 100
▁거ᄉ마ᄂ 100
▁ᅡᄂ되느ᄂ 100
▁피해 100
▁펴ᄂ 100
냐고 100
ᅨᅭ 100
▁가며ᄂ서 100
▁되더라고ᅭ 100
▁토ᄋ 100
▁봐ᅣ 100
궈ᄂ 100
▁저네느ᄂ 100
▁ᅥ떠 100
▁계시고 100
▁크 100
▁처ᄆ 100
▁뭐지 100
▁하라버지 100
저ᄀ 100
▁나ᄆ느ᄂ 100
▁바ᄃ 100
▁키ᅯ 100
ᅨ 100
▁마ᄅ쓰ᄆ 100
▁도ᅮ미 100
▁마ᅳ미 100
▁추 100
▁펴니라서 100
▁ᅵ러며ᄂ 100
▁시퍼서 100
▁시ᄅ제로 100
▁ᅡᆭ느ᄂ데 100
▁모르게ᄊ지마ᄂ 100
▁ᅵ러며ᄂ서 100
▁ᅲ러ᄇ 100
▁다ᄂ체 100
▁느ᄌ게 100
▁거보다 100
▁카페 100
▁드ᄅ며ᄂ 100
▁ᅵ써ᄊ거드뇨 100
구ᅭ 100
더 100
▁저ᄂ고ᄋ 100
▁치ᄂ구하ᄂ테 100
▁ᅩ스 100
▁ᅵ제느ᄂ 100
▁배가 100
▁되기 100
▁가자 100
▁누나 100
▁가니까 100
▁자ᄅ모ᄉ 100
▁까 100
▁회 100
▁거라ᄋ 100
게ᄊ죠 100
▁저ᄅ 100
시ᄀ 100
▁해ᄊ죠 100
▁새ᄋ겨 100
▁과ᄂ과ᄋ 100
▁후회 100
드ᄅ끼리 100
▁채 100
▁누ᄂ 100
▁서ᄂ새ᄋ니ᄆ드리 100
써ᄊ거드뇨 100
▁사시ᄇ 100
▁ᅡᄅ려 100
수 100
수르ᄅ 100
▁시자 100
▁보ᄀ지 100
▁자ᄋ 100
▁조하하지 100
▁ᅡ프로 100
▁조ᄒ다 100
▁교류 100
▁과ᅧᄂ 100
▁꾸주ᄂ히 100
▁체ᅲᄀ 100
▁ᅭᄋ도ᄂ 100
▁치ᄂ하게 100
▁하궈네 100
▁ᅵᄅ주ᅵ레 100
▁나쁘ᄂ 100
▁하ᄂ차ᄆ 100
▁ᅡᅵ드르ᄅ 100
▁가ᄐ스ᄇ니다 100
▁새ᄋ가게느ᄂ 100
▁조하서 100
▁쟤 100
▁ᅤ기하ᄅ 100
▁새ᄋ가ᄀ하느ᄂ 100
▁새ᄋ화리 100
▁가조ᄀ 100
▁봐도 100
▁나니까 100
▁ᅨᄉ나레느ᄂ 100
▁ᅩ마ᄂ 100
▁서르ᄂ 100
▁즈 100
▁ᅡ지ᄀ도 100
▁ᅵ처ᄂ 100
화르ᄅ 100
▁그때부터 100
니나 100
라으ᄂ 100
▁크고 100
▁펴ᄋ가 100
▁그쪼게 100
▁저ᅭ 100
해써ᅭ 100
▁느껴 100
▁ᅯ니 100
▁저ᄆ수 100
▁더ᄅ 100
▁바ᄂ대 100
▁싸 100
거ᄉ도 100
마다 100
▁후보 100
▁하기ᄂ 100
▁ᅵᄊ더ᄂ 100
소 100
ᅧᄊ느ᄂ데 100
스ᄅ 100
▁저ᄂ체 100
▁새ᄋ기 100
▁네가 100
▁ᅳᄆ시ᄀ 100
드 100
▁바쁘 100
▁ᅡ프 100
▁자시 100
▁다니ᄂ 100
▁머 100
▁혀ᄂ대 100
▁서ᄋ 100
▁교수니ᄆ 100
져 100
▁다ᄅ라 100
▁떠러져 100
▁피ᅡ노 100
▁ᅥ머니께서 100
▁도ᄋ새ᄋ하고 100
▁ᅫᄂ지 100
▁ᅡ무트ᄂ 100
▁때마다 100
▁주ᄋ가네 100
▁많ᅳ니까 100
▁부ᄅ구하고 100
▁거ᄉ드르ᄂ 100
▁수느ᄋ 100
▁기보ᄂ저그로 100
▁ᅵ래ᄊ느ᄂ데 100
▁지하처ᄅ 100
▁모ᄅ라ᄊ느ᄂ데 100
▁펴니고 100
▁사ᄅ며ᄂ서 100
▁추ᄀ제 100
▁부뉘기가 100
▁저게느ᄂ 100
▁사라서 100
▁누구ᄂ가 100
▁머거 100
▁ᅡᆭ고ᅭ 100
▁기부ᄂ 100
▁ᅥᄡ다고 100
▁그쪼그로 100
▁드시 100
▁모ᅧ 100
▁봐ᄊ더ᄂ 100
▁해ᅬ 100
▁ᅵ써도 100
▁대하그 100
돼 100
▁과모ᄀ 100
▁ᅢ드리라ᄋ 100
▁서ᄂ무ᄅ 100
▁하ᄀ새ᄋ드ᄅ 100
▁매ᅵᄅ 100
▁가ᄊ다가 100
▁시ᄑ지 100
▁키 100
▁서ᄂ거 100
▁주에서 100
▁자료 100
▁ᅨ쁘 100
▁시ᄂ겨으 100
▁다ᄅ라고 100
▁해ᅣ지 100
ᄊ스ᄇ니다 100
▁보다느ᄂ 100
▁그쪼ᄀ 100
보ᄂ 100
▁모ᄉ해서 100
▁바ᄆ 100
▁사회 100
시ᄅ 100
자으ᄅ 100
▁거거드뇨 100
▁구ᅯ 100
하거나 100
▁끄ᄐ나 100
▁ᅧᄋ 100
▁저미 100
▁그때ᄂ 100
▁ᅤ기해 100
▁겨ᄋ제 100
▁ᅮᄂ도ᄋ 100
▁다ᄅ라지 100
▁ᅵᄂ사 100
▁무ᄅ 100
ᄂ다 100
▁ᅨ저ᄂ 100
▁후 100
▁걔네 100
▁부느ᄂ 100
▁그ᄂ처 100
▁씨 100
▁피료하 100
▁도라 100
▁자라 100
▁하ᄂ구거 100
▁그리 100
▁ᅲ치ᅯᄂ 100
▁저거 100
▁지나ᄂ 100
▁기대 100
되느ᄂ 100
▁ᅩᄅ해 100
▁많죠 100
대ᅭ 100
▁고스ᄂ 100
▁고러ᄂ 100
티 100
▁ᅯᄂ씨ᄀ 100
▁태ᅥ나서 100
▁다르게 100
▁서ᄂ새ᄋ니므ᄂ 100
▁나ᄆ펴니 100
▁호테ᄅ 100
▁ᅡ내가 100
▁ᅡ니지마ᄂ 100
▁가조기 100
▁마ᄅ고느ᄂ 100
자이 100
▁ᅵ러고 100
▁누네 100
▁그거ᄅ로 100
▁하나가 100
▁하ᄀ부 100
▁돼ᅣ 100
▁ᅵ러느ᄂ 100
▁하궈니 100
▁줘ᅭ 100
▁수ᅯᄂ 100
▁대해서느ᄂ 100
▁조하하 100
▁수느ᄂ 100
혀ᄋ 100
▁해써써ᅭ 100
▁또ᄀ 100
▁드러ᄊ느ᄂ데 100
▁표 100
▁무리 100
▁주ᄂ 100
▁자고 100
▁가써ᄊ느ᄂ데 100
흐 100
▁ᅧ기서 100
▁모르 100
▁개ᅵᄂ 100
▁ᅵ해 100
▁ᅡ니니까 100
▁노ᄋ구 100
▁ᅡᄅ게 100
▁노ᄂ무ᄂ 100
▁시ᅦ 100
▁드러ᅩ 100
▁배ᅯ 100
▁ᅩ시 100
▁재 100
▁바뀌 100
지ᄅ 100
▁또느ᄂ 100
▁시ᄚᅥ하느ᄂ 100
▁쓰ᄂ 100
▁자체 100
▁버ᄅ 100
▁새ᄋ 100
▁도야ᄋ화 100
▁ᅡ치ᄆ 100
▁ᅥᄃ 100
▁교ᅲ그ᄅ 100
때마ᄂ 100
▁미 100
▁거기도 100
▁비싸 100
▁배ᅮ느ᄂ 100
▁바네 100
▁보ᅵ느ᄂ 100
▁교ᅲ기 100
하고느ᄂ 100
▁새이리 100
▁수ᅥ비 100
▁마자 100
▁츠ᄋ 100
▁대토ᄋ려ᄋ 100
▁취미 100
▁과수ᅯᄂ 100
ᅥᄊ더ᄂ 100
▁제주도 100
▁노흐ᄂ 100
▁찌거 100
▁ᅱ하ᄂ 100
▁ᅣ구 100
▁토ᄋ해서 100
▁모르게써 100
▁모ᄅ라ᅭ 100
▁두리서 100
▁사ᄋ다ᄋ히 100
▁ᅵᄊ거나 100
▁해ᄂ드포느ᄅ 100
▁ᅡᆭᅡ서 100
▁가ᄆ사하ᄇ니다 100
▁모ᄉ해ᅭ 100
▁주세ᅭ 100
▁그러ᄒ지마ᄂ 100
▁가르치느ᄂ 100
▁마ᄀ사ᄋ 100
▁사ᄅ다가 100
▁저ᅴ 100
▁사귀 100
▁너머가 100
▁ᅢ드ᄅ끼리 100
▁개가 100
▁모ᄅ래 100
▁ᅡ니라서 100
▁모ᅧ서 100
▁비해ᄋ기 100
ᄊ대ᅭ 100
▁펴니ᄂ데 100
▁ᅢ느ᄂ 100
▁하궈네서 100
▁시기 100
▁자ᄋ나ᄂ 100
▁시가네 100
릐 100
▁ᅡᆭ 100
▁무ᄂ하ᄀ 100
▁ᅵ러니까 100
▁ᅵ배ᄀ 100
▁하시느ᄂ데 100
▁가네 100
▁ᅵ래 100
▁겨ᄋ 100
▁버ᄂ씨ᄀ 100
뭐 100
▁하ᄀ교도 100
ᅵᄂ데 100
▁ᅡ라 100
▁거기ᄂ 100
▁거고ᅭ 100
▁저하고 100
▁보ᄋ사 100
하기 100
▁하ᄂ다 100
▁나가느ᄂ 100
▁바ᄀ 100
▁ᅥᄡᅥᄊ 100
▁채그ᄅ 100
▁ᅣᄀ 100
드ᄂ지 100
▁ᅡᅳ 100
▁봐ᄊ고 100
▁시ᄚᅥ 100
▁처ᄉ 100
▁차르ᄅ 100
▁마ᄂ하ᄂ 100
▁키ᅮ느ᄂ 100
▁보기 100
다ᄋ 100
▁수시 100
▁기가니 100
▁소ᄂ 100
▁대로 100
▁보니ᄂ 100
▁도ᅪ 100
▁드ᄅ기 100
▁케ᅵ스 100
주 100
▁스무 100
주ᄋ 100
▁내느ᄂ 100
▁저러ᄂ 100
덟 100
▁느끼느ᄂ 100
▁시켜 100
▁드러가며ᄂ 100
셔 100
▁보게 100
▁시ᄆ지ᅥ 100
▁비해서 100
▁도대체 100
▁스스로 100
▁가ᄀ자 100
▁끄 100
▁며ᄎ며ᄎ 100
▁시ᄂ겨ᄋ 100
▁추ᄋ부ᄂ히 100
▁또ᄀ가트ᄂ 100
▁ᅥᄡᅳ며ᄂ 100
▁노어 100
▁저ᄋ치ᅦ 100
▁노려그ᄅ 100
▁새ᄋ기고 100
▁조하하느ᄂ데 100
▁드러ᅩ고 100
▁저ᄆ수가 100
▁데로 100
▁시ᄑ다고 100
드시 100
▁ᅬᅦ느ᄂ 100
▁ᅡ니ᄆ 100
▁노어ᄇ 100
▁보ᅵ 100
▁고ᄋ부가 100
▁게ᅵ미 100
▁뛰ᅥ 100
▁ᅧᄋ화가 100
▁시ᄂ 100
▁저ᄂ고으ᄅ 100
▁ᅥᄡᅥᄊ느ᄂ데 100
▁거라 100
화 100
▁사라ᄆ하ᄂ테 100
즈 100
▁ᅢ르ᄅ 100
▁바드ᄂ 100
▁되느ᄂ지 100
▁쪼그ᄂ 100
▁다메 100
▁키ᅮ 100
▁마ᄂ드ᄅ 100
▁저ᄀ도 100
▁그러니까느ᄂ 100
부ᄂ드리 100
▁하러 100
▁조ᄒ지 100
▁ᅵᅲ 100
다ᄂ 100
▁빠지 100
마 100
그러ᄂ 100
끼리 100
ᅧ써ᅭ 100
▁도ᄋ기 100
▁저므ᄂ 100
▁그리ᄆ 100
▁과ᄂ 100
ᄊ느ᄂ지 100
▁서ᄂ새ᄋ니ᄆ드ᄅ 100
▁펴ᄂ하ᄂ 100
제 100
▁사ᅭᄋ하 100
▁처ᄋ소 100
ᅩ 100
▁조러ᄇ 100
▁나도 100
▁파느ᄂ 100
ᄊ다 100
하기도 100
▁ᅵᄇ 100
▁사ᄋ과 100
태 100
▁가도 100
겨 100
▁차자 100
▁주기 100
▁ᅭ새 100
▁저녀ᄀ 100
▁ᅬ구게 100
▁자ᄅ해 100
▁시고ᄅ 100
하지 100
▁혀ᄂ재 100
▁바ᄀ사 100
▁며네서 100
▁ᅵᄂ처네 100
▁모ᅡ 100
▁버ᄅ써 100
▁하ᄆ께 100
▁버ᄂ째 100
▁ᅱ주로 100
▁ᅧ르ᄆ 100
▁ᅬ고 100
▁최고 100
▁퍼세ᄂ트 100
▁ᅭ러ᄒ게 100
▁지ᅧᄀ 100
▁마지마ᄀ 100
▁대시ᄂ 100
▁바ᄀ그ᄂ혜 100
▁ᅫ냐하며ᄂ 100
▁뭐ᅧᄊ지 100
▁누나가 100
▁모르느ᄂ데 100
▁저ᄂ체저그로 100
▁겨ᄋ기도 100
▁ᅩ느ᄅ 100
▁부부느ᄅ 100
▁ᅵᅣ기르ᄅ 100
▁조러브 100
▁시ᄆ하 100
바ᄀ 100
▁ᅡᆭᅡᄊ느ᄂ데 100
▁ᅵᄊ구나 100
▁ᅥ디서 100
▁되죠 100
조 100
르 100
▁무ᄂ 100
▁서ᄋ저기 100
▁나ᄆ자가 100
▁스무ᄅ 100
▁거라서 100
▁ᅩ게 100
▁시자이 100
ᅧ서 100
▁서ᄂ태ᄀ 100
▁ᅵ거느ᄂ 100
▁화ᄅ도ᄋ 100
▁노리 100
▁해라 100
▁하시더라고ᅭ 100
▁ᅥᄆ마도 100
ᄂ히 100
▁모ᄉ하게 100
▁며니 100
▁가르치 100
▁ᅡᄇ 100
▁그때가 100
▁ᅵ러나 100
ᅥ써ᅭ 100
▁바느ᄂ 100
▁모ᅵ 100
▁하ᄀ과 100
▁많다 100
▁따ᄂ 100
▁때나 100
▁해쓰며ᄂ 100
믜 100
▁ᅡᄀ 100
▁뜨 100
▁부부 100
므로 100
▁하도 100
▁ᅮᄂ도으 100
▁거리가 100
▁세대 100
▁마ᄂ나며ᄂ 100
▁마ᄅ하 100
▁지ᄇ도 100
jɛ 100
ᅳᄆ 100
게ᄊ다 100
▁나ᅩᄅ 100
▁자ᄀ가 100
▁하셔서 100
리고 100
▁거기ᅦ서 100
▁ᅵᄇ느ᄂ 100
▁시ᄀ사 100
▁귀 100
▁ᅧ내 100
▁주지 100
▁마시ᄊ느ᄂ 100
▁가저ᄋ 100
wa 100
▁나눠 100
▁투표 100
료 100
▁티 100
▁ᅵ쓰 100
▁고ᄋ기 100
▁시ᄅ 100
까지느ᄂ 100
▁나먀ᄋ주 100
이나 100
▁처메 100
▁소ᄋ도 100
되다 100
▁도느ᄂ 100
▁ᅤ기하며ᄂ 100
▁펴ᄋ소ᅦ 100
▁서ᄋ저ᄀ 100
▁많 100
▁ᅡᆬᅡ 100
▁ᅥ짜피 100
▁조ᄒ죠 100
▁주태ᄀ 100
▁도느로 100
▁나눠서 100
▁가마ᄂ히 100
스ᄇ니다 100
뇨 100
▁많ᅡ써ᅭ 100
▁미리 100
▁저ᄋ화ᄀ히 100
▁ᅡᆭ지마ᄂ 100
▁주ᄋ가ᄂ 100
▁배ᄀ화저ᄆ 100
▁ᅡ버지라ᄋ 100
▁ᅡᆭᅡ써ᅭ 100
▁교사가 100
▁조러ᄇ하고 100
▁싸ᅮ고 100
▁바ᄋ소ᄋ바ᄂ 100
▁마르ᄂ 100
▁재미써ᅭ 100
▁보ᄋ지 100
▁마ᄂ드ᄅ고 100
▁주며ᄂ 100
▁스마트포ᄂ 100
▁ᅭ새느ᄂ 100
▁그래써ᅭ 100
▁지켜 100
▁도기ᄅ 100
▁가지로 100
▁태도 100
▁ᅮᄉ기 100
▁다ᄆ배 100
▁ᅦᅵ 100
▁무서ᅮ 100
▁ᅢ드ᄅ하고 100
▁구ᄀ가 100
▁또래 100
▁고ᄋ부도 100
▁ᅢ도 100
▁지브ᄂ 100
▁새ᄋ가ᄀ해서 100
▁하ᄂ버ᄂ도 100
▁ᅧ자가 100
▁싸게 100
▁주벼ᄂ 100
▁하ᄅ머니가 100
▁ᅨᅴ 100
▁ᅵᄇ고 100
▁치ᄂ구드ᄅ하ᄂ테 100
▁너ᄆ 100
▁두고 100
▁도ᅮ므 100
▁ᅧᄋ화느ᄂ 100
차 100
조ᄆ 100
▁싸ᄂ 100
▁구거 100
▁그러ᄒ기 100
▁비교 100
▁저보다 100
게ᄊ지마ᄂ 100
하시ᄂ 100
▁ᅵᄅ보너 100
해ᄊ느ᄂ데 100
▁저ᄋ도가 100
▁바꿔 100
▁처리 100
▁하시ᄂ 100
▁나며ᄂ 100
▁그때도 100
ᅯᄂ 100
▁뭐ᅣ 100
▁저ᄋ도까지 100
▁후ᅦ 100
▁느끼고 100
▁줘 100
▁자ᅲ 100
베 100
기나 100
▁파ᄅ시ᄇ 100
▁가르쳐 100
▁치ᄂ해지 100
▁ᅵᄅ도 100
벼ᄅ로 100
▁부ᄂ도 100
ᄂ다거나 100
저 100
ᅥᄊ느ᄂ데 100
▁ᅤ 100
▁ᅡ무거ᄉ 100
ᄅ도 100
▁ᅡᆭᅡᄊ고 100
서ᄂ 100
▁ᅧᅲ 100
▁고유 100
▁싸ᅮ느ᄂ 100
▁해써 100
▁ᅡᄑ 100
▁지ᅥ 100
더라 100
▁ᅡᆭ게 100
라드ᄂ가 100
▁ᅧᄂ라 100
▁시프 100
▁기리 100
▁채ᄀ 100
▁서ᄂ태ᄀ하 100
▁하지ᄂ 100
▁세시 100
▁무ᄂ과 100
▁부터 100
셔써ᅭ 100
▁바ᄋ 100
▁미구게 100
▁다니니까 100
▁ᅥ려서 100
▁ᅪᄊ다 100
ᅮ 100
▁서ᄋ겨ᄀ 100
▁사ᄋ태 100
▁과하ᄀ 100
▁두ᄅ째 100
▁계셔서 100
▁ᅵᆰ고 100
▁찌ᄀ고 100
▁그러ᄒ다 100
▁마ᅳ메 100
▁모르게ᄊ고 100
▁즈ᄅ기 100
▁자ᄀ녀네 100
▁자ᄀ녀ᄂ 100
▁고미느ᄅ 100
▁그나마 100
▁기피 100
▁많잖ᅡᅭ 100
▁마ᄌ춰서 100
▁키ᅮ고 100
▁노ᄅ라써ᅭ 100
▁다ᅣᄋ하게 100
▁거ᄉ처러ᄆ 100
▁ᅣᄀ가느ᄂ 100
▁겨ᅮᄅ 100
▁많더라고ᅭ 100
▁거ᄀ저이 100
녀ᄂ 100
▁펴니고ᅭ 100
▁투자 100
▁며으ᄂ 100
▁그래ᄊ거드뇨 100
▁ᅥᄅ구ᄅ 100
▁저ᄂ까지느ᄂ 100
▁그러더라고ᅭ 100
▁ᅵᄅ보느ᄂ 100
▁ᅥᄡ더라고ᅭ 100
▁되ᅭ 100
▁하라버지가 100
▁서ᄂ새ᄋ니ᄆ하ᄂ테 100
▁보느ᄂ데 100
▁ᅵ쪼ᄀ 100
▁도ᄋ네가 100
▁해ᄊ더니 100
▁ᅪᄋ따 100
▁ᅡ빠하ᄂ테 100
▁사라ᄆ드ᄅ하고 100
▁마리ᅦᅭ 100
▁시자ᄋ 100
▁때쯔ᄆ 100
▁보내느ᄂ 100
▁겨ᄋ기자이 100
▁스토리 100
▁되며ᄂ서 100
래 100
▁마다ᄋ 100
▁저ᄋ마ᄅ로 100
▁하ᄀ교ᅦ서느ᄂ 100
▁ᅡᆭᅳᄂ데 100
▁ᅢ드ᄅ하ᄂ테 100
ᅧᄊ거드뇨 100
▁그나ᄅ 100
▁겨ᅮ레 100
▁서ᅮ리 100
▁ᅡ파트느ᄂ 100
▁ᅵᄊ느ᄂ데ᅭ 100
▁대추ᄋ 100
▁녀느ᄅ 100
제가 100
▁하시며ᄂ서 100
▁헤 100
▁주느ᄂ데 100
▁사네 100
▁거ᄀ저으 100
▁츠ᄋ가 100
▁과ᄂ계 100
▁가ᄂ다고 100
▁지ᅯ느 100
▁ᅡᄂ되 100
▁꺼 100
저미 100
▁다ᄂ 100
▁돼ᄊ고 100
▁노라 100
▁자기네 100
체 100
▁노ᄋ사 100
▁지내고 100
▁도라가 100
▁수다 100
▁며 100
▁하셔 100
바ᄅ 100
그ᄆ 100
▁해보 100
▁거ᅦ서 100
ɕ 100
▁다ᄋ 100
▁ᅥ려 100
하시느ᄂ 100
▁토 100
▁겨 100
▁ᅡ기 100
▁가ᄆ 100
대로 100
▁시ᄂ도시 100
▁다르고 100
ᄊ잖ᅡᅭ 100
잖ᅡ 100
▁푸 100
▁자리 100
▁너머 100
▁자ᄀ 100
▁보자 100
▁되ᄂ다느ᄂ 100
▁츠에 100
ᄂ데ᅭ 100
▁가리키 100
▁ᅵ후로 100
도ᄋ 100
▁ᅡ르바ᅵ트 100
▁사추ᄂ기 100
▁내ᄆ새 100
▁호ᄀ시 100
▁마냐ᄀ 100
▁도ᄋ네ᅦ서 100
가ᄂ 100
▁바ᄋ버비 100
▁ᅵ르므ᄂ 100
▁ᅵ르ᄆ 100
▁머ᄅ리 100
▁며치ᄅ 100
▁ᅧᅲ가 100
▁계시ᄂ 100
▁나르ᄆ대로 100
▁부모니므ᄂ 100
▁시ᄚᅳᄂ 100
츠 100
▁ᅧ페서 100
▁ᅦᄅ지 100
▁ᅰᄂ마ᄂ하ᄂ 100
▁ᅵ거ᄉ저거ᄉ 100
▁ᅦᄅ리베ᅵ터 100
▁히ᄆ드ᄅ죠 100
▁ᅡᅵ드르ᄂ 100
▁ᅵ사ᄋ하게 100
▁ᅡ니ᅥ서 100
▁피ᄅ리피ᄂ 100
▁모ᄉ해써ᅭ 100
▁하ᄂ다거나 100
▁시끄러ᄇ 100
▁뮤지커ᄅ 100
▁ᅥᄅ마나 100
▁ᅡ니잖ᅡᅭ 100
▁그러ᄒ기ᄂ 100
▁대ᅮ 100
▁노라ᄊ더 100
▁새ᄋ가ᄀ보다 100
▁그러다가 100
▁스타ᅵ리 100
▁가죠 100
▁바ᄋ햐으 100
▁떠ᄀ보끼 100
▁나ᅪᄊ느ᄂ데 100
▁하ᄀ새ᄋ드르ᄂ 100
▁사라ᄆ드ᄅ하ᄂ테 100
▁다녀ᄊ느ᄂ데 100
▁데르ᄅ 100
▁되고ᅭ 100
▁드러ᅪ서 100
▁넓ᅳ 100
▁너ᄂ 100
▁하느ᄂ데ᅭ 100
▁소리가 100
니라고 100
▁봐ᄊ거드뇨 100
머 100
▁가거나 100
▁기사 100
▁바ᄅ 100
▁마ᄌ다 100
▁새ᄋ기며ᄂ 100
▁ᅧ자ᅢ드ᄅ 100
▁치ᄅ시ᄇ 100
▁나누 100
▁다ᄋ시ᅦ 100
▁기회 100
▁가려고 100
하느ᄂ데 100
보 100
▁가지ᄂ 100
▁가ᄋ사 100
서느ᄂ 100
▁사ᄋ가 100
쪼ᄀ 100
▁ᅧᄀ 100
▁카 100
▁ᅡ저씨 100
▁취ᅥᄇ 100
▁되서 100
▁지ᄀ 100
자고 100
▁마ᄅ쓰ᄆ하시 100
▁혀ᄋ제 100
▁너허 100
교 100
▁바에 100
▁버러 100
해도 100
▁지ᄂ 100
▁모ᄅ라 100
▁ᅲᄀ시ᄇ 100
▁주리 100
▁마ᄌ춰 100
▁하ᄇ니다 100
▁비ᄅ라 100
저ᄋ 100
▁다ᄇ다ᄇ하 100
▁화가 100
▁그래ᄊ더 100
되고 100
▁ᅥᄡ기 100
▁깨 100
▁히ᄆ드ᄅ게 100
▁ᅥᄡᅳ 100
▁미드 100
▁ᅵ쓰ᄅ까 100
▁시비 100
▁포 100
▁지키 100
▁자느ᄂ 100
▁따리 100
▁ᅥᄀ지 100
혀 100
▁드러ᅪ 100
▁마ᄉ 100
▁배ᅮᄂ 100
▁펴ᄋ 100
며ᄋ 100
▁ᅡ래 100
▁ᅩᄅ라 100
▁태모이 100
▁츠 100
저ᄋ도 100
또 100
▁ᅩ시ᄂ 100
재 100
▁겨ᄋ기자ᄋ 100
▁뒤 100
▁프라ᄋ스 100
보고 100
▁구ᄀ내 100
▁뉴스 100
▁ᅡ니까 100
▁호ᄋ대 100
토이 100
▁기계 100
과니 100
▁쪼 100
시ᄇ 100
▁테ᄂ트 100
▁지거비 100
▁머그며ᄂ 100
▁자시니 100
▁겨ᄋ기 100
▁머그러 100
▁토ᅭᅵᄅ 100
▁피시바ᄋ 100
▁서ᄅ거지 100
▁조ᅭᄋ히 100
▁저ᄆ시ᄆ 100
▁며ᄋ푸ᄆ 100
▁끄ᄐ까지 100
▁바께서 100
▁써ᄊ고 100
하궈느ᄅ 100
▁미ᄂ가ᄆ하 100
▁ᅥ제 100
▁사ᅵ가 100
▁쪼그ᄅ 100
▁과수ᅯ느ᄅ 100
▁나ᅪ써ᅭ 100
▁나ᄆ도ᄋ새이 100
▁ᅪᄊ다가ᄊ다 100
▁조ᄒ더라고ᅭ 100
▁ᅡᆭᅳᄅ 100
▁도ᄋ네ᅦ 100
▁조하하거드뇨 100
▁부모니ᄆ하ᄂ테 100
▁주ᄋ구그ᄂ 100
▁하나ᅴ 100
▁티미 100
▁대하게 100
▁빼고느ᄂ 100
▁부모니ᄆ드리 100
▁지바ᄋ 100
▁ᅵ해르ᄅ 100
▁꼬 100
▁스키자ᄋ 100
▁마ᄅ해서 100
▁서ᅮᄅ대 100
▁보잖ᅡᅭ 100
▁거잖ᅡ 100
▁짜즈ᄋ나 100
▁그러잖ᅡᅭ 100
▁소게서 100
▁파ᄅ고 100
▁그래쓰ᄅ 100
▁그쪼게서 100
▁과ᄂ계가 100
▁부부ᄂ도 100
▁호ᄂ나 100
▁하셔ᄊ느ᄂ데 100
▁하ᄅ까 100
▁저ᄋ도ᅴ 100
저ᄆ 100
▁나머지느ᄂ 100
▁계시ᄂ데 100
▁고세 100
▁주시느ᄂ 100
▁ᅵ료ᅵᄅ 100
▁나라ᅦ서 100
▁저녀게 100
▁버뮈 100
저ᄂ 100
▁거다 100
▁트러 100
▁마ᅳ므ᄅ 100
▁도ᄋ네느ᄂ 100
▁기ᄑ 100
ᅦ서도 100
▁나ᄆ펴ᄂ 100
▁무ᄂ화가 100
려 100
▁저ᄋ도마ᄂ 100
▁나서느ᄂ 100
▁바네서 100
▁괘ᄂ찮 100
ᅵ제 100
▁드리 100
▁ᅵᄅ하고 100
타 100
▁때까지느ᄂ 100
▁며으ᄅ 100
▁트ᄀ벼ᄅ하 100
▁나무 100
▁자ᄂ 100
▁그러ᄒ게까지 100
▁바브ᄅ 100
▁ᅩᄅ라ᅩ 100
▁ᅩ며ᄂ서 100
▁마ᄌ고 100
▁가다 100
▁구ᄀ 100
▁코 100
며 100
▁자ᄆ시ᄅ 100
▁ᅧ녜ᅵᄂ 100
가트ᄂ 100
▁ᅵ쓰니까ᄂ 100
수가 100
▁해ᄋ사 100
ᄂ데도 100
▁노ᄂ 100
▁거ᄀ저ᄋ 100
▁ᅦ서 100
브ᄂ 100
▁벼ᄂ 100
▁드리고 100
▁녀ᄂ도 100
▁쇼피ᄋ 100
▁마ᄅ쓰므 100
▁배려 100
▁데ᄂ 100
▁해써ᄊ거드뇨 100
▁히 100
▁도라다니 100
▁드ᄅ 100
▁나ᅩ며ᄂ 100
더ᄂ가 100
치ᄅ 100
▁하ᄂ다느ᄂ 100
▁때ᅭ 100
▁거ᄆ사 100
하 100
지ᄇ 100
▁계 100
▁드러가고 100
ᅵ메 100
▁마ᄂ드ᄂ 100
▁고ᄋ부하 100
▁계시 100
▁채기 100
▁시ᄂ고 100
▁네ᅦ 100
▁ᅥᄆ처ᄋ나 100
▁ᅵᄆ대 100
▁시ᄑ 100
▁저희도 100
▁푸러 100
배 100
▁네네 100
▁떠 100
▁마라 100
서도 100
▁비ᄂ 100
▁고미ᄂ 100
나가ᄅ 100
ᄂ도 100
▁가ᄂ다 100
▁고ᄋ가니 100
▁모ᄉ해 100
▁많기 100
▁조ᅭᄋ하 100
드ᄂ가 100
끄 100
▁겨ᅮ 100
▁ᅦ피소드 100
다서ᄉ 100
▁마피ᅡ 100
▁ᅵ마트 100
▁다ᄂ수ᄂ 100
▁소도 100
래ᅭ 100
▁소개 100
▁벼 100
나ᄂ 100
피 100
▁마ᄅ하느ᄂ 100
드ᄅ하ᄂ테 100
▁교수니미 100
▁괘ᄂ찮ᅡ 100
▁마ᄅ하며ᄂ 100
껴 100
▁드러가ᄂ 100
류 100
저러ᄂ 100
비가 100
▁커서 100
▁씌ᅮ 100
▁노후 100
▁카카ᅩ 100
▁교토ᄋ비 100
시켜 100
더라도 100
▁캐리ᄀ터 100
▁피자 100
▁소ᄀ 100
▁ᅯᄂ짜리 100
▁빠ᄅ래 100
▁ᅥ차피 100
▁나르ᄆ 100
▁가까ᅵ 100
▁수ᄀ소 100
▁사라믜 100
▁꾸므ᄅ 100
▁가겨기 100
▁주벼네서 100
▁보니니 100
퍼 100
▁누 100
▁커피쇼ᄇ 100
▁혜태그ᄅ 100
▁드ᄋ그ᄇ 100
▁ᅤ가 100
▁저러ᄒ게 100
▁ᅥᄇ무 100
▁커ᅭ 100
▁저쪼ᄀ 100
▁겨ᄅ구그ᄂ 100
▁화자ᄋ푸ᄆ 100
▁ᅦ스ᅦ네스 100
▁ᅭᄋ도느ᄅ 100
▁뒤로 100
▁저ᄌ소르ᄅ 100
▁소서ᄅ 100
▁재미써써ᅭ 100
▁개ᅵᄂ저기ᄂ 100
▁그래써써ᅭ 100
▁혀ᄂ시ᄅ저그로 100
▁ᅡᆭᅳ니까 100
▁많ᅡᄊ느ᄂ데 100
▁ᅥ머니라ᄋ 100
▁주셔ᄊ느ᄂ데 100
▁느끼므ᄂ 100
▁다ᄅ라서 100
▁조ᄒ지마ᄂ 100
▁마ᄅ쓰ᄆ드리ᄂ 100
▁노래바ᄋ 100
▁히ᄆ드ᄅ다고 100
▁겨ᄅ호ᄂ하며ᄂ서 100
▁사라ᄊ느ᄂ데 100
▁ᅥᄡᅥᄊ고 100
▁돼ᄊ죠 100
▁다ᄆ배르ᄅ 100
▁나ᄅ씨 100
▁너무너무 100
▁치ᄂ구드르ᄅ 100
▁사ᄅ다 100
▁ᅵᄇ자에서느ᄂ 100
▁ᅡ지ᄀ까지느ᄂ 100
▁뭐냐며ᄂ 100
▁ᅡ내 100
▁화자ᄋ시ᄅ 100
▁시서ᄅ 100
▁지그 100
▁다녀써ᅭ 100
▁그다ᅳ메 100
▁ᅥᄆ처ᄋ나ᄂ 100
▁싸ᅯ 100
어 100
▁고워ᄂ 100
▁배ᅮᄅ 100
▁쉬ᄇ지 100
▁나르ᄂ 100
▁ᅧᄋ화과ᄂ 100
▁벼워ᄂ 100
쓰며느ᄂ 100
▁나ᄆ고 100
▁시ᄅ제 100
▁혀ᄂ 100
▁ᅩᄅ려 100
▁취미로 100
▁ᅥᄇ체 100
▁ᅬ 100
▁ᅵᄅ하느ᄂ 100
▁너느ᄂ 100
▁ᅭ즈메ᄂ 100
▁티ᄆ 100
모 100
▁수ᄂ가ᄂ 100
▁소게 100
서부터 100
▁서ᄀ사 100
▁사ᄋ태ᅦ서 100
▁ᅵ거르ᄅ 100
▁ᅵ써서ᅭ 100
▁ᅡᅵ르ᄅ 100
▁때ᅦ 100
▁거러 100
▁나주에느ᄂ 100
▁버리고 100
▁ᅩ래되 100
부니 100
파 100
▁저ᄋ시 100
▁짜 100
▁해ᄊ다고 100
▁시ᄀ 100
▁ᅮ리느ᄂ 100
▁카카ᅩ토그 100
▁ᅡ지ᄀ까지 100
라며ᄂ 100
느 100
▁시계 100
▁노ᄒ 100
▁펴ᄋ수 100
▁ᅭ리 100
▁보시며ᄂ 100
▁사시 100
▁고ᄅ 100
사느ᄅ 100
▁기ᅥ그 100
▁사ᅥᄇ 100
▁그주에 100
▁도ᄅ려 100
▁고ᄉ 100
노 100
▁꾸 100
▁모ᅳ 100
▁재미써 100
▁시기ᅦ 100
▁가ᄂ다ᄂ하 100
▁다ᄅ리 100
▁빠ᄋ 100
▁ᅥᄋ 100
▁트ᄀ 100
▁지나가 100
▁시ᄆ 100
▁자ᄇ 100
▁버려 100
▁돼쓰ᄅ 100
▁히ᄆ드ᄅ고 100
그래서 100
▁시가 100
▁ᅣᄋ 100
▁다마ᄂ 100
▁보니 100
▁ᅤ기ᄂ 100
▁구매 100
▁ᅨ고 100
▁쓰레기 100
▁많ᅡ지 100
▁고ᄋ사 100
쯔ᄆ 100
▁거ᄅ리 100
▁히ᄆ 100
서ᄋ 100
ᄅ로 100
▁지지 100
▁ᅯ 100
▁마ᄂ나ᄂ 100
▁마차ᄂ가지 100
▁바뀌ᅥ 100
▁써서 100
ᅦ서느ᄂ 100
▁나ᄆ자드ᄅ 100
▁ᅧᄂ구 100
wɛ 100
▁사ᅵ 100
▁내려가 100
다이 100
▁패 100
되게 100
ᄋ해져 100
하ᄀ 100
▁나쁘 100
▁다리 100
▁찌그 100
▁그쪼기 100
▁기ᄆ치 100
▁ᅩᄅ리 100
▁서ᄂ배드ᄅ 100
ᄅ까 100
지가 100
▁ᅮ스 100
▁노ᄋ 100
▁ᅬ구기니 100
▁새ᄋ가ᄀ나 100
다라느ᄂ 100
▁모ᄉ하ᄅ 100
▁ᅧᄑ 100
▁ᅵᄅ보네 100
▁카드 100
▁노ᄂ무 100
져서 100
▁ᅲ하ᄀ 100
▁바니 100
▁ᅵᄇ자에서 100
▁ᅵᄊ느ᄂ지 100
▁드ᄋ로 100
▁다ᅳᄆ 100
▁사니 100
▁대저네 100
▁사ᄆ사 100
▁나ᄆ녀 100
▁저ᄂ세 100
▁ᅧ르메 100
▁사ᄋ화에서 100
▁가ᄌ다 100
▁내내 100
▁키ᄅ로 100
▁ᅩᆱ겨 100
▁ᅯ나게 100
▁트ᅱ터 100
▁처ᄉ째 100
▁괘ᄂ히 100
▁스터디 100
▁ᅭ러ᄂ 100
▁ᅧᄀ시 100
▁줘써ᅭ 100
▁ᅡᆭ죠 100
▁저려ᄆ하 100
▁다해ᄋ히 100
▁ᅡᄆ트ᄂ 100
▁브래ᄂ드 100
▁ᅧ태까지 100
▁조이ᄅ 100
▁지거브ᄅ 100
▁ᅩ배ᄀ 100
▁나ᄁ시 100
▁머ᄀ거나 100
▁크리스마스 100
▁마자서 100
▁재래시자이 100
▁과ᅵᄅ 100
▁빼고 100
▁너ᄆ게 100
▁며ᄋ씨ᄀ 100
▁배ᄀ화저미 100
▁대하게서 100
▁고여ᄂ 100
▁머거ᅭ 100
▁다르잖ᅡᅭ 100
▁시ᄂ기해써ᅭ 100
▁ᅥᄅ마드ᄂ지 100
▁나ᄆ도ᄋ새ᄋ 100
▁ᅳᄆ시그ᄅ 100
▁시자ᄀ해서 100
▁마시써ᅭ 100
▁ᅡ라ᄊ느ᄂ데 100
▁벼ᄂ화가 100
▁많ᅡᄊ더ᄂ 100
▁가써써ᅭ 100
▁나ᅪᄊ더ᄂ 100
▁부모니미라ᄋ 100
▁ᅵᄂ사하고 100
▁ᅥᄂ니라ᄋ 100
▁ᅥᄡ거드뇨 100
▁너ᄒ고 100
▁크며ᄂ서 100
▁카카ᅩ토ᄀ 100
▁벼ᄂ화 100
▁히ᄆ드러서 100
▁고ᄃ 100
▁사라ᄆ드르ᄅ 100
▁사라ᄊ더ᄂ 100
▁마ᄂ드러서 100
▁고ᄋ기도 100
▁ᅵᄊ나 100
▁ᅡᅵ드ᄅ하고 100
▁사ᅵᅦ 100
▁뛰 100
▁다르니까 100
▁회사ᅦ 100
▁ᅡ흐 100
▁ᅵ러나서 100
▁새ᄋ가ᄀ하느ᄂ데 100
▁ᅡ내느ᄂ 100
▁ᅩᄅ해느ᄂ 100
▁새ᄋ가ᄀ하 100
▁싸ᅮᄅ 100
▁ᅡ니죠 100
▁자라ᄂ 100
▁ᅳᄆ시ᄀ저ᄆ 100
ᅵᄂ제 100
▁무러보 100
▁부부네서 100
▁브 100
▁ᅡ니거드뇨 100
▁기조 100
▁하ᄀ새ᄋ도 100
▁버리ᄂ 100
버ᄂ 100
▁모미 100
▁ᅥᄂ니느ᄂ 100
▁ᅥᄡᅥᄊ거드뇨 100
▁바ᄇ도 100
▁무ᄂ제도 100
해가 100
▁누ᄂ치 100
▁ᅡ버지도 100
너 100
▁타느ᄂ 100
▁겨우ᄂ 100
시키느ᄂ 100
▁바ᄋ소ᄋ 100
▁화ᄂ겨이 100
▁괘ᄂ찮ᅳᄅ 100
▁계회ᄀ 100
▁사니까 100
▁주니까 100
▁줘서 100
▁모ᄉ하ᄂ 100
▁봐ᄊ자 100
▁시키 100
▁지바ᄂ 100
▁부ᄀ하ᄂ 100
▁고ᄋ부느ᄂ 100
▁머ᄅ 100
시기 100
개 100
▁해ᄊ기 100
▁ᅡ하 100
ᄊ고ᅭ 100
려며ᄂ 100
▁거시고 100
▁하려며ᄂ 100
▁데려 100
래ᄊ더ᄂ 100
드러ᄊ더ᄂ 100
▁ᅵ레 100
도저 100
▁해쓰니까 100
▁개르ᄅ 100
▁하더라도 100
하시고 100
▁호ᄂ자서 100
▁누니 100
▁저ᄂ무ᄂ 100
▁ᅵ쓰며ᄂ서 100
▁ᅵᄅ로 100
시ᄆ하ᄂ 100
▁꼬ᄎ 100
▁자기느ᄂ 100
▁주거나 100
▁마셔 100
▁하나느ᄂ 100
▁저나 100
▁따라가 100
무ᄅ 100
로도 100
▁사느ᄂ데 100
▁대기ᅥᄇ 100
▁기ᄆ 100
▁ᅡ파트ᅦ서 100
▁드ᄅ리 100
▁타ᄅ 100
▁무서ᅯ 100
▁재미ᄊ고 100
▁주ᄋ구거 100
그ᄂ데 100
▁키느ᄂ 100
▁자ᄇ고 100
▁시ᄚᅥ해 100
▁기차 100
▁다ᅮᄂ 100
▁치ᄂ저ᄅ하 100
▁파ᄂ 100
많ᅵ 100
▁머그 100
마ᄀ 100
▁기ᅥᄀ나 100
▁ᅧᄋ햐 100
▁부조ᄀ하ᄂ 100
▁대하ᄀ새ᄋ드ᄅ 100
▁저ᄋ화ᄀ하 100
▁해써ᄊ고 100
▁태ᅥ나ᄊ고 100
▁주시ᄂ 100
▁시ᄅ수 100
▁겨ᄅ호ᄂ하 100
▁토ᄋ제 100
ᅵ러ᄒ게 100
그냐ᄋ 100
▁과ᄂ과ᄋ지 100
▁벼리 100
하다 100
그ᄇ 100
사니나 100
▁화ᄅ바ᄅ하 100
▁ᅨ뻐 100
▁차ᄌ 100
ᅧᄊ더ᄂ 100
▁시ᄚᅥ하 100
ᄊ더라고ᅭ 100
▁그ᄂ 100
시ᄂ데 100
▁노ᄅ라 100
▁가ᄋ 100
내 100
▁지구 100
다ᄆ 100
▁기수ᄀ사 100
▁ᅵ모 100
▁도ᅪ주 100
▁저ᄂ까지 100
▁지도 100
▁ᅣ자 100
▁마ᄌ 100
▁가져 100
구ᄀ 100
과ᄂ 100
게ᄊ다고 100
▁ᅲ기 100
하ᄂ테느ᄂ 100
계 100
▁푸ᄅ 100
▁가ᄊ 100
▁하시 100
도으로 100
▁ᅵᄇ자이 100
▁나ᅩ지 100
▁모ᄉ하 100
하ᄀ교로 100
▁구겨ᄋ 100
▁ᅵᄅ부 100
▁ᅯᄅ 100
ᄋ자ᄋ 100
▁ᅵᅭᄋ하 100
▁구ᄂ 100
▁내ᄅ 100
키 100
바ᄋ 100
▁사ᄋ 100
벼ᄅ 100
▁토로ᄂ 100
▁사귀ᅥ 100
르고 100
시ᄆ 100
시보 100
▁거ᄂ무ᄅ 100
▁개ᅵ 100
▁ᅤ기하ᄂ 100
▁모스ᄇ 100
▁ᅥᅳ 100
▁사ᄅ더 100
▁노ᅵᄂ 100
▁ᅡ니라고 100
▁혀이 100
▁마ᅵ 100
드리라ᄋ 100
▁그ᄇ시ᄀ 100
▁ᅭᄀ시 100
▁스ᅱ스 100
▁가ᄅ비 100
ᄋ도 100
▁사회ᅦ 100
▁바ᄅ저ᄂ 100
▁바ᄋ버ᄇ 100
▁소ᅳᄆ 100
▁조카 100
▁시ᄑ기 100
▁대하궈네 100
▁주태게 100
▁끄ᄚᅧ 100
▁거트로 100
▁지거ᄇ 100
▁ᅧ유ᅡ 100
▁자세히 100
▁부모니ᄆ드ᄅ 100
▁시ᅯᄅ 100
▁배고프 100
▁수ᄀ제 100
▁서이니 100
▁태모ᄋ 100
▁ᅡᆭᅡᄊ나 100
▁취ᅥ브ᄅ 100
▁대부부늬 100
▁최대하ᄂ 100
▁ᅵᄅ부러 100
▁ᅮᄆ지기 100
▁조흐니까 100
▁가워ᄂ도 100
▁시프며ᄂ 100
▁펴니죠 100
▁하ᄂ펴느로 100
▁ᅳᄆ시그ᄂ 100
▁수ᅥ비ᄅ수 100
▁포하ᄆ해서 100
▁자ᅲ로ᄇ게 100
▁ᅵᄂ무ᄂ계 100
▁태ᄀ시 100
▁하귀 100
▁태모으ᄂ 100
▁ᅡ니ᅨᅭ 100
▁ᅵ사으ᄂ 100
▁드ᄋ로ᄀ그ᄆ 100
▁ᅧᄑ지ᄇ 100
▁ᅵᄂ터네스로 100
브로 100
▁저ᄂ바ᄂ저그로 100
▁ᅧ해으ᄂ 100
▁지ᄉ고 100
▁ᅵ써ᄊ죠 100
▁채소 100
▁괘ᄂ찮ᅡᅭ 100
▁비스ᄉ하게 100
▁ᅩ래ᄉ도아ᄂ 100
▁괘ᄂ찮다고 100
▁다ᅣᄋ하ᄂ 100
▁사라써ᅭ 100
▁누구나 100
▁가봐ᄊ느ᄂ데 100
▁ᅭ리르ᄅ 100
▁주ᄋ구게서 100
▁수ᅯ네 100
▁나ᅪᅭ 100
▁치ᄅ마ᄂ 100
▁후보가 100
▁모ᄉ하니까 100
▁ᅵᄂ하대 100
▁그루 100
▁조하ᄊ느ᄂ데 100
▁거ᄉ드레 100
▁그래써ᄊ느ᄂ데 100
▁모ᄅ라도 100
▁히ᄆ드러ᅭ 100
부르ᄅ 100
▁도ᅪ주느ᄂ 100
▁마ᄌ버리 100
▁마ᄌ지 100
▁도ᄀ서 100
▁하ᄇ쳐 100
▁주셔서 100
▁자ᅧᄂ 100
▁다ᄋ시ᅦ느ᄂ 100
▁하ᄂ구거르ᄅ 100
▁돼ᄊ다고 100
▁거스ᄂ 100
▁가ᄊ고ᅭ 100
▁대하궈네서 100
▁걔도 100
▁ᅵᄂ처네서 100
▁ᅤ네드리 100
▁드ᄅ고ᅭ 100
▁사ᄋ다ᄆ 100
▁ᅡᄉ 100
▁고ᄋ부하고 100
▁하궈느ᄂ 100
▁ᅩ시고 100
▁사시느ᄂ 100
▁가ᄐ다고 100
▁ᅧ기ᅦ 100
▁보내고 100
▁노려그 100
▁마시ᄅ 100
▁ᅧᄀ하 100
▁싸ᅮᄂ 100
▁가ᄊ고 100
▁부ᄅ마니 100
▁ᅩ며느ᄂ 100
▁드ᄅ더라고ᅭ 100
▁ᅡᅵ드ᄅ하ᄂ테 100
시며ᄂ서 100
▁쪼끄ᄆ마ᄂ 100
▁ᅮ리나라느ᄂ 100
▁과저ᄋ 100
▁ᅧᄅ매 100
▁다ᄇ다ᄇ해 100
▁지하 100
▁무ᄂ제느ᄂ 100
나하ᄂ테 100
▁나즈 100
냐ᅦ 100
▁ᅩ셔서 100
▁ᅪ쓰니까 100
▁ᅥ찌 100
▁주요하 100
▁그래ᄊ 100
▁하ᄅ머니라ᄋ 100
▁지ᄆ 100
▁가지가 100
▁트ᄅ리ᄂ 100
▁도ᄂ도 100
▁사ᄆ처ᄂ 100
▁가ᄆ저ᄋ 100
▁ᅵ르미 100
▁ᅢᄀ셔ᄂ 100
▁서ᄂ새ᄋ니ᄆ도 100
▁사ᅵᅦ서 100
▁사고르ᄅ 100
▁도기레 100
▁토이 100
▁자ᄋ하ᄀ그므 100
▁ᅪ쓰ᄅ 100
▁싸ᄅ 100
▁ᅡ니ᅥ 100
▁지내느ᄂ 100
▁ᅥ쩌다 100
네서 100
▁사ᄊ느ᄂ데 100
▁ᅥ더 100
▁ᅧᄋ화도 100
로ᅮᄂ 100
▁ᅵ사ᄆ 100
하니까 100
▁주거 100
▁하라고 100
▁다ᅳ메느ᄂ 100
더라구ᅭ 100
▁빠르 100
▁서ᄂ새ᄋ 100
▁그때마ᄂ 100
▁구ᄂ데 100
ᅦ느ᄂ 100
▁자기도 100
▁꼬치 100
▁하ᄂ다며ᄂ 100
▁ᅥ리니 100
▁ᅵ과 100
▁마ᅳᄅ 100
▁ᅩ잖ᅡᅭ 100
▁시가ᄂ도 100
사ᄆ시ᄇ 100
▁치ᄂ해 100
▁서ᄂ배드리 100
▁포기 100
ᄆ도 100
▁나ᅳ 100
▁ᅡ니다 100
▁하셔써ᅭ 100
▁치ᅮ 100
▁하ᄂ류 100
추 100
보다ᄂ 100
▁펴니ᄂ 100
▁ᅡ드리 100
라기보다느ᄂ 100
▁자ᄋ비 100
▁마ᄋ해 100
무르ᄅ 100
▁무러봐 100
▁ᅴ겨느 100
▁부냐 100
▁ᅧᄂ라ᄀ 100
▁돼ᄊ 100
▁메시지 100
▁마디 100
▁펴니라 100
▁바ᄅ라 100
▁ᅵ러ᄒ 100
ᄀ도 100
▁뽀ᄇ 100
▁ᅡ니기 100
▁사과 100
▁ᅵ써서느ᄂ 100
▁끄ᄐ나며ᄂ 100
▁ᅭ기 100
▁가져가 100
ᅵᄊ느ᄂ 100
▁고ᄋ부하ᄅ 100
▁ᅡ주ᄆ마 100
주ᄅ 100
▁하자 100
▁겨ᄋ차리 100
▁쯔 100
▁ᅥ려ᅯ 100
▁도ᄋ사 100
▁무러 100
▁많ᅳ시 100
▁서ᄂ수 100
치고 100
▁다ᄆ 100
▁ᅵ라고 100
▁보고서 100
▁ᅡ파 100
▁고ᄋ대 100
거ᄂ 100
▁ᅭᄀ 100
▁지지하 100
보니까 100
라더ᄂ지 100
쪼그로 100
▁나ᄆ드ᄅ 100
▁내ᅭ이 100
▁보ᅵ고 100
하다가 100
너르ᄅ 100
▁드ᄃ기 100
▁휴가 100
▁노ᄅ기 100
주느ᄂ 100
레서 100
▁끼 100
▁구시ᄇ 100
▁그러기 100
끼 100
▁차도 100
다라고 100
▁가수 100
▁ᅵᄊ냐 100
쓰 100
▁버네 100
▁드러ᅩᄂ 100
저기 100
▁데ᅦ 100
ᄊ다가 100
자가 100
▁ᅳ로 100
▁ᅵᄅ보니 100
치ᄂ 100
▁보드 100
▁버서나 100
▁미ᄃ느ᄂ 100
▁써ᅣ 100
ᄒ게 100
ᄊ냐고 100
▁부르 100
▁가ᄌ 100
▁해겨ᄅ 100
▁사ᅭ 100
▁놔 100
▁도라가느ᄂ 100
▁교보 100
▁되ᄅ지 100
더니 100
▁구ᄀ무ᄂ과 100
▁바ᄃ기 100
터ᄅ 100
▁나가ᄂ 100
▁고미니 100
▁도ᄅ 100
▁거리 100
시그로 100
쯔메 100
▁자시ᄂ 100
▁ᅧᄂ그ᄀ 100
스ᄇ 100
거니 100
되ᄅ 100
▁삐 100
▁겨ᄋ재ᄋ 100
하려고 100
▁다녀ᄊ 100
▁주ᄋ구기 100
▁하ᄇ 100
ᅯ느ᄅ 100
▁ᅡᆭᅡ쓰ᄅ까 100
드러 100
▁뭐냐 100
▁ᅮᄂ 100
▁스키 100
▁새ᄋ겨ᄊ 100
네ᅭ 100
▁드리ᄂ 100
▁뚜ᄀ 100
▁ᅫ냐 100
시ᄇ사ᄆ 100
▁드러ᄊ고 100
▁차려 100
▁테 100
▁그러ᄂ가 100
▁저ᄀ서 100
해ᄊ고 100
▁교수 100
▁노ᄅ래 100
무 100
가ᄆ 100
디 100
▁조ᄋ교 100
나ᄅ 100
마늬 100
흐ᄅ 100
▁ᅡᄇ구저ᄋ 100
▁뒤ᅦ 100
▁바퀴 100
▁미터 100
▁삶ᅵ 100
▁ᅡᄂ돼 100
▁개녀미 100
▁ᅩᆱ기 100
▁ᅥᄡᅢ 100
▁스포츠 100
▁시리즈 100
▁ᅪᅵ프 100
▁ᅴᅬ로 100
▁노추리 100
▁대시네 100
▁녀ᄂ째 100
▁되ᄅ까 100
▁ᅵᄊ잖ᅡ 100
▁뿌니지 100
▁도서과 100
▁보ᅲᄀ 100
▁시프ᄆ 100
▁ᅲ가휴지 100
▁기보ᄂ 100
▁겨ᄅ구ᄀ 100
▁캐ᄆ퍼스 100
▁크ᄅ러ᄇ 100
▁바ᄅ화 100
▁ᅮᅧᄂ히 100
▁겨ᄋ허미 100
▁표혀느ᄅ 100
▁ᅪᄋ보ᄀ 100
▁ᅣᄀ가늬 100
▁시ᄅ려기 100
▁뭐라ᄅ까 100
▁뒤ᅦ서 100
▁모ᄀ표 100
▁기수ᄅ 100
▁조하ᄊ고 100
▁ᅧ기저기 100
▁대체로 100
▁시허므ᄅ 100
▁하ᄂ구그ᄂ 100
▁주ᄋ세구거 100
▁버ᄂ씨그ᄂ 100
▁지ᄀ자으ᄅ 100
▁또ᄀ가타ᅭ 100
▁뛰ᅥ다니고 100
▁시끄러ᅯ 100
▁마시써써ᅭ 100
▁시ᄚ다고 100
▁줘ᄊ느ᄂ데 100
▁차자서 100
▁모ᄅ라써ᅭ 100
▁지하처르ᄅ 100
▁자ᄋ하ᄀ그ᄆ 100
▁조그ᄆ씨ᄀ 100
▁ᅡ라써ᅭ 100
▁타며ᄂ 100
▁쪼끄마ᄂ 100
▁사라ᅣ 100
▁나ᅩ니까 100
▁서ᄂ새ᄋ니므ᄅ 100
▁많거드뇨 100
▁ᅰᄂ마ᄂ하며ᄂ 100
▁저라으ᄂ 100
▁자ᅧᄂ스러ᄇ게 100
▁다녀ᄊ거드뇨 100
▁드러보며ᄂ 100
▁쓰느ᄂ데 100
▁조ᄒ게ᄊ느ᄂ데 100
▁ᅡᅲ 100
▁ᅩᄅ리고 100
▁마피ᅡ가 100
▁펴니거드뇨 100
▁마ᄂ나며느ᄂ 100
▁사귀고 100
▁ᅵᄊ게ᄊ죠 100
▁조ᅭᄋ하고 100
▁하게ᄊ다 100
▁ᅵ써쓰며ᄂ 100
▁교수니ᄆ께서 100
▁ᅵᄊ게ᄊ지마ᄂ 100
▁가ᄊ스ᄇ니다 100
▁ᅭ버네 100
▁하ᄂ가ᄋ 100
▁나ᄆ자드르ᄂ 100
▁ᅲ러베서 100
▁쉬고 100
▁ᅩᄅ라가서 100
▁많다고 100
▁보거나 100
▁ᅵᄊ다며ᄂ 100
▁새ᄋ가ᄀ해ᄊ느ᄂ데 100
▁겨ᄅ호ᄂ해서 100
▁시ᄅ내 100
▁ᅴ미가 100
▁ᅨ수ᄅ 100
▁모르니까 100
▁쳐다보 100
태ᅭ 100
서으ᄂ 100
▁서ᄋ저ᄀ도 100
▁피ᅡ노르ᄅ 100
▁주잖ᅡᅭ 100
▁자ᄅ모ᄉ해ᄊ다 100
▁바뀌ᄅ 100
▁겨ᄅ호ᄂ하고 100
▁비ᅭ이 100
▁ᅥᄆ마드리 100
▁보죠 100
▁지ᄇ드리 100
▁지ᅧ기 100
터 100
▁서ᄂ새ᄋ니ᄆ드ᄅ도 100
▁주더라고ᅭ 100
▁페ᅵ스부ᄀ 100
▁대저네서 100
▁새ᄋ기느ᄂ 100
라기 100
▁드ᄋ사ᄂ 100
▁ᅡ니ᄂ데ᅭ 100
▁ᅪᄊ고 100
하며느ᄂ 100
▁겨우ᅦ도 100
돼서 100
▁하ᄋ구 100
▁가다가 100
▁주태기 100
▁수ᅯ네서 100
▁하ᄀ새ᄋ드르ᄅ 100
▁노야ᄀ 100
▁주시느ᄂ데 100
▁도ᄋ새ᄋ도 100
▁개ᅵᄂ저그로느ᄂ 100
▁ᅬ구게서 100
▁많고ᅭ 100
▁해ᄂ드포니 100
▁ᅥ머니하ᄂ테 100
▁ᅴ미ᅦ서 100
▁저ᄋ도며ᄂ 100
▁시ᄀ비 100
▁나쁘지 100
▁꺼내 100
▁나죠 100
▁지바이 100
▁ᅮ리나라ᅦ서 100
▁자ᅲ로ᅮ 100
▁드러ᅩ느ᄂ 100
▁수뉘 100
▁서류 100
▁ᅡ기가 100
▁사회ᅦ서 100
무ᄂ 100
▁사너ᄇ 100
▁저ᄋ리 100
▁다미미 100
▁바ᄋ하기 100
▁서ᄋ햐ᄋ 100
▁ᅧ해ᄋ도 100
▁ᅭ그ᄅ 100
▁드니까 100
▁차즈 100
▁ᅡ파트르ᄅ 100
▁하ᄀ새ᄋ드ᄅ도 100
ᄊ게ᄊ죠 100
▁ᅧᄋ화ᅦ서 100
▁ᅡ드르ᄂ 100
수ᄂ 100
▁펴ᄂ하고 100
크 100
▁사ᅵᄂ 100
▁ᅩ니까 100
▁고ᄀ 100
▁스타ᅵᄅ 100
▁지ᄂ하ᄀ 100
▁해ᄋ저ᄋ 100
▁해ᄊ고ᅭ 100
▁나ᅵ느ᄂ 100
▁기프ᄂ 100
하죠 100
▁나라가 100
▁쓰며ᄂ 100
스러ᄇ게 100
거브ᄅ 100
▁그거ᄉ 100
▁무ᄅ가 100
겨ᄀ 100
▁고무 100
▁드러써 100
▁끄ᄐ나ᄂ 100
▁드러가ᄅ 100
▁ᅵ써ᄊ 100
되ᅥ 100
▁피ᄅ 100
▁지루하 100
▁쪼끄ᄆ씨 100
서이 100
▁저네도 100
▁소소하 100
짜 100
져써ᅭ 100
▁자브 100
▁하니까ᄂ 100
바ᄂ 100
ᅣᄀ 100
▁저희하ᄂ테 100
거리 100
▁시내 100
▁거마ᄂ 100
꾸 100
▁조ᄆ더 100
데ᅭ 100
▁자ᄅ하고 100
▁나ᄉ다 100
▁모ᄀ 100
▁저ᄂ고이 100
차ᄋ 100
▁가지느ᄂ 100
▁ᅧᄂ수 100
지마느ᄂ 100
▁해ᄋ도으 100
▁모ᄉ해ᄊ느ᄂ데 100
나ᄆ 100
▁그마ᄂ 100
▁주에느ᄂ 100
▁하기ᅦ느ᄂ 100
▁며에 100
▁시ᄅ기 100
▁ᅡ쉬ᅯ 100
마ᄅ 100
▁부ᄐ 100
▁차며 100
▁시자ᄀ 100
▁ᅧ고 100
▁하ᄋ 100
▁ᅧ자드ᄅ 100
▁수하그 100
가므ᄅ 100
▁ᅵᅥ 100
▁고ᄋ가ᄂ 100
시니까 100
리느ᄂ 100
ᄂ대ᅭ 100
▁재수 100
▁뿌니 100
▁주ᄀ 100
▁부리 100
▁계셔 100
까지ᄂ 100
새 100
▁며ᄋ도 100
▁다ᄋ시 100
▁바뀌ᄂ 100
▁쩌 100
▁따뜨ᄉ하 100
▁고ᅣᄋ시 100
▁ᅩ기 100
하지마ᄂ 100
▁비스ᄉ하 100
▁ᅧ가 100
▁치ᄂ처ᄀ 100
ᅵᄂ가 100
ᅦ도 100
▁개녀ᄆ 100
▁드러보 100
▁사ᄆ바ᄀ 100
▁새ᄋ화ᄅ비 100
▁ᅥᄅ 100
▁마ᄌ게 100
▁뻐ᄂ 100
시ᄇ파ᄅ 100
▁겨ᄅ호ᄂ하ᄂ 100
사ᄆ 100
테 100
▁도ᄋ기드ᄅ 100
마이 100
ᄋ하느ᄂ 100
버 100
▁시ᄀ다에 100
ju 100
구나라느ᄂ 100
▁되ᄂ다며ᄂ 100
▁겨ᄋ제저기 100
▁ᅪᅵ 100
▁나빠 100
▁주셔 100
▁도의 100
ᄊ네ᅭ 100
시르ᄅ 100
▁ᅡᄂ저ᄋ저기 100
로느ᄂ 100
▁하ᄂ구기 100
▁지바에 100
▁부자 100
▁해ᄋ도ᄋ 100
▁시대 100
▁세ᅯ 100
▁스마트포느 100
▁도ᄋ저 100
▁다르 100
▁거ᅣ 100
▁대하 100
▁해ᄊ다 100
며ᄂ서도 100
▁괘ᄂ찮다 100
뜨 100
▁ᅳ마그 100
▁돼ᄊ다 100
▁그르 100
게ᄊ지 100
▁나가ᅣ 100
▁치ᄆ 100
리라ᄋ 100
▁저ᄋ도ᅦ 100
ᅧᄊ고 100
ᅳᄅ 100
ᄂ다느ᄂ 100
자에서 100
▁하ᄂ구 100
니까ᄂ 100
▁거ᄂ가 100
▁버니 100
저느ᄂ 100
▁저ᄋ도ᄂ 100
wʌ 100
▁너ᄆ느ᄂ 100
▁나리 100
▁하ᄀ녀니 100
▁ᅣᄋ쪼 100
▁체 100
처 100
▁회ᅴ 100
▁마ᄂ드러지 100
루 100
▁츠이 100
▁하ᄀ부모 100
ᄂ다드ᄂ지 100
▁다르기 100
▁ᅵᄅ드ᄋ 100
▁보다ᄂ 100
▁서ᄋ저그 100
▁주제 100
교ᅲ그ᄅ 100
ᄅ려고 100
▁ᅥᅮᄅ리 100
ᄅ수로ᄀ 100
▁디제ᅵ 100
▁바빠 100
▁귀찮 100
▁보내ᄂ 100
ᅣ게ᄊ다 100
▁개ᅵᄂ주ᅴ 100
▁도ᄋ무ᄅ 100
▁ᅩᄅ라가느ᄂ 100
▁걔네드ᄅ 100
후 100
ᅵ러ᄂ 100
▁ᅡ니ᄂ가라 100
▁가ᄆ도 100
▁ᅬ과 100
스르ᄅ 100
거스ᄅ 100
▁ᅡ냐 100
▁개바ᄅ 100
▁화해 100
▁무ᅥ 100
▁나먀ᄋ주ᅦ 100
▁거ᄆ새ᄀ 100
▁드ᄃ 100
께 100
▁ᅥ머니ᄆ 100
▁느끼게 100
▁도ᄀ리 100
▁ᅭᄋ 100
▁사ᄋ처 100
▁해겨 100
▁자ᄆ 100
▁주ᄋ하ᄀ 100
▁지ᅧ게 100
▁케ᅥ 100
▁흙 100
▁파티 100
▁부모니ᄆ께서 100
▁ᅵ타ᄅ리ᅡ 100
▁도쿄 100
▁싸혀 100
▁노리터 100
▁닮ᅡ 100
▁가지ᄅ 100
▁구조 100
▁ᅡ시느ᄂ 100
▁ᅥ째 100
▁부다미 100
▁매려기 100
▁구러이 100
▁로ᄉ데 100
▁카메라 100
▁추서ᄀ 100
▁추ᅥ기 100
▁바느이 100
▁드르며ᄂ 100
▁그러묘 100
▁흐ᄂ히 100
▁삶ᅳᄅ 100
▁기보니 100
▁마치ᄆ 100
▁노프ᄂ 100
▁무료로 100
▁ᅭ버ᄂ 100
▁차서ᄂ 100
▁시ᄀ다ᄋ 100
▁처ᄋ녀ᄂ 100
▁마ᅵ너스 100
▁ᅵ후ᅦ 100
▁처ᄅ하ᄀ 100
▁체허ᄆ 100
▁노흐며ᄂ 100
▁가벼ᄇ게 100
▁채ᄀ사ᄋ 100
▁노ᄑ고 100
▁마즈며ᄂ 100
▁하ᄂ마디 100
▁바ᄅ표 100
▁모스브ᄅ 100
▁효과가 100
▁무서ᄇ게 100
▁지시그ᄅ 100
▁게ᅵ므ᄂ 100
▁자ᄂ소리 100
▁버러서 100
▁마ᅳ므ᄂ 100
▁ᅳ무ᄂ로 100
▁사ᄋ대 100
▁사ᄅ짜ᄀ 100
▁자ᄅ모스ᄅ 100
▁프로제ᄀ트 100
▁수하겨해ᄋ 100
▁가조ᄀ끼리 100
▁더ᄇ고 100
▁사ᄆ서ᄋ 100
▁계시니까 100
▁주셔써ᅭ 100
▁느껴써ᅭ 100
▁노라ᅭ 100
▁ᅡᆭᅳ며ᄂ 100
▁저ᄂ고으ᄂ 100
▁비스ᄉ해ᅭ 100
▁미수르ᄅ 100
▁ᅭᄋ도느ᄂ 100
▁하ᄂ버네 100
▁테니까 100
▁가ᄅ려며ᄂ 100
▁사ᄋ대저그로 100
▁모ᅡ서 100
▁거ᄃ느ᄂ 100
▁ᅥᄅ구르ᄅ 100
▁기보ᄂ저기ᄂ 100
▁네ᅵ버 100
▁사리고ᅭ 100
▁ᅨ체느ᄋ 100
▁ᅡᄂ녀ᄋ하세ᅭ 100
▁머거써ᅭ 100
▁고기서 100
▁모ᄅ라서 100
▁많ᅡᄊ거드뇨 100
▁새ᄋ겨써ᅭ 100
▁ᅥ머니미 100
▁시ᄚᅥ써ᅭ 100
▁ᅡᆭ거드뇨 100
▁그래ᄊ더니 100
▁시ᄂ기하ᄂ 100
▁ᅡᆭ더라고ᅭ 100
▁ᅡᆬᅡ서 100
▁주ᄋ고드ᄋ하ᄀ교 100
▁저ᄂ화버ᄂ호 100
▁자바서 100
▁ᅡᄅ잖ᅡᅭ 100
▁ᅵ써ᄊ잖ᅡᅭ 100
▁ᅡᄇ구저ᄋ도에 100
▁ᅵ써ᄊ지마ᄂ 100
▁ᅥᄇ고 100
▁미수ᄅ과ᄂ 100
▁ᅣ자르ᄅ 100
▁ᅵᄂ기가 100
▁구거라ᄋ 100
▁조하해써ᅭ 100
▁부니며ᄂ 100
▁봐쓰니까 100
▁구겨ᄋ하고 100
▁바라느ᄂ 100
▁무리가 100
▁마ᄂ나거나 100
▁마ᄅ해도 100
▁과처네서 100
▁히ᄆ드러ᄊ더ᄂ 100
▁ᅡ라ᅭ 100
▁겨ᄅ구게느ᄂ 100
▁ᅡ내도 100
▁자므ᄅ 100
▁모르게ᄊ고ᅭ 100
▁다ᄅ라ᅭ 100
▁ᅥ려ᄇ 100
▁ᅮᄂ도ᄋ하고 100
▁가르치고 100
▁ᅵ후ᅦ느ᄂ 100
▁바쁘고 100
▁ᅡᄅ기로느ᄂ 100
▁바다ᄊ더ᄂ 100
▁ᅵ레서 100
▁사러 100
▁저ᄂ고ᄋ하고 100
▁느ᄌ게까지 100
▁고ᄋ무ᅯᄂ 100
▁거기다가 100
▁주ᄂ비하고 100
▁시ᄑ고ᅭ 100
▁벼ᄅ거 100
▁기주ᄂ 100
▁ᅵᄊ대ᅭ 100
▁ᅡ니ᅥᄊ느ᄂ데 100
▁ᅯ니ᄂ가 100
▁ᅥ디ᅦ 100
▁도ᅮᄆ 100
프 100
▁저ᄋ채ᄀ 100
▁마즈 100
▁처ᄋ소도 100
▁레미제라브ᄅ 100
▁다니며ᄂ 100
▁ᅡᆭᅳᄅ까ᅭ 100
▁새ᄋ가게 100
▁대토ᄋ려이 100
▁고ᄋ부ᅦ 100
▁비하며ᄂ 100
▁티브ᅵ르ᄅ 100
▁자사고 100
▁사ᄅ며ᄂ 100
▁너머서 100
▁ᅤ느ᄂ 100
▁그저네느ᄂ 100
▁시가네느ᄂ 100
▁처메ᄂ 100
▁주태게서 100
구ᄂ 100
▁대하그ᄂ 100
▁싸고 100
▁고ᄋ가 100
▁카토그 100
▁떠나 100
▁자ᄅ하며ᄂ 100
▁드ᄅ거드뇨 100
▁최 100
▁겨ᄋ차ᄅ 100
▁ᅮ리나라가 100
▁겨ᄋ허므 100
▁다르ᄂ데 100
▁ᅩ스ᄂ 100
▁ᅵ써쓰니까 100
▁하나ᅦ 100
▁수ᅯ니 100
시죠 100
▁무ᄅ고기 100
▁자리가 100
▁저ᄂ화르ᄅ 100
▁회사가 100
▁ᅵ써ᄊ느ᄂ데ᅭ 100
▁거라으ᄂ 100
▁바ᄂ바ᄂ 100
▁무ᄅ거ᄂ 100
▁ᅥᄡᅥ서ᅭ 100
▁기가ᄂ 100
▁과제 100
▁시ᄂ호 100
▁거ᄉ드ᄅ도 100
▁서ᄂ태그 100
▁하나마ᄂ 100
려기 100
▁ᅵ버네느ᄂ 100
▁하ᄅ머니도 100
▁화나 100
▁모ᅵᄆ 100
▁초드ᄋ하ᄀ 100
▁치며ᄂ서 100
▁빠지고 100
▁떼 100
ᄋ조ᄋ 100
▁나ᅵ르ᄅ 100
버느ᄅ 100
▁하ᄂ다드ᄂ지 100
▁바ᄅ저ᄂ하 100
▁ᅪᄊ다고 100
▁ᅢ기드ᄅ 100
▁돼써 100
▁때라서 100
▁그부ᄂ 100
▁하ᄀ교ᅦ서도 100
▁ᅡ빠도 100
▁새ᄋ화레 100
▁ᅡ라ᅣ 100
▁무ᄂ버브 100
▁저하ᄂ테느ᄂ 100
▁시ᄇ사 100
▁ᅤ기하 100
▁ᅴ사 100
▁노ᄋ자ᄋ 100
▁규모 100
▁ᅧ기느ᄂ 100
▁거가 100
▁고ᄋ부ᄅ 100
▁다니지 100
▁다ᄂ지ᅦ 100
▁투 100
▁가라 100
가느ᄂ 100
▁ᅧ어느ᄂ 100
가ᅭ 100
▁시ᄆ가ᄀ하 100
▁도라서 100
▁파리 100
벼느ᄅ 100
▁차로 100
ᅥ브ᄅ 100
▁ᅵᄊ게ᄊ다 100
▁서서 100
▁부ᄀ하 100
▁도ᄅ리 100
▁ᅵᆰᅥ 100
▁거ᄂ너 100
▁너네 100
▁자시기 100
▁휴대포느 100
거느ᄂ 100
▁미구그 100
▁도ᄋ무르 100
▁넓 100
러ᄂ 100
▁ᅡ니ᄅ까 100
▁ᅧ르미 100
▁ᅡᄂ되ᄂ다 100
ᄅ래 100
▁나가ᄊ다 100
니미 100
쪼기 100
▁교수니ᄆ드ᄅ 100
씨 100
기로 100
▁히ᄆ드ᄅ다 100
▁도ᅨ 100
▁ᅬ저그로 100
▁뿌리 100
▁크기 100
▁즈ᄅ거ᅯ 100
▁떠러지 100
▁ᅬ구거 100
회 100
▁내서 100
▁ᅥ려ᄇ고 100
▁ᅡᆭᅡᄊ 100
▁하라 100
▁스타크래프트 100
▁대하기 100
하셔서 100
▁소비 100
▁되지마ᄂ 100
▁가지르ᄅ 100
▁찌ᄀ 100
▁화ᄂ겨ᄋ 100
▁드르ᄅ 100
▁ᅪᅭ 100
▁ᅡᆭ냐 100
▁ᅮ러 100
▁세계 100
▁가느ᄋ해 100
메서 100
▁마치 100
▁마ᄌ추 100
ᄋ하ᄂ 100
▁ᅵᄂ기 100
▁돼ᄊ더ᄂ 100
▁그ᄂ무 100
▁내ᅭᄋ 100
▁지저부ᄂ하 100
▁ᅡ시ᅡ 100
▁드러가기 100
리라고 100
▁ᅴ 100
▁자ᄅ하ᄂ 100
▁ᅩ르 100
▁고드ᄋ하ᄀ교느ᄂ 100
▁소느 100
▁구겨ᄋ하 100
▁나레 100
▁ᅡᆭᅳ 100
▁ᅡ느ᄂ데 100
▁부라ᄂ하 100
▁그러셔 100
▁부서 100
▁라ᅵ 100
▁대부 100
해ᄊ스ᄇ니다 100
▁싸ᅯᄊ 100
쳐 100
▁하지느ᄂ 100
ᅩ고 100
비라드ᄂ지 100
▁토ᄋ자으 100
▁화ᄅ도으 100
▁케 100
▁사ᄋ화으 100
▁ᅴ무 100
▁ᅵᄅ타 100
▁끄ᄅ 100
▁미ᄃ 100
▁그ᅦ 100
▁고쳐 100
▁내ᅭ으 100
▁까라 100
▁ᅵᅮᄉ 100
▁가지고ᅭ 100
이라ᄋ 100
▁해겨ᄅ하 100
해써ᄊ느ᄂ데 100
▁거더 100
▁겨ᄅ호ᄂ하ᄅ 100
▁거보다느ᄂ 100
하더라고ᅭ 100
저므ᄅ 100
ᅧᄊ나 100
▁무료 100
포 100
▁마시써 100
▁해ᄋ보ᄀ하 100
ᄋ저기ᄂ 100
▁자ᄆ시 100
▁ᅮᄅ 100
▁ᅵ버 100
가늬 100
▁대구 100
ᅵ쓰ᄆ 100
▁마ᄂ크ᄆ 100
▁메ᅵ 100
▁태 100
▁저ᄂ부터 100
▁트ᄅ려 100
ᄋ버ᄆ하ᄂ 100
▁처ᄋ소녀ᄂ 100
▁ᅥ하ᄀ 100
ᄊ구나 100
▁시끄러ᅮᄂ 100
▁끊겨 100
드ᄅ하고 100
▁켜 100
▁하ᄂ계 100
▁ᅵᄂ서ᄋ 100
▁나므 100
▁주벼 100
▁드려 100
이라고 100
▁보ᅧ지 100
▁빠 100
▁화ᄂ겨 100
기마ᄂ 100
▁거스ᄅ 100
▁지내다 100
▁부러ᅯ 100
▁ᅵ저네 100
▁초ᄋ 100
▁겨ᄅ저 100
▁토ᄋ화 100
▁사소하 100
겨ᄋ 100
▁기주 100
ᄊ다며ᄂ 100
서으ᄅ 100
▁꼬ᄆ꼬ᄆ하 100
▁다ᄂ저미 100
▁ᅵ러다 100
배ᄀ 100
그러니까 100
▁ᅲ지 100
▁ᅵ르 100
▁조ᄒ기 100
시더라고ᅭ 100
▁바ᄅ저느 100
▁쪼그ᄆ씨 100
▁되게ᄊ다라 100
▁치ᄂ구ᄂ데 100
▁트ᄅ리 100
▁너므 100
▁거며ᄂ 100
대르ᄅ 100
자ᄅ 100
리르ᄅ 100
배르ᄅ 100
부가 100
나ᅭ 100
▁ᅥᅮᄅ리느ᄂ 100
▁ᅥ려ᄇ다 100
▁부다ᄆ 100
▁마ᄀ내 100
▁거주 100
▁ᅩ셔 100
▁계시느ᄂ 100
▁나ᄆ펴 100
▁ᅱ허ᄆ하 100
▁ᅧ자ᅢ 100
거ᄅ 100
▁ᅥ려ᅮ 100
▁기르 100
하셔 100
▁ᅬ부 100
해ᄊ죠 100
▁다ᄋ도 100
▁배ᄀ파ᄅ시ᄇ 100
때 100
▁ᅡᄆ 100
▁따지 100
새ᄋ 100
▁ᅡ피 100
▁ᅧ녜ᅵ 100
부ᅦ 100
▁두ᄋ 100
미ᄂ 100
▁도로 100
▁ᅥ르니 100
▁ᅥ르ᄂ 100
니까ᅭ 100
보ᄀ 100
▁나ᅩᄂ다 100
가ᄋ 100
▁저마ᄂ 100
▁화기ᄂ 100
▁ᅵᄆ 100
▁ᅡᄅ기 100
서ᄀ 100
▁ᅮ녀ᄋ하 100
서니 100
더ᄂ지 100
해쓰ᄅ 100
▁하ᄅ부 100
비나 100
▁쏘 100
써ᄊ고 100
▁시자ᄀ해 100
▁ᅦᄆ 100
▁대체 100
▁ᅵ루 100
▁모ᄅ려 100
표 100
▁지ᄀ자이 100
▁비싸지 100
▁나ᄆ자ᅢ 100
▁마시ᄊ 100
▁ᅵ뤄 100
▁ᅡᄅ지 100
하ᄂ다고 100
▁또ᄀ가ᄐ 100
▁치ᄂ해져 100
무느ᄅ 100
▁사ᄋ다 100
되더라고ᅭ 100
▁시ᄂ기해 100
▁고미 100
▁라며ᄂ 100
과르ᄅ 100
▁ᅩ느르 100
▁부ᄂ다ᄋ 100
▁ᅴ미로 100
▁ᅦ스 100
▁지나며ᄂ 100
ᄅ류 100
때느ᄂ 100
▁마ᄅ쓰ᄆ드려 100
▁주ᄋ시ᄆ 100
▁과ᄂ려ᄂ 100
▁보ᄆ 100
▁ᅣᄀ소 100
▁시고레 100
▁거ᄉ보다 100
봐ᅣ 100
노ᄒ느ᄂ 100
▁부디ᄌ히 100
▁삶 100
▁하ᄂ구기ᄂ 100
▁ᅥᄡ게 100
바ᄇ 100
▁마ᄅ해 100
▁저ᄋ부 100
ᅥᄊ거드뇨 100
▁자ᄋ하ᄀ 100
▁주시 100
디ᅩ 100
뷰 100
ᅪ서 100
▁꽈 100
▁씌ᅯ 100
▁ᅴ류 100
▁슈퍼 100
▁리그 100
▁싸ᄀ 100
▁시긔 100
▁넓고 100
▁사교ᅲᄀ 100
▁카토ᄀ 100
▁그러다보니까 100
▁기느ᄋ 100
▁스ᄋ마 100
▁바ᄅ레 100
▁시ᄅ지ᄅ저그로 100
▁ᅡᄅ기로 100
▁자ᄇ혀 100
▁기다려 100
▁새ᄋ가ᄀ하ᄂ 100
▁체려기 100
▁꾸주ᄂ 100
▁보허ᄆ 100
▁메ᄆ버 100
▁피ᄋ계 100
▁모스비 100
▁미트로 100
▁소드ᄀ 100
▁코ᄂ서트 100
▁ᅱ주ᅴ 100
▁화서ᄋ 100
▁제모기 100
▁나ᄆ겨 100
▁고스로 100
▁ᅬ시ᄀ 100
▁느러나 100
▁티케ᄉ 100
▁추ᅥᄀ 100
▁ᅵ러느ᄂ데 100
▁ᅧ다ᄋ 100
▁파트타ᅵ 100
▁ᅵ무ᄂ세 100
▁ᅡ버니미 100
▁자도ᄋ차 100
▁하ᄋ고ᄋ 100
▁보토으ᄂ 100
▁ᅧ녀ᄋ과 100
▁모ᅴ고사 100
▁스파게티 100
▁코스트코 100
▁저ᄋ자ᄀ 100
▁가ᄅ드이 100
▁무ᅥᄂ가 100
▁도기르ᄂ 100
▁가ᄂ저ᄇ 100
▁ᅢ니파ᄋ 100
▁ᅥᄡᅥ써 100
▁ᅭ이네서 100
▁ᅬ로ᅯ 100
▁다투 100
▁서초도ᄋ 100
▁그루ᄇ 100
▁대추르ᄅ 100
▁떠나서 100
▁대다ᄂ하 100
▁추ᄅ시니 100
▁시러ᄇ계 100
▁카드로 100
▁가끄 100
▁하ᄇ바니 100
▁ᅵᄂ터네세 100
▁하나하나 100
▁저ᄋ시너ᄡ 100
▁ᅯᄅ그ᄇ 100
▁시ᄋ그리 100
▁또ᄀ또ᄀ하 100
▁시ᄂ시가지 100
▁기ᄆ도ᄋ수 100
▁부ᄂ리수거 100
▁바ᄋ버브ᄅ 100
▁걔라ᄋ 100
▁모ᄀ사니미 100
▁ᅧᄋ구게서 100
▁츠ᄀ며네서 100
▁개벼ᄅ 100
▁부ᄅ러서 100
▁대하ᄀ새이 100
▁배ᅯ써ᅭ 100
▁미ᄃ고 100
▁히ᄆ드니까 100
▁ᅥ려서부터 100
▁서ᄂ새ᄋ니믜 100
▁노ᄅ다가 100
▁모르지마ᄂ 100
▁나ᄆ하ᄂ테 100
▁ᅥ려ᅯ서 100
▁ᅩ르고 100
▁프로그래므ᄅ 100
▁대하궈느ᄅ 100
▁ᅵ저ᄋ희 100
▁제도가 100
▁바ᄀ무ᄅ과ᄂ 100
▁그마ᄂ두 100
▁그러더라구ᅭ 100
▁가조ᄀ드ᄅ끼리 100
▁마ᄂ나러 100
▁ᅥ려ᅯᅭ 100
▁ᅡ파ᅭ 100
▁바ᄂ차ᄂ 100
▁가주고 100
▁바뀌ᅥ서 100
▁가조ᄀ드ᄅ하고 100
▁계회그ᄅ 100
▁ᅵᄂ가ᄂ과ᄂ계 100
▁기가네 100
▁하ᄂ버느ᄂ 100
▁ᅵ미지가 100
▁ᅡᆭ잖ᅡᅭ 100
▁사라ᄆ드ᄅ보다 100
▁도ᄀ도 100
▁미ᅡᄂ하다고 100
▁걔네드르ᄂ 100
▁노트부 100
▁즈ᄅ거ᄇ 100
▁가써ᄊ고ᅭ 100
▁드러ᅩ며ᄂ서 100
▁부부ᄂ드르ᄅ 100
▁지시기 100
▁디지 100
▁그래ᄊ다가 100
▁시서르ᄂ 100
▁흐ᄋ미 100
▁지내느ᄂ데 100
▁머그며ᄂ서 100
▁그러ᄒ잖ᅡᅭ 100
▁드러보고 100
▁지추리 100
▁프로그래ᄆ 100
▁마ᄅ라느ᄂ 100
▁가ᄂ다ᄂ하게 100
▁끄ᄐ내 100
▁ᅧᄂ라ᄀ하고 100
▁ᅧᄑ지비 100
▁그쪼그ᄂ 100
▁시ᄂ무ᄂ 100
▁누나라ᄋ 100
▁비스ᄉ하ᄂ데 100
▁조하해ᄊ느ᄂ데 100
▁보시고 100
▁주죠 100
▁해ᅣ게ᄊ다 100
▁거ᄅ려서 100
▁고ᄉ도 100
▁드ᄇ니다 100
▁내려서 100
▁수주ᄂ 100
▁자라서 100
▁ᅡ니ᅥ써ᅭ 100
▁바뀌고 100
▁떠러지느ᄂ 100
▁ᅥᄡᅥ지느ᄂ 100
▁수ᅯ녀ᄀ 100
▁다ᄋ하느ᄂ 100
▁새ᄋ가ᄀ하며ᄂ 100
▁모ᄀ소리 100
▁ᅴ해서 100
자리 100
▁뭐하고 100
▁다ᄋ시느ᄂ 100
▁치ᄂ구처러ᄆ 100
▁ᅥᄃ고 100
▁그래ᄊ고 100
▁사ᄅ려고 100
▁그ᄅ쓰기 100
▁주시ᄅ 100
▁수주니 100
▁ᅵ리ᄂ가 100
▁ᅡ르바ᅵ트르ᄅ 100
▁대저ᄂ 100
▁ᅧ르메느ᄂ 100
▁무르 100
▁주ᄂ다고 100
▁드ᄃ느ᄂ데 100
▁사라므로 100
▁서ᄋ겨ᄀ도 100
▁ᅧ자ᅢ드리 100
▁새ᄋ화ᄅ하고 100
▁며이서 100
시거드뇨 100
▁보ᅧᅭ 100
▁지ᄉ느ᄂ 100
▁쉬ᅮᄂ 100
▁카카ᅩ토그ᄂ 100
▁거부가 100
▁때리고 100
▁겨ᅮ레느ᄂ 100
▁처메느ᄂ 100
▁바다ᅭ 100
▁노래가 100
▁ᅥᄡ스ᄇ니다 100
▁포ᄀ 100
▁지ᅧ게서 100
▁사ᄅ죠 100
▁ᅢ라ᄋ 100
▁누나도 100
▁부ᄅ러 100
▁펴ᄋ소ᅦ느ᄂ 100
▁부모드리 100
▁ᅵ써ᄊ고ᅭ 100
▁고ᄋ자ᄋ 100
▁돼쓰니까 100
▁비해서느ᄂ 100
▁새ᄀ까리 100
▁자체느ᄂ 100
▁시ᄆ지ᅥ느ᄂ 100
▁되나ᅭ 100
▁고세서 100
ᅵᄊ지마느ᄂ 100
▁가ᄊ거드뇨 100
지ᅭ 100
▁사라쓰니까 100
▁드라마르ᄅ 100
▁서ᄋ과 100
▁가ᄊ죠 100
ᅵ트ᄅ 100
▁거시ᄂ가 100
▁조ᄒ고ᅭ 100
▁해ᅣ죠 100
▁서ᄋ다에 100
▁ᅧᄑ지베 100
▁주에서느ᄂ 100
▁ᅳ마ᄀ회 100
▁ᅮᄀ하느ᄂ 100
▁대하ᄀ교ᅦ 100
▁치며ᄂ 100
▁마ᅣ 100
▁태ᅯ 100
▁모ᄆ 100
▁조하하니까 100
▁ᅵ리ᄂ데 100
▁ᅱᅦ서 100
▁시ᄚ다 100
▁보거드뇨 100
카 100
▁겨ᄁ 100
▁츠ᄀ며ᄂ 100
▁ᅩ빠느ᄂ 100
▁고드ᄋ하ᄀ교ᅦ 100
▁노ᄒ치 100
▁차ᅵ느ᄂ 100
▁ᅡᅵ도ᄅ 100
ᅲ 100
▁버스도 100
▁버리며ᄂ 100
▁ᅡ파트마ᄂ 100
▁ᅤ기해서 100
▁부사ᄂ 100
▁고ᄅ라 100
▁커ᄆ퓨터로 100
바다ᄊ느ᄂ데 100
▁자겨ᄀ즈ᄋ 100
▁ᅧᄂ겨ᄅ 100
▁서ᄅ며으 100
▁ᅨ수 100
▁보다가 100
▁사무시레 100
▁로마이 100
▁거ᄂ가ᄋ 100
▁사ᄋ가가 100
▁소리르ᄅ 100
▁ᅡ네서느ᄂ 100
▁노느ᄂ데 100
▁빠져 100
▁나가며ᄂ 100
▁쓰려고 100
▁하ᄀ녀네 100
▁고드ᄋ하ᄀ새ᄋ 100
▁서ᄅ교 100
▁머거서 100
▁봐써써ᅭ 100
▁크나ᅵ 100
▁ᅵ기저기 100
▁다니다가 100
▁가느ᄋ하 100
▁ᅡ치메느ᄂ 100
▁마ᄅ하고 100
▁ᅥᅮ 100
부리고 100
▁ᅥ디가 100
▁부ᄅ마ᄂ 100
▁머거ᅣ 100
▁때ᄂ가 100
그러ᄒ게 100
▁ᅥᄂ 100
▁보ᄂ서 100
▁치ᄂ구ᅦ 100
▁치ᄂ구드ᄅ하고느ᄂ 100
▁소그로 100
부터느ᄂ 100
▁ᅵᄅ바ᄂ고 100
ᅳᄃ 100
▁노ᄑ 100
녀 100
끄ᄆ 100
자브ᄅ 100
▁그러나 100
▁가태서 100
▁ᅥᄡᅥ도 100
▁가바ᄋ 100
▁터미너 100
▁저ᄋ시ᄂ 100
▁하더ᄂ 100
▁주ᅭ 100
▁j 100
▁ᅵ미지 100
▁ᅮ스ᄋ 100
게서 100
▁나ᄉ 100
▁가ᄂ다거나 100
▁머ᄀ느ᄂ데 100
▁주에서도 100
▁ᅥ디ᄅ 100
▁해ᄋ보ᄀ하지 100
▁그드릐 100
▁주ᅱᅦ 100
▁시ᄆ해지 100
▁마트가 100
▁거구나 100
▁제도 100
▁배ᅮ가 100
▁나무가 100
▁드러가ᅣ 100
▁그ᄅ로 100
▁조이 100
▁새ᄋ화르ᄂ 100
▁드러ᄊ거드뇨 100
▁푸ᄅ리 100
도시가 100
▁케ᅵ 100
가ᄅ 100
▁자ᄆ시레 100
니ᅥᄊ느ᄂ데 100
▁매ᄂ 100
되거나 100
▁드ᄉ하ᄂ 100
▁누나느ᄂ 100
▁그ᄋ저ᄋ저기 100
▁놔ᅣ 100
▁시ᄆ시ᄆ하 100
▁배나여해ᄋ 100
▁ᅢ하ᄂ테 100
▁지나치 100
▁ᅴ겨ᄂ 100
ᄅ리고 100
▁떠드ᄅ 100
▁저ᄋ해지 100
▁사저ᄂ 100
▁대추ᄅ 100
▁지내ᄊ 100
▁가거드뇨 100
▁미ᅡᄂ하 100
시느ᄅ 100
▁때니까 100
그므ᄅ 100
▁하시다가 100
▁고햐 100
▁바이 100
▁대게 100
▁머시써ᄊ더 100
▁부ᄂ하고 100
▁ᅪ서느ᄂ 100
▁지바니 100
하ᄀ교 100
▁저ᄂ부 100
▁바라ᄆ 100
▁로마 100
▁해봐ᄊ느ᄂ데 100
궈느ᄅ 100
▁취하 100
▁투ᄀ 100
벼 100
▁때려 100
▁너ᄒ느ᄂ 100
▁저ᄋ도ᅭ 100
▁바에서 100
▁화기 100
▁주ᄋ구기ᄂ 100
▁ᅤ기하며ᄂ서 100
▁가고ᅭ 100
▁하ᄆ 100
▁내리 100
▁느껴지 100
▁꾸ᄆ 100
▁수ᄂ수 100
▁치며느ᄂ 100
▁ᅴ지 100
하지ᄂ 100
▁주ᄀ느ᄂ 100
마ᄂ하ᄂ 100
▁조리 100
냐며ᄂ 100
ᄇ고 100
모ᄀ 100
▁재미ᅥᄡ 100
▁시대ᅦ 100
새ᄀ 100
테서 100
▁차자가 100
▁서ᄋ저 100
▁초대 100
▁거러가 100
▁바다게 100
▁거기서느ᄂ 100
다시피 100
▁따드ᄉ하 100
▁취 100
▁깨지 100
셔ᄊ대ᅭ 100
▁호테 100
▁보ᄀ 100
▁ᅵᄅ저ᄋ 100
코 100
▁과ᄋ 100
▁보ᄀ자ᄇ하 100
▁ᅧ기가 100
▁지퍼 100
ᄀ하고 100
▁ᅥ새ᄀ하ᄂ 100
거르ᄅ 100
나미 100
기라드ᄂ지 100
▁페ᅵ스부 100
내기 100
▁나므ᄅ 100
▁키ᅮ기 100
▁저ᄋ도르ᄅ 100
지ᅦ 100
▁ᅵ사이 100
▁ᅧ서ᄋ 100
▁찌 100
▁지추르 100
▁주마ᄅ 100
ᄋ하고 100
그비 100
▁수화ᄀ 100
▁깨끄ᄉ해 100
▁ᅲ가 100
▁가ᄀ 100
▁드ᄋ 100
써ᄊ고ᅭ 100
따 100
▁ᅭ구 100
체저그로 100
▁ᅡ니ᄅ 100
▁저메서 100
시느ᄂ데 100
▁ᅧᄂ주 100
ᄋ가 100
▁티브ᅵᅦ 100
▁조하하셔 100
▁ᅵᄂ저ᄋ하 100
▁ᅨ미ᄂ하 100
푸ᄆ 100
르ᄆ 100
▁재미ᅥᄡᅥ 100
▁자ᄋ다ᄂ저 100
▁고드ᄋ하ᄀ교ᅦ서 100
▁나제 100
도가 100
▁비포 100
▁파라 100
▁추ᄅ 100
▁가ᄋ하 100
▁미테서 100
▁커지 100
▁ᅵ마ᄂ 100
▁ᅪ써 100
▁차ᄌ느ᄂ 100
▁차자보 100
리니까 100
ᅧ저 100
▁드ᄋ사 100
▁마다에 100
▁자ᄋ저미 100
▁제시 100
▁고려 100
거드ᄂ 100
치르ᄅ 100
▁보ᅵ지 100
지리 100
자르ᄅ 100
▁ᅧ나 100
▁ᅥᅵ 100
▁화ᄀ시ᄅ하 100
▁그러시 100
▁무시 100
▁ᅩᄅ라가며ᄂ 100
▁ᅵᄇ하ᄀ 100
▁봐ᄊ 100
▁조ᄒ게ᄊ다라 100
▁서ᄂ호하느ᄂ 100
▁거시다 100
▁따ᄀ따ᄀ하 100
기ᅭ 100
▁추ᄋ 100
▁ᅭ이 100
노ᄒ고 100
▁ᅡ쉬ᄇ 100
로서 100
피가 100
휴가 100
ᅯ 100
▁시자ᄀ하고 100
▁지궈ᄂ 100
▁ᅡ라봐 100
새ᄋ기ᄂ 100
사이 100
▁계셔ᄊ 100
▁차자ᅪ 100
▁바ᄃ지 100
▁가겨그 100
▁취지ᄀ 100
▁파ᄂ매 100
▁자ᄀ푸ᄆ 100
주려고 100
과느ᄂ 100
부늬 100
하세ᅭ 100
▁주ᄋ구그 100
▁추ᄀ하 100
규 100
▁치ᄂ구ᄂ 100
▁혀ᄂ시ᄅ 100
▁도ᄀ리ᄇ 100
▁도라가시 100
▁고거 100
▁처ᅳ미 100
▁주요 100
▁호수 100
▁고ᄋ교ᅲ 100
ᅩ시ᄇ 100
▁크다 100
셔ᄊ거드뇨 100
▁ᅴ겨 100
▁녀니 100
▁주무시 100
로마ᄂ 100
▁써ᄊ다 100
가지고 100
▁시ᄀ구 100
▁따이 100
▁자ᄋ소 100
▁ᅵᄅ보느 100
스로 100
▁자ᄅ모ᄉ하 100
▁ᅡᄂ되고 100
뉴 100
▁가느ᄋ하ᄂ 100
리가 100
▁제ᅵ 100
▁버리ᄅ 100
▁모르게 100
▁흐ᄋ 100
▁머거ᄊ 100
▁ᅩ지 100
▁주ᄂ비하 100
▁ᅧ하ᄀ새ᄋ 100
▁후배 100
▁내녀ᄂ 100
▁대부부니 100
▁뽀ᄇ느ᄂ 100
▁지ᄂ하그 100
파ᄂ 100
▁사ᅣ 100
▁조하ᄊ 100
가르ᄅ 100
▁치ᄂ구네 100
셔ᄊ다고 100
ᄅ려 100
▁과자 100
▁사ᄋ과너ᄡ 100
▁마ᄅ하기 100
▁조ᄋ 100
ᄋ마ᄂ 100
▁크지 100
▁ᅤ기드ᄅ 100
부ᄂ드ᄅ 100
다거나 100
▁ᅨ매 100
ᄆ부터 100
ᄅ과 100
▁마ᄐ기 100
▁므 100
▁봐써 100
▁나르ᄅ 100
기리 100
▁대해 100
로써 100
ᅵᄂ지 100
끄러 100
니라 100
▁봐주 100
라고ᅭ 100
ᅧᄊ죠 100
바 100
▁대ᅡ 100
▁ᅡᆭᅡ써 100
므 100
▁해ᄋ 100
▁끄티 100
▁미ᄂ가ᄆ하ᄂ 100
다르ᄂ 100
▁되냐 100
▁바꾸ᄂ 100
▁ᅧ해이 100
나라도 100
▁카카ᅩ토 100
ᄊ게ᄊ지마ᄂ 100
▁ᅮᄅ리 100
다니 100
▁ᅪᄂ 100
시ᄇ치ᄅ 100
▁다ᄇ다ᄇ하ᄂ 100
▁ᅥ떠ᄒ 100
둬 100
며이 100
ᄀ하ᄂ 100
도에 100
쪼게 100
▁껴 100
▁ᅲ치 100
▁조ᄋ류 100
▁마ᄉ지ᄇ 100
▁자제 100
▁토ᄋ사로 100
▁기다리 100
▁사다 100
▁ᅡᅵ도 100
페 100
내ᄅ 100
▁사리ᄂ 100
▁가시ᄂ 100
저르ᄅ 100
▁ᅥ때 100
▁쳐 100
▁끊ᅥ 100
▁서ᄂ태 100
까지도 100
▁구ᄇ 100
▁자르 100
▁사ᄆ초ᄂ 100
메도 100
▁퍼 100
▁하ᄇ겨ᄀ 100
▁개서 100
▁화ᄀ시ᄅ 100
▁느끼기 100
▁구ᄀ미ᄂ 100
▁겨ᄋ재 100
저레 100
▁휴하 100
▁피ᄅ리피니 100
▁화료ᄋ 100
거ᄂ데 100
▁조ᄂ재 100
ᄁ고 100
▁미러 100
▁하ᄂ때 100
▁드세 100
▁ᅵ서ᄋ 100
▁ᅬᅦ 100
▁채기ᄆ 100
▁시ᄂ나 100
더구 100
▁쪼끄 100
▁짜즈 100
▁해ᄊ 100
▁ᅵᄂ터 100
▁나가셔 100
▁차벼ᄅ 100
화되 100
▁나누느ᄂ 100
▁고드ᄋ하ᄀ새이 100
▁추ᄋ겨 100
▁부냐ᅦ 100
▁많ᅡ져ᄊ 100
▁머ᄂ 100
▁자며ᄂ 100
▁ᅵ후 100
▁미ᄅ 100
▁서ᄅ 100
▁마ᄂ조ᄀ하 100
▁가ᄋ나ᄆ 100
리며ᄂ서 100
▁가계부 100
▁ᅵᄂ하 100
▁사리ᄇ 100
저므ᄂ 100
▁효과 100
ᅦ스 100
도로ᄀ 100
▁ᅵᄊ더라 100
▁과처네 100
▁무ᅥᄉ보다 100
▁겨ᄅ구게 100
▁ᅡ버니ᄆ 100
▁맑 100
▁주ᄋ구게 100
▁부대 100
▁닮 100
소르ᄅ 100
▁뒈지 100
▁ᅡᅵᅦ메프 100
▁ᅡ카시ᅡ 100
▁ᅩ토바ᅵ 100
▁ᅳ롸ᄋ리 100
▁ᅵ슈 100
▁기마ᄅ고사 100
▁노호ᄋ처 100
▁러시ᅡ 100
▁배ᄂ쿠버 100
▁뿌ᄂ더러 100
▁싸ᅵᅯᄅ드 100
▁치ᄋ차ᄂ 100
▁포르투가 100
▁해ᄆ버거 100
▁히치하ᅵ크 100
▁ᅡᄆ벼ᄀ 100
▁ᅵᄂ거ᄂ비 100
▁뒤지버 100
▁서ᄂ후배 100
▁스튜ᅥ디스 100
▁저너ᄇ주부 100
▁ᅥ하겨ᄂ수 100
▁겨ᄀ차가 100
▁나ᄎ서 100
▁수ᅥ브ᄂ 100
▁드ᄋ드ᄋ 100
▁ᅯᄅ드커ᄇ 100
▁펴ᄋ초ᄂ 100
▁미ᅡᄂ해 100
▁무하ᄂ도저 100
▁파스타 100
▁드ᄋ그비 100
▁츠ᄋ짜리 100
▁자ᅧ어ᄇ 100
▁자저ᄂ거 100
▁자자ᄅ하ᄂ 100
▁체크 100
▁가ᄂ호ᄀ 100
▁사뮤ᄀ 100
▁ᅱᄉ지ᄇ 100
▁대ᄂ스 100
▁ᅧ해에 100
▁ᅲᅯᄂ지 100
▁사퇴 100
▁벼ᄂ호사 100
▁비ᄌ 100
▁펴ᄋ새ᄋ 100
▁녀서기 100
▁다ᄆ다ᄋ 100
▁토로느ᄅ 100
▁ᅰᄇ 100
▁ᅲ흐ᄋ비 100
▁ᅳᄂ해ᄋ 100
▁마지마게 100
▁수ᄂ가네 100
▁저ᄋ거자ᄋ 100
▁바ᄅ려으ᄅ 100
▁조흐셔서 100
▁그ᄅ씨 100
▁츠ᄀ며니 100
▁하냐ᄋ대 100
▁ᅬ모 100
▁미티ᄋ 100
▁ᅮᄂ저ᄂ 100
▁대다브ᄅ 100
▁서ᄂ벼ᄅ 100
▁바드며ᄂ 100
▁자ᄇ다하 100
▁하ᄀ스ᄇ 100
▁다르구나 100
▁트기하게 100
▁파뤄ᄅ 100
▁무ᄅ거느ᄅ 100
▁바드니까 100
▁피ᄅ수 100
▁주러써ᅭ 100
▁세사이 100
▁다ᅳ미 100
▁ᅵ며ᄋ바ᄀ 100
▁매버ᄂ 100
▁보니늬 100
▁ᅵ버쓰ᄅ 100
▁겨ᄋ비 100
▁때무니ᄂ 100
▁기과니 100
▁ᅵ처니 100
▁가까ᄇ고 100
▁귀찮ᅡ서 100
▁저니ᄆ 100
▁나ᅪᄊ다고 100
▁ᅩᅯᄅ 100
▁무서ᅯ써ᅭ 100
▁귀ᅧᄇ고 100
▁고야그ᄅ 100
▁싸ᅯ써ᅭ 100
▁무서ᄇ고 100
▁짧게 100
▁드ᄃ죠 100
▁ᅮ주 100
▁서ᅲ러ᄇ 100
▁드러ᅩ며ᄂ 100
▁해ᅬᅧ해ᄋ 100
▁다녀쓰니까 100
▁겨ᄇ치 100
▁마ᄌ춰ᅣ 100
▁처녀ᄂ 100
▁며ᄎ배ᄀ 100
▁그러냐며ᄂ 100
▁따지며ᄂ 100
▁혀ᄋ제드리 100
▁비ᄅ려서 100
▁무러보며ᄂ 100
▁ᅡ니ᅥᄊ고 100
▁계기가 100
▁바ᄋ과후 100
▁재미ᄊ다고 100
▁무러보니까 100
▁끊ᅥ서 100
▁가프ᄅ 100
▁보ᅵ잖ᅡᅭ 100
▁따ᄅ라ᄋ 100
▁주시그ᄅ 100
▁가조ᄀ드리 100
▁ᅵ태리 100
▁ᅩ류ᄀ 100
▁펴니ᅥ서 100
▁배다ᄅ 100
▁싸ᅮ거나 100
▁봐ᄊ죠 100
▁체버ᄅ 100
▁ᅡᆭ다고 100
▁다ᄂ저므ᄂ 100
▁표혀니 100
▁마ᄂ지고 100
▁머시ᄊ고 100
▁다르거드뇨 100
▁드르며ᄂ서 100
▁트ᄅ고 100
▁베ᅵ스 100
▁ᅵ쪼그ᄂ 100
▁매다ᄅ 100
▁하ᄅ머니께서 100
▁고쪼ᄀ 100
▁나ᄆ드르ᄂ 100
▁자조ᄂ시ᄆ 100
▁셔트ᄅ 100
▁서ᄋ취가ᄆ 100
▁과하기 100
▁하나씨ᄀ 100
▁가써ᄊ고 100
리ᄅ 100
▁서비ᄋ 100
▁세ᄉ 100
▁보ᅵ니까 100
▁피시바에 100
▁수ᅵᄇ 100
▁겨여ᄋ하ᄀ과 100
▁녀ᄂ도ᅦ 100
▁ᅧᄋ무ᄂ과 100
▁돼쓰며ᄂ 100
▁ᅥ더서 100
▁저ᄂ라도 100
▁주세 100
▁서ᄋ겨그ᄂ 100
▁그마ᄂ두고 100
▁재미써ᄊ고 100
▁미더 100
▁부모ᅴ 100
▁마ᄂ드ᄅ기 100
▁ᅧ서이 100
▁시ᄚ고 100
▁흐ᄋ미가 100
▁혀ᄋ드리 100
▁차ᄋ무ᄂ 100
▁나ᄅ라 100
▁보기ᅦ느ᄂ 100
▁따르ᄂ 100
▁테고 100
▁저ᄋ규 100
▁ᅥᄡᅥ지고 100
▁흐ᄋ미르ᄅ 100
▁태푸ᄋ 100
▁재미써서 100
▁노ᄅ거나 100
▁자ᄋ하ᄀ그미 100
▁저녀ᄀ하고 100
▁크ᄅ래시ᄀ 100
▁쓰거드뇨 100
▁보ᅵ기 100
▁나가써ᅭ 100
▁거쳐서 100
▁ᅵ시보 100
▁처ᄋ소하고 100
▁거ᄂ서ᄅ 100
▁부냐가 100
▁사ᄋ화ᄋ 100
▁대서ᄂ 100
▁스무ᄅ네 100
▁그ᄂ무르ᄅ 100
▁드러가니까 100
▁내ᅵᄅ 100
▁나쁘게 100
▁시ᄂ라 100
▁나ᅪᅣ 100
▁다니거드뇨 100
▁마ᄅ까 100
▁느끼므로 100
▁나ᅩ느ᄂ데 100
▁모ᄉ하죠 100
▁바빠서 100
▁ᅨᄉ 100
▁ᅩᄅ라ᅩ고 100
▁떠러져서 100
▁가ᄐ거드뇨 100
▁ᅥᄡᅥᄊ고ᅭ 100
▁그래ᄊ다고 100
▁자ᄀ고 100
▁시ᄚᅥ서 100
▁ᅧ자드르ᄂ 100
▁도ᄅ고 100
▁겨끄 100
▁기ᄅ거리 100
▁괴ᄋ자ᄋ 100
▁ᅧᄂ구르ᄅ 100
▁거ᄂ무리 100
▁시ᄚᅥᅭ 100
▁프 100
▁고ᄋ하ᄋ 100
▁코스 100
▁뉴스르ᄅ 100
▁초바네 100
▁빼서 100
▁대주ᄋ교토ᄋ 100
▁ᅢᅪᄂ도ᄋ무 100
▁꼬바ᄀ꼬바ᄀ 100
▁미서ᄋ녀ᄂ자 100
▁과ᄂ려ᄂ돼서 100
▁드ᄃ기로느ᄂ 100
▁ᅡᄂ돼ᅭ 100
▁페ᅵ스부기나 100
▁고ᄋ하ᄀ 100
▁사ᄋ과너ᄡᅵ 100
▁싸하 100
▁하ᄀ녀니ᄂ데 100
▁바ᄋ소ᄋ바니 100
지게 100
▁시자ᄀ해써ᅭ 100
▁끊ᅵ 100
▁해봐ᄊ거드뇨 100
▁노니까 100
▁계셔ᄊ느ᄂ데 100
▁시끄러ᄇ다고 100
▁사회가 100
▁지ᄀ저ᄇ저그로 100
▁나마ᅭ 100
▁돼ᄊ스ᄇ니다 100
▁새ᄋ기더라고ᅭ 100
▁나ᅪᄊ거드뇨 100
▁사라써ᄊ느ᄂ데 100
▁저자ᄋ 100
▁다녀서 100
▁ᅵᄅ저이 100
▁ᅵ써쓰ᄅ 100
▁치ᄂ구드리ᄂ데 100
기ᅦ느ᄂ 100
▁쓰ᄅ데ᅥᄡ 100
▁모ᄉ해ᄊ거드뇨 100
▁카페가 100
▁히ᄆ드ᄅ잖ᅡᅭ 100
▁ᅧᄂ세 100
▁저거도 100
▁혀ᄋ펴니 100
▁무ᄂ재ᅵᄂ 100
▁차며하 100
▁거러서 100
▁겨ᄋ제저그로 100
▁떠느ᄂ 100
▁ᅥᄂ제ᄂ가느ᄂ 100
▁치ᄂ구드리ᅦᅭ 100
▁ᅡᄂ되느ᄂ데 100
▁ᅦᅦᅦ 100
▁ᅵ후로느ᄂ 100
▁하ᄂ시ᄀ 100
▁겨ᄅ과 100
▁시허미 100
▁노야 100
▁데ᅵ트 100
려니 100
▁지ᄀ자에서 100
▁그부느ᄂ 100
치기 100
▁ᅮᄂ도ᄋ도 100
▁저ᅪ 100
▁부다ᄆ스러ᄇ 100
▁보ᅧ서 100
▁초ᄋ회 100
▁바녀 100
▁ᅤ기해ᅭ 100
▁다ᄇ다ᄇ하고 100
▁ᅵ타ᄅ리ᅡᅦ서 100
▁하더라고 100
▁ᅵᄂ처니 100
▁사다가 100
▁캐리ᄀ터르ᄅ 100
▁다니죠 100
▁꼬ᄀ대기 100
▁부ᄅ랴ᄋ 100
▁시기르ᄅ 100
▁시ᄚᅥ해서 100
▁ᅵᅲ느ᄂ 100
▁구ᄀ내ᅦ서 100
▁되게ᄊ구나 100
▁ᅡ빠하고 100
▁새ᄀ까ᄅ 100
▁대하ᄀ교ᅦ서 100
▁ᅡ내하고 100
▁부모니ᄆ드ᄅ도 100
▁너머가느ᄂ 100
▁ᅨ저 100
▁ᅬ구기ᄂ드ᄅ하ᄂ테 100
▁미래 100
▁조하지 100
▁과수ᅯ니 100
▁비싸서 100
▁주ᄋ가네서 100
▁취햐ᄋ 100
▁나흐 100
▁따서 100
▁바ᄅ저니 100
▁사라미며ᄂ 100
▁그러거드뇨 100
▁모ᅵ미 100
▁가ᄋ제로 100
▁ᅡᅵ하고 100
▁사라ᄆ드리라ᄋ 100
▁때보다 100
▁무서ᄇ다 100
▁ᅬ도이 100
▁ᅥ떠ᄀ하 100
▁고워니 100
▁누구ᄂ지 100
▁ᅵᄂ터포 100
▁다니기 100
▁부ᄂ다이 100
▁피시바으 100
▁마ᄂ나ᄊ느ᄂ데 100
▁주마레느ᄂ 100
▁하누 100
▁파ᅡᄀ 100
▁되게ᄊ죠 100
▁끄테 100
▁주며느ᄂ 100
▁ᅥ리고 100
▁시자ᄀ해ᄊ느ᄂ데 100
▁겨ᄅ 100
▁그ᄆ지 100
▁다녀써ᄊ느ᄂ데 100
▁드ᄅ며느ᄂ 100
▁다ᅳᄆ부터 100
▁하셔ᄊ거드뇨 100
▁ᅩ거나 100
▁희마ᄋ 100
▁시ᄅ마으 100
▁주ᄅ게 100
▁모르게ᄊ느ᄂ데ᅭ 100
▁데나 100
▁너머가서 100
▁고ᄆ 100
▁자ᄅ해ᅭ 100
▁개처 100
▁ᅥ떠ᄅ 100
▁보내서 100
▁드러ᅣ 100
▁지하처리 100
▁버ᄇ저그로 100
▁나눠져 100
▁미구게서 100
▁모르게ᄊ느ᄂ 100
▁마ᄋ 100
▁뭐드ᄂ지 100
▁구ᄀ가가 100
▁기레 100
▁화자ᄋ시레 100
거ᄉ마ᄂ 100
▁가ᄂ시ᄀ 100
ᄅ리며ᄂ 100
내느ᄂ 100
▁보시느ᄂ 100
ᄐ 100
▁차ᅵᄂ 100
겨이 100
▁ᅱ로 100
▁가라타 100
ᄂ다더ᄂ가 100
▁서ᄂ새ᄋ니ᄆ드ᄅ하ᄂ테 100
▁하ᄅ려고 100
▁하ᄀ새ᄋ드ᄅ하ᄂ테 100
▁ᅡ버지하ᄂ테 100
▁배ᅯᅣ 100
▁그부니 100
▁쉬ᄂ 100
▁마지 100
▁ᅩ셔써ᅭ 100
▁ᅩᄅ라가ᄊ다 100
▁개ᅴ 100
▁다여ᄂ하다 100
▁마리가 100
▁귀가 100
▁ᅥᄅ마르ᄅ 100
▁ᅧᄋ햐이 100
마느ᄂ 100
▁ᅧ어가 100
▁ᅥ머니도 100
▁하ᄂ다더ᄂ지 100
▁하ᄀ교ᅦ느ᄂ 100
▁과수ᅯ네 100
▁하게ᄊ지마ᄂ 100
▁도아느ᄂ 100
▁나라ᅦ 100
▁ᅪᄋ 100
▁스마트포니 100
▁치ᄂ구하고 100
▁ᅳᅡ 100
▁놔ᄊ 100
▁ᅵᄅ보네서 100
▁그래ᄊ나 100
▁ᅧᄀ하ᄅ 100
▁ᅥᄡᅥ지 100
▁토ᄋ자에 100
▁돼ᄊ나 100
ᄂ다더ᄂ지 100
하기느ᄂ 100
ᄂ다드ᄂ가 100
▁치ᄂ구나 100
▁치ᄂ구드ᄅ보다 100
▁과저으 100
▁노려ᄀ 100
▁하시ᄅ 100
▁무시하 100
▁ᅥ새ᄀ해 100
▁부모니ᄆ드르ᄂ 100
▁치느ᄂ데 100
▁ᅯᄅ그 100
▁마ᄅ쓰ᄆ드려ᄊ 100
▁버ᄉ 100
ᅭᄋ 100
가타ᅭ 100
니므ᄅ 100
▁ᅲ나 100
▁ᅮ니 100
느뇨 100
▁퍼져 100
▁ᅧᄋ구ᄀ 100
▁나ᄂ리 100
▁조조 100
티가 100
▁주셔ᄊ 100
▁자그 100
▁드ᄃ다 100
▁하기로 100
▁그러ᄂ데도 100
▁무대 100
▁보호 100
▁며ᄋ저리 100
▁저이 100
▁수ᄅ지비 100
햐이 100
▁구로 100
▁다니시고 100
▁귀찮ᅳ 100
▁ᅡᄂ부 100
부ᄂ드ᄅ하고 100
라며느ᄂ 100
▁혀ᄋ펴ᄂ 100
▁대표 100
▁사ᄋ대바 100
▁지베서느ᄂ 100
▁ᅧ녜ᅵ느 100
▁저ᄋ리하 100
▁세려기 100
기ᅦᅭ 100
▁대해서도 100
리ᄂ가 100
시잖ᅡᅭ 100
▁미ᄅ리 100
▁겨여ᄋ 100
스가 100
▁겨ᄅ호 100
시며ᄂ 100
▁나며느ᄂ 100
▁쓰시느ᄂ 100
▁거기까지 100
▁트러브 100
▁쪼ᄀ도 100
▁저ᄂ기 100
시고ᅭ 100
▁돼ᄊ드ᄂ 100
▁해ᄊ잖ᅡᅭ 100
▁휴지 100
▁빼노ᄒ고 100
▁쓰기 100
파ᄐ 100
▁그ᄆ 100
ᄅ고 100
▁구ᄋ그ᄆ하 100
▁포기하 100
▁뜨시 100
▁배느ᄂ 100
▁ᅬ가 100
▁쓰ᅵ 100
▁쇼피으 100
▁ᅡᆬ 100
▁ᅧᄋ화ᅦ 100
▁자가 100
▁보고ᅭ 100
▁소기 100
▁하ᄀ새으ᄂ 100
새ᄋ화ᄅ 100
▁ᅡ라보 100
▁ᅥ떠ᄀ해 100
▁사ᄂ채ᄀ 100
▁보려고 100
새이 100
▁제하ᄂ 100
▁수퍼 100
ᄋ겨 100
▁또ᄀ가 100
▁서이ᄂ 100
ᅣ지 100
▁지ᅳ 100
▁저희끼리 100
ᄅ라ᄆ 100
▁처ᄋ 100
해ᄊ느ᄂ데ᅭ 100
드ᄅ마ᄂ 100
▁나ᄉ지 100
▁기초 100
햐ᄋ 100
▁주차 100
▁ᅧ자느ᄂ 100
▁캐ᄆ피ᄋ 100
▁겨ᄋ허ᄆ해 100
▁추처느 100
▁하ᄀ비 100
브 100
▁쳐서 100
▁최그ᄂ 100
▁싸ᅮ미 100
▁부ᄂ류 100
▁후ᄂ려ᄂ 100
▁고ᅵ 100
▁나주 100
▁하시죠 100
▁내ᅦ서 100
▁기대가 100
▁채ᅯ 100
▁시까지 100
▁화려하 100
▁태ᅥ나기 100
수ᄅ 100
▁내려ᅪ 100
▁주벼니 100
해ᄋ 100
츠으로 100
▁자니ᄂ하 100
▁거부터 100
▁조러ᄇ하며ᄂ 100
▁사ᄂ채그 100
▁가ᄋ제 100
▁지브 100
ᄊ더니 100
▁바다ᄉ가 100
▁지리 100
▁쪼차ᅩ 100
니ᄂ데 100
버리 100
다기보다느ᄂ 100
타ᅣ 100
▁그리미 100
▁ᅣ구자 100
▁퍼ᄋ 100
▁세부 100
▁초바 100
니라ᄋ 100
▁많ᅳ 100
다며ᄂ 100
▁고ᄋ무ᅯ니 100
▁지가 100
▁거ᄅ고 100
▁주ᄋ시므 100
사으ᄅ 100
▁해ᄋ보ᄀ해 100
저네 100
▁마네 100
▁사ᄅ려 100
▁ᅢ교 100
▁교지 100
▁주미ᄂ 100
▁거지마ᄂ 100
지베 100
▁조그 100
찌 100
▁기ᄅ지 100
▁다녀ᅣ 100
▁ᅦᅦ 100
▁주시기 100
셔쓰니까 100
▁가서도 100
▁서ᅮᄅ보다 100
▁자라ᄋ하 100
▁사라미ᄂ데 100
▁내ᅭ 100
▁하려 100
바ᄃ고 100
되지 100
▁하ᄂ구ᄀ마 100
▁쓰리 100
▁하기가 100
▁구ᄋ 100
▁ᅥ르ᄂ드ᄅ 100
ᅯ레 100
▁ᅵ도ᄋ 100
▁다여ᄂ하 100
▁치ᄅ파ᄅ 100
가기ᄂ 100
▁채ᅮ 100
▁루 100
▁시비ᄅ 100
토 100
기보다느ᄂ 100
바ᄋ하ᄀ 100
▁하ᄀ자 100
▁ᅧᄋ토 100
▁저ᄋ서 100
▁부ᄅ마느 100
니라드ᄂ지 100
▁나ᄊ느ᄂ데 100
초 100
▁자기드ᄅ 100
▁머거써 100
▁내기 100
▁ᅵᄅ바 100
▁타ᄂ 100
▁구ᄀ가ᅦ 100
▁ᅡ니ᅥᄊ 100
까지마ᄂ 100
▁차ᄀ하ᄂ 100
▁가요하 100
세서 100
▁자라ᄊ 100
▁ᅡᆭᅡ쓰 100
▁쉬ᅥ 100
▁과처 100
▁지내ᄂ 100
▁ᅵᄅ하 100
▁뜨ᄉ 100
▁거나 100
▁ᅡᅥ 100
▁후회하 100
▁ᅪᅣ 100
타ᄅ 100
▁시ᄅ패 100
▁자ᄇ히 100
▁나ᄆ드리 100
▁베 100
거ᅧᄊ느ᄂ데 100
ᅱ 100
▁다녀ᄊ고 100
이라드ᄂ지 100
▁하며ᄂ서도 100
▁히ᄆ드ᄅ지 100
▁주요하지 100
▁비스ᄉ 100
되 100
프ᄅ 100
고르ᄅ 100
배가 100
▁조하하ᄂ 100
▁하트 100
▁모ᄉ사느ᄂ 100
▁새ᄋ겨ᄊ다 100
ᄅ하고 100
▁ᅡ니냐 100
▁ᅵ사ᄋ하 100
▁가마ᄂ 100
펴ᄂ 100
▁버ᄅ리 100
▁추처ᄂ 100
▁다ᄅ려 100
▁부트 100
▁가져ᅣ 100
▁지ᄉ 100
▁회르ᄅ 100
▁사느ᄂ지 100
▁버ᄇ 100
▁대토ᄋ려으 100
모ᄉ해서 100
노ᄂ무ᄂ 100
해써ᄊ거드뇨 100
▁다라 100
▁저ᄂ고 100
스러ᅯ 100
▁나ᅪᄊ 100
▁저ᄂ무ᄂ서 100
하러 100
기로느ᄂ 100
▁모메 100
▁다ᄇ 100
▁가겨 100
▁봐ᄊ다 100
▁펴ᄋ드ᄋ하ᄂ 100
▁ᅭ가 100
▁그매 100
▁드ᄂ 100
그리고 100
주에 100
▁서ᄋ햐으 100
▁취ᅥᄇ하 100
▁교ᅲ 100
▁사지느 100
가ᄊ다 100
푸 100
▁ᅡ저씨드 100
▁때리느ᄂ 100
▁시ᄚ 100
▁지키려 100
시라고 100
▁ᅧᄂ라ᄀ하 100
▁보니까느ᄂ 100
제르ᄅ 100
트ᄂ 100
▁시ᄚᅥᄊ 100
보다도 100
▁ᅧᄂ그그 100
ᅩᄂ 100
▁가ᄋ하ᄂ 100
▁대ᅦ 100
바로 100
하ᄇ니다 100
▁뭐ᄂ지 100
ᅥᄊ죠 100
▁매저 100
▁구ᅵ 100
▁화ᄀ시ᄅ하ᄂ 100
▁개하ᄀ 100
▁보수저기ᄂ 100
차르ᄅ 100
▁ᅭ리하 100
▁ᅲ하 100
▁마ᄅ쓰 100
▁지그ᄆ보다 100
▁시나 100
▁처ᄅ 100
ᅵ비 100
▁가나ᄂ하 100
기ᄅ 100
버브ᄅ 100
▁파ᄂ다 100
화ᄋ 100
게써ᅭ 100
ᅦ게 100
▁ᅤ기나 100
헤 100
하ᄀ교ᄂ데 100
추ᄅ 100
▁ᅥ르시ᄂ 100
▁ᅡ라드ᄃ 100
ᅡ니 100
가고 100
흐ᄂ 100
노ᄋ 100
▁ᅮ녀ᄋ하느ᄂ 100
▁ᅧᄂ라ᄀ하느ᄂ 100
▁서ᄂ새ᄋ니미ᄂ 100
▁지버 100
▁저ᄂ세가 100
▁뽀바 100
워ᄂ 100
▁바지 100
시거나 100
▁벼워네 100
▁그ᄂ데ᅭ 100
다지 100
기라ᄋ 100
저ᄂ부터 100
자마자 100
▁고유하 100
하ᅦ 100
ᄆ하게 100
봐ᅭ 100
▁키ᅮ며ᄂ 100
해ᄊ거드뇨 100
▁머러 100
▁ᅩᄅ라ᅩ셔 100
▁ᅵᆰ 100
봐써ᅭ 100
셔쓰며ᄂ 100
▁쪼차 100
▁지ᄂ추르 100
▁ᅵᅯᄅ 100
▁펴니ᅥ 100
▁쓰게 100
기고 100
▁보ᅵ며ᄂ 100
ᅣ죠 100
머ᄡ 100
▁ᅧ도ᄋ새이 100
누 100
ᅵᄊ느ᄂ데 100
▁ᅧ해ᄋ가 100
▁고마ᄇ 100
▁겨ᄋ햐 100
▁ᅮ느ᄂ 100
▁드ᄅ리느ᄂ 100
▁하며 100
드리거나 100
허 100
▁무ᄂ제ᅦ 100
▁빠르ᄂ 100
▁돼지 100
▁가써 100
ᅦ다가 100
▁겨ᄋ허ᄆ 100
▁느ᄅ 100
▁캐ᄆ피 100
리ᅥᄊ느ᄂ데 100
▁트ᄅ 100
▁교ᅲᄀ과 100
부로 100
미ᄅ 100
▁다ᅣᄋ 100
▁ᅡ쉬ᅮᄂ 100
▁보ᄂ다 100
▁끊 100
▁히ᄆ드러지 100
▁ᅵᄂ구 100
▁재미ᄊ 100
▁게ᅵ 100
드리고 100
ᅥᄊ다고 100
려그ᄅ 100
▁고ᄋ부해 100
며뇨 100
자느ᄂ 100
▁바쁘ᄂ 100
▁떠러지며ᄂ 100
니ᅦᅭ 100
▁ᅵᄂ저 100
▁혀ᄋ시그 100
▁벼ᄂ하ᄂ 100
▁트ᄀ벼ᄅ 100
▁ᅤ기하기 100
찌ᄆ 100
▁도시라 100
▁사ᅩ 100
트로 100
▁시자ᄀ하ᄂ 100
▁드르 100
바에 100
▁혀ᄋ펴 100
트르ᄅ 100
미나 100
▁대하ᄀ새ᄋ 100
▁마ᄌ무ᄅ 100
느ᄂ구나 100
▁지ᄀ자이ᄂ드 100
자ᄋ도 100
부네 100
뿌ᄂ마 100
▁혀 100
하거드뇨 100
▁세ᅮ 100
▁고저ᄋ저 100
▁ᅥ디ᅧᄊ 100
▁그려 100
ᅯ느로 100
▁시서리 100
▁ᅢ드 100
파ᄅ 100
▁거까지 100
비ᅦ 100
▁뽀 100
▁밝 100
▁가꾸 100
▁시ᄂ처 100
채그ᄅ 100
▁드ᄂ다 100
▁나ᄌ 100
▁치ᄂ하시 100
나게 100
▁짧ᅡ 100
▁가르 100
리ᄇ 100
미가 100
▁ᅵ시ᄇ사 100
교차 100
후ᅦ 100
▁주태 100
ᄊ느ᄂ데ᅭ 100
지ᄇ도 100
부ᄂ도 100
▁사ᄆ시 100
▁모르ᄂ 100
▁도두ᄀ 100
▁ᅵ저ᄂ 100
▁ᅥ쩌 100
▁자겨ᄀ즈 100
▁저ᄅ바 100
▁히므 100
져ᅣ 100
흐ᄋ 100
더래ᅭ 100
이다 100
▁ᅧ과 100
▁ᅵ해해 100
▁계다 100
▁사무시 100
▁바다써 100
호 100
▁보조 100
셔ᄊ죠 100
ᄆ겨 100
▁하ᄀ버ᄂ 100
▁조ᄋ하ᄇ 100
▁ᅵ기 100
시다가 100
▁께 100
▁ᅵ때 100
ᄇ지 100
▁지ᄀ자에 100
▁나뉘ᅥ 100
▁죄소ᄋ하 100
려ᄀ도 100
▁사ᄅ까 100
지그ᄆ 100
다드ᄂ지 100
▁마ᄂ조 100
ᅣ기 100
지비나 100
▁내며ᄂ 100
▁제무ᄅ포 100
토ᄋ 100
▁차ᄋ피하 100
ᄀ저 100
▁때무 100
▁다ᄂ도ᄀ 100
▁버티 100
▁그다ᅳᄆ 100
▁시고르 100
▁구시가지 100
▁크며ᄂ 100
▁초ᄀ매 100
▁시ᄅ려ᄀ 100
▁패디 100
저ᄋ희 100
▁마ᄅ투 100
▁프ᄅ레ᅵ 100
▁느ᄌ 100
▁소재 100
▁며ᄂ저 100
▁비ᄅ려 100
▁추ᄇ 100
▁슈 100
▁미ᅡᄂ하다 100
▁ᅳᄂ펴ᄋ 100
▁죄 100
▁마카ᅩ 100
▁ᅡ버니므ᄂ 100
▁ᅢ니메ᅵ셔 100
▁ᅣ유ᄀ비 100
▁ᅧ하트ᄂ 100
▁ᅪᄋ시ᄇ리 100
▁ᅬ도ᄋ따리ᅦᅭ 100
▁ᅰᄂ마ᄂ크ᄆ 100
▁고ᄋ주ᄋ도더ᄀ 100
▁과ᄋ화무 100
▁기저귀 100
▁까다로ᄇ 100
▁다ᄋ시ᄂ께서 100
▁디ᄅ레마ᅨᅭ 100
▁띄 100
▁라스베가스 100
▁머ᄆ추 100
▁바ᄀ라ᄆ회 100
▁사회보ᄀ지사 100
▁셔ᄉ다ᅮᄂ제 100
▁짜지ᄇ기 100
▁쪄 100
▁초코ᄅ리ᄉ 100
▁츠ᄂ데레라고 100
▁케ᅵ파ᄇ 100
▁퇴ᅵᄆ시ᄀ 100
▁파ᄐ비ᄋ수 100
▁펴ᄋ사ᄋ시ᅦ 100
▁하ᄂ꺼버네 100
븨 100
쫘 100
▁과ᄋ며ᄋ시 100
▁기도ᄀ교 100
▁뒤처지 100
▁디ᅡ브ᄅ로 100
▁며ᄋ지대 100
▁바ᄆ새ᅯ서 100
▁시나리ᅩ 100
▁시메ᄂ트 100
▁시카고 100
▁캐나다 100
▁해벼ᄋ대 100
애 100
위 100
▁구거구ᄀ무ᄂ하ᄀ과 100
▁소개티ᄋ 100
▁베트나 100
▁세ᄉ째 100
▁ᅩᄅ채이 100
▁ᅴ사소토 100
▁ᅵᄂ사ᄋ저기ᅥᄊ 100
▁ᅩᄂ가ᄌ 100
▁소개티으 100
▁추ᅥ그ᄂ 100
▁무뎌 100
▁싸히ᄂ 100
▁다ᄋ자으ᄂ 100
▁바ᄋ버브로 100
▁호ᄋ보 100
▁소ᅳ미 100
▁터ᅮ리 100
▁대하ᄂ미ᄂ구 100
▁지나가며ᄂ 100
▁부끄러ᅮᄂ 100
▁주러드ᄅ고 100
▁테ᅵ브 100
▁노르스ᄅ 100
▁마주치 100
▁자퇴 100
▁추ᄅ새ᄋ지느ᄂ 100
▁가치과ᄂ 100
▁과하그ᄂ 100
▁느ᄋ려기 100
▁자ᄋ나느로 100
▁기꺼ᄉ 100
▁소푸ᄋ 100
▁ᅡᄇ구저ᄋ도ᄋ 100
▁과모그ᄂ 100
▁드ᄋ교 100
▁도ᄋ나마 100
▁러ᄂ더ᄂ 100
▁크ᄅ래시기 100
▁가ᄅ비지ᄇ 100
▁그리ᅯ 100
▁비미ᄅ 100
▁처ᄀ하며ᄂ서 100
▁서꺼 100
▁ᅬ구기느ᄅ 100
▁뿌려라 100
▁내세ᅮ 100
▁ᅤ네드르ᄂ 100
▁주마ᄅ마다 100
▁ᅡᄂ타까ᄇ죠 100
푸드 100
▁모ᄀ도ᄋ 100
▁무ᄂ버ᄇ 100
▁ᅵᄊ도로ᄀ 100
▁자ᄅ모ᄉ해쓰니까 100
▁마즈며느ᄂ 100
▁조ᄒ게ᄊ고 100
▁다ᄅ도ᄋ네 100
▁대가드ᄅ 100
▁ᅵᅮ스ᄂ 100
▁나타나 100
▁저ᄀ다이 100
▁추ᄆ추고 100
▁서ᄅ마 100
▁가라ᅵᄇ고 100
▁그묘ᅵ 100
▁ᅲ흐ᄋ가가 100
▁도라ᅪ서 100
▁바ᄅ레리나 100
▁구ᄋ그ᄆ해서 100
▁가ᄑ고 100
▁바쁘셔서 100
▁보호자가 100
▁패터 100
▁과ᄋ자ᄋ 100
▁처새 100
▁ᅡ시게ᄊ지마ᄂ 100
▁줘쓰며ᄂ 100
▁계기로 100
▁다뉘 100
▁ᅵ래써ᄊ느ᄂ데 100
▁꺼ᄅ끄러 100
▁겨이ᄂ 100
띠ᄋ 100
▁노ᄋ구부 100
▁겨ᄋ주 100
▁무러보며느ᄂ 100
▁그ᄇ시그ᄅ 100
▁가조ᄀ드리라ᄋ 100
▁보ᄂ겨ᄀ 100
▁삶ᅴ 100
▁ᅵ르므ᄅ 100
▁까까 100
▁대하궈느ᄂ 100
▁추ᅯ서 100
▁노리터ᅦ서 100
▁꾸메 100
▁포ᄀ타 100
▁다녀ᅪ써ᅭ 100
▁매주 100
▁바ᄋ햐이 100
▁구ᄀ제 100
▁노ᄅ래써ᅭ 100
▁다미므ᄅ 100
▁피고ᄂ해서 100
▁추ᅯᅭ 100
▁자겨ᄀ 100
▁그러ᄒ구나 100
▁치ᄂ하다고 100
▁펴나ᄂ하게 100
▁느러나니까 100
▁시프며느ᄂ 100
▁마무리 100
▁펴ᄂ하죠 100
▁차ᅵᄂ데도 100
▁조ᄒ게ᄊ지마ᄂ 100
▁서ᄋ자ᄋ하 100
▁개서이 100
▁괘ᄂ찮ᅡᄊ느ᄂ데 100
▁부ᄂ서ᄀ하고 100
▁새ᄋ가ᄀ하냐 100
▁모ᅵ므ᄅ 100
▁자녀 100
▁ᅱᄉ지베서 100
▁교자ᄋ 100
▁흐ᄇ수 100
▁ᅬ로ᅯᄊ더ᄂ 100
▁펴니ᅥ써ᅭ 100
▁더러ᄇ고 100
▁ᅵᅭᄋ해서 100
▁나ᄒ고 100
▁태ᅥ나셔서 100
▁ᅡᆭᅡᄊ지마ᄂ 100
▁교수니ᄆ드르ᄂ 100
▁떠ᄅ고 100
▁가조ᄀ드르ᄂ 100
▁다ᄂ도ᄀ주태ᄀ 100
▁하더ᄂ데 100
▁ᅬ하ᄅ머니가 100
▁가까ᅯ서 100
▁채게서 100
▁과하그ᄅ 100
▁교과서 100
▁휴대포ᄂ 100
▁ᅦᄆ티 100
▁고ᄋ도ᄋ 100
▁노라ᄊ느ᄂ데 100
▁패셔네 100
▁많ᅡᄊ고 100
▁노ᄒ며ᄂ 100
▁ᅨ저ᄂ처러ᄆ 100
▁비스ᄉ해서 100
▁머러서 100
▁시가ᄂ마다 100
▁머그니까 100
▁머ᄀ자 100
▁ᅥᄡᅳ니 100
▁느ᄋ려ᄀ 100
▁가트며ᄂ 100
▁시ᄚᅥ해써ᅭ 100
▁나ᅩ셔서 100
▁ᅵᄂ혀ᄋ 100
▁자재 100
▁미구그로 100
▁새ᄋ가ᄀ대로 100
▁구니ᄂ 100
▁무너져 100
▁조하써써ᅭ 100
▁시ᄚᅳᄂ데 100
▁부터ᄊ느ᄂ데 100
▁ᅵᄊ더라고 100
▁ᅵ뻐 100
▁무ᄃ고 100
▁도라다니며ᄂ서 100
▁ᅲ며ᄋ해서 100
▁카토그로 100
▁해ᄂ드 100
▁너하ᄂ테 100
▁또ᄀ가트ᄂ데 100
▁혀ᄋ태가 100
뻐ᄋ 100
▁ᅥᄆ두 100
▁내려가며ᄂ 100
▁깨ᅥ 100
▁모ᄆ무게느ᄂ 100
▁찌거ᅣ 100
▁주시거드뇨 100
▁ᅤ네가 100
▁누느ᄅ 100
▁ᅡ버니ᄆ께서 100
▁그래ᄊ다 100
▁고러ᄒ게 100
▁미ᅭᄋ 100
▁나네ᅭ 100
▁배ᅮ며ᄂ서 100
▁빠져서 100
▁드러가며느ᄂ 100
▁패셔 100
▁서ᄋ부ᄂ 100
▁시ᄚᅥᄊ느ᄂ데 100
▁쳐ᅭ 100
▁ᅵ스ᄋ 100
▁사초ᄂ 100
▁ᅡᆭᅡᄊ거드뇨 100
▁그ᄇ하게 100
▁노추ᄅ 100
▁드려ᄊ느ᄂ데 100
▁무ᄂ하게 100
▁머거ᄊ느ᄂ데 100
▁차자가서 100
▁겨ᄋ사ᄋ도 100
▁추ᄇ고 100
▁주게ᄊ다고 100
▁ᅥᄂ제ᄂ가 100
▁프ᄅ레ᅵ가 100
▁고ᄋ시ᄀ 100
▁배ᅭᄋ주 100
▁비싸죠 100
▁히ᄆ드러ᄊ느ᄂ데 100
▁서ᄂ무르ᄂ 100
▁겨ᄋ차ᄅ서 100
▁혀이나 100
▁교ᅣᄋ 100
▁화기ᄂ하고 100
▁돼ᄊ잖ᅡᅭ 100
▁최소하ᄂ 100
▁새ᄋ가ᄀ하거드뇨 100
▁지ᄇ사라ᄆ도 100
▁시끄러ᅯ서 100
▁펴늬저미 100
▁교ᅲ겨 100
▁재미ᄊ죠 100
▁꼬ᄋ 100
▁모ᄀ저기 100
▁고사ᄆ 100
▁보태 100
▁ᅬ구기ᄂ드리 100
▁저추 100
▁맑고 100
▁ᅡᅵ하ᄂ테 100
▁배ᄀ조 100
▁돼ᄊ지마ᄂ 100
▁시스테ᄆ 100
▁푸ᄉ보 100
▁많ᅳᄅ 100
▁주ᅥ 100
▁페ᅵ스부그ᄂ 100
▁자가ᅭ 100
▁교과부 100
▁흐벼ᄂ 100
▁가ᄆ사하게 100
▁비싸니까 100
▁패디이 100
▁혀으ᄂ 100
▁모르게ᄊ스ᄇ니다 100
▁지도ᅦ 100
▁ᅧ어하ᄀ과 100
▁빠져나가 100
▁과ᄋ주느ᄂ 100
▁가타써ᅭ 100
▁차자보고 100
▁하ᄂ구그ᄅ 100
▁제바ᄅ 100
▁대비 100
▁마ᄂ조ᄀ하고 100
▁ᅮᄅ고 100
▁무ᄂ자ᄋ 100
▁마ᄐ겨 100
▁다ᄂ도ᄀ주태게 100
▁교ᅲᄀ저기ᄂ 100
▁조하해ᄊ고 100
▁ᅤ기하더라고ᅭ 100
▁저ᄋ채기 100
▁무더 100
▁고스ᄅ 100
▁그ᄂ교 100
▁표혀ᄂ하느ᄂ 100
▁ᅭ그ᄆ제 100
▁가게ᄊ다 100
▁조하하죠 100
▁드러보니까 100
▁저ᄂ교새ᄋ 100
▁마느로느ᄂ 100
▁되ᄇ니다 100
▁떠러지고 100
▁저유ᄀ저 100
▁ᅣ구자이 100
▁ᅵᅲ로 100
▁시ᄚᅥ해ᅭ 100
▁서초도이 100
▁그매ᄀ 100
▁과ᄂ시ᄆ사느ᄂ 100
▁뽀ᄇ고 100
▁마ᄅ해ᅣ 100
▁크니까 100
▁ᅦᅥ커ᄂ 100
▁ᅵ써ᄊ나 100
▁녀ᄂ대 100
▁그러ᄅ까 100
▁처ᄋ계사ᄂ 100
▁데다가 100
▁ᅱ스코ᄂ시ᄂ 100
▁다르ᄂ데ᅭ 100
▁머ᄅ고 100
▁지바니ᄅ 100
▁저거서 100
▁모ᄉ하지마ᄂ 100
▁히ᄆ드ᄂ데 100
▁회시ᄀ 100
▁저ᄋ리르ᄅ 100
▁머시ᄊ다 100
▁하ᄀ기ᅦ 100
▁더러ᅯ 100
▁ᅧᄂ그그ᄂ 100
▁ᅥᄡᅥ지니까 100
▁하의 100
▁시키고 100
▁ᅥ머니드ᄅ끼리 100
▁자ᄅ하세ᅭ 100
사으로느ᄂ 100
▁드ᄅ리고 100
▁ᅵ모가 100
▁해ᄊ대ᅭ 100
▁다ᅳᄆ나ᄅ 100
▁시ᄅ가ᄆ 100
▁수ᅥ베 100
▁배ᅯ서 100
▁쓰지ᄂ 100
▁ᅡᅵ스크리ᄆ 100
▁지바네 100
▁바다써ᅭ 100
▁가게ᄊ다고 100
▁도라다니고 100
▁ᅵ러ᄒ다 100
▁모ᅣᄋ 100
▁ᅡᆭᅡ쓰ᄅ 100
▁코스로 100
▁모므ᄅ 100
▁가ᅳᄅ 100
▁ᅯᄂ짜리가 100
▁구해서 100
▁하ᄂ저ᄋ파 100
▁벼워 100
▁체대 100
▁고ᄋ다ᄂ 100
▁가써ᄊ거드뇨 100
▁서초도에 100
▁서ᄅ며ᄋ 100
▁그래ᄂ드 100
▁서ᄂ새ᄋ니미라ᄋ 100
▁그래써ᄊ더ᄂ 100
▁그래ᄊ죠 100
자ᄇ고 100
▁시즈니 100
▁노무혀ᄂ 100
▁즈ᄅ기고 100
▁하ᄂ도아ᄂ 100
▁주다가 100
▁나ᄒ느ᄂ 100
▁드라마나 100
▁마ᄂ나죠 100
▁뒤ᅦ느ᄂ 100
▁노ᄋ초 100
▁젊ᅥ 100
▁도두 100
▁스케ᅵ 100
▁새ᄋ가그로 100
▁ᅢ기드리 100
▁ᅵᄊ냐고 100
▁ᅥᄅ마ᄂ데 100
▁녀ᄂ제 100
▁시즈ᄂ 100
▁하ᄅ머니나 100
▁토이ᄅ 100
▁되니 100
▁거트로느ᄂ 100
▁햐ᄋ수 100
▁따ᄋ 100
▁호ᄂ내 100
▁다해이 100
▁하ᄃ 100
▁추ᄀ구하고 100
▁배ᄀ구시ᄇ 100
구저ᄋ 100
▁ᅥ제도 100
▁카토기 100
▁사ᄋ화에서느ᄂ 100
▁부수 100
▁ᅮᄂ도ᄋ자ᄋ 100
▁ᅥᅲ 100
▁개녀므 100
▁부부네서느ᄂ 100
▁부저ᄋ저기ᄂ 100
▁차드리 100
▁패미ᄅ 100
▁마ᄂ나ᄊ더ᄂ 100
▁짜즈ᄋ 100
▁ᅡᄂ되니까 100
▁혀ᄂ자에서 100
▁스ᄋ무ᅯᄂ 100
▁수ᄅ자리 100
▁ᅵᄊ다라고 100
▁ᅩᄅ라ᅩ느ᄂ 100
▁줘도 100
▁트ᄀ서이 100
▁ᅡ껴 100
▁소ᄋ도도 100
▁치ᄂ구드ᄅ하ᄂ테도 100
▁겨ᄋ제가 100
▁ᅵᄊ지ᅭ 100
▁서ᄋ료ᄋ 100
▁그거보다느ᄂ 100
▁기ᅥ그로 100
▁ᅧᄂ기자 100
▁새끼 100
▁다녀ᅭ 100
▁조ᄒ게ᄊ다고 100
▁기계과 100
▁매려ᄀ 100
▁드러가ᅭ 100
▁자시ᄂ하ᄂ테 100
▁사ᅵ치 100
▁녀니ᄂ가 100
▁다르더라고ᅭ 100
▁소ᄂ해 100
▁비비 100
▁자ᅲᄅ 100
▁고ᅣ이 100
▁ᅥ려서느ᄂ 100
▁주며ᄂ서 100
▁노ᄋ구도 100
▁도ᄅ보 100
▁ᅵᄀ수ᄀ해지 100
▁버르 100
▁ᅵᄇ자에서ᄂ 100
▁배ᅦ 100
▁가조ᄀ하고 100
▁마ᄅ쓰므ᄂ 100
▁가ᄆ저이 100
▁치뤄ᄅ 100
▁ᅭᄀ시ᄆ 100
▁가게르ᄅ 100
▁교토ᄋ 100
▁도로가 100
▁ᅵ러나느ᄂ 100
▁혀ᄂ재느ᄂ 100
▁가스 100
▁배기 100
▁새ᄋ가ᄀ보다느ᄂ 100
ᅵ써서 100
▁내시ᄂ 100
▁계회그 100
▁지추ᄅ 100
▁ᅡ니더라고ᅭ 100
▁부ᄅ고기 100
▁ᅡᄂ처ᄅ수가 100
가ᄀ 100
▁기대느ᄂ 100
▁도야ᄋ 100
▁키도 100
▁데리 100
▁가ᄐ지마ᄂ 100
▁거ᄂ추ᄀ 100
▁저게도 100
▁ᅧ어로 100
▁꺼ᄇ지 100
▁ᅥ머니께서느ᄂ 100
▁도시라고 100
▁겨ᄅ호ᄂ해 100
▁지ᄂ보느ᄂ 100
▁도ᄋ새ᄋ하고느ᄂ 100
▁구ᅢ 100
▁ᅵ루기 100
▁타써ᅭ 100
▁주태ᄀ가 100
▁ᅧᄋ화과네 100
▁개바리 100
▁조ᄅ 100
▁소ᄂ니ᄆ 100
▁개그 100
▁자ᅧ어브 100
▁소네 100
다ᄅ 100
▁ᅡᄂ서에 100
▁마ᄂ조ᄀ 100
▁히ᄆ드러써 100
▁비파ᄂ 100
▁ᅡᄂ돼서 100
▁해ᄂ드포ᄂ도 100
▁구ᄋ그ᄆ하지 100
▁과ᄂ시ᄆ사 100
▁거리ᅦ 100
▁ᅢ드리ᄂ데 100
▁지ᄅ무ᄂ 100
▁ᅵᄅ드ᄅ 100
▁ᅥᄂ니도 100
▁ᅡ도ᄋ 100
▁서ᄋ다ᄋ 100
▁부디ᄌ히느ᄂ 100
▁지나니까 100
▁화ᄅ도이 100
▁벼ᄂ하 100
▁바ᄀ사까지 100
해ᄊ다가 100
게끄ᄆ 100
▁ᅡ네서도 100
▁하ᄀ녀느ᄂ 100
▁ᅮ서ᄂ 100
▁소ᄋ도고 100
▁저ᄋ치도 100
▁가조게 100
▁조저ᄅ 100
▁하ᄂ구게서느ᄂ 100
▁체허 100
저그로느ᄂ 100
사니라ᄋ 100
▁거치ᄅ 100
▁새ᄋ가ᄀ마ᄂ 100
▁삐져 100
나서 100
▁최그네느ᄂ 100
▁돼ᄊ거드뇨 100
▁그마ᄂ둬 100
▁기ᅥᄀ하 100
▁사고가 100
▁나ᄆ치ᄂ 100
▁사라ᄆ마ᄂ 100
▁과ᄂ리느ᄂ 100
▁무ᄂ재ᅵ니 100
▁바메느ᄂ 100
▁치ᄂ구드ᄅ마ᄂ 100
▁허라ᄀ 100
▁가셔서 100
▁ᅬ대 100
▁수르ᄂ 100
ᅪᄊ거드뇨 100
보기 100
▁ᅥ르ᄂ스러ᄇ 100
▁모ᄉ하며ᄂ 100
서로 100
▁ᅧᄋ화과니 100
▁태ᅥ나시ᄂ 100
▁나더라고ᅭ 100
▁시퍼ᄊ 100
▁매저ᄆ 100
▁ᅡ파트ᅭ 100
▁바르ᄂ 100
▁바보 100
▁기수리 100
▁때ᅦ느ᄂ 100
▁ᅵ루ᅥ지 100
부느ᄅ 100
▁ᅡ니지 100
▁ᅥ리ᄂ데 100
▁ᅧᄋ화ᅭ 100
▁ᅵᄅ저으 100
ᅵ묘 100
▁도ᄋ네르ᄅ 100
사가 100
▁자거ᄇ 100
푸리 100
▁구ᄅ 100
▁조ᄋ모 100
▁데서도 100
▁주ᄋ시ᄆ지 100
▁자느ᄂ데 100
▁조ᅭᄋ해져 100
▁자리ᅦ 100
▁내지느ᄂ 100
▁지ᄂ시므 100
▁ᅣᄀ소기 100
▁ᅵᅦᅭ 100
▁하ᄂ자ᄂ 100
시미 100
▁너희 100
녀미 100
▁ᅡ빠르ᄅ 100
▁가즈 100
▁취햐으 100
▁대하궈ᄂ새이 100
▁돼ᄊ냐며 100
▁ᅡ까ᄇ다 100
▁샤 100
▁하드ᄂ 100
▁ᅩ느ᄂ데 100
랴ᄋ 100
▁하니까ᅭ 100
▁가트 100
▁후바ᄂ 100
▁ᅨ사니 100
▁ᅳᅥ 100
▁고개 100
▁하궈ᄂ비 100
▁구ᄅ리 100
▁머ᄀ고ᅭ 100
▁모ᄅ 100
▁나ᄆ도ᄋ 100
▁걔ᄂ 100
▁과ᄂ리비 100
▁하ᄀ교라ᄋ 100
▁기호 100
▁보ᅵ차 100
▁거지ᄉ마ᄅ 100
▁버스ᅦ서 100
▁치ᄂ하고 100
▁하ᄂ구ᄀ마ᄅ 100
▁며ᄋ화ᄀ하 100
▁미구기 100
▁매ᅮ 100
▁크ᄅ래시그 100
▁가ᅮᄂ데 100
▁넓게 100
▁서ᄅ레 100
▁뚜ᄚᅥ 100
▁재래시자에 100
▁부ᄂ드리라ᄋ 100
카드르ᄅ 100
▁놔써ᅭ 100
▁느저 100
▁거기다 100
▁드ᄋ바ᄂ 100
▁바ᄋ시기 100
▁자그니까 100
▁ᅤ네 100
▁도아네 100
▁고ᄋ하에서 100
▁ᅥ떠ᄒ다 100
▁헤ᅥ지 100
▁세대가 100
▁고ᄋ고 100
▁대마ᄂ 100
▁차고 100
▁교ᅲᄀ도 100
▁ᅵ러나ᄅ 100
▁고ᄋ리ᄇ 100
▁머ᄅ미 100
▁거스ᄅ리 100
▁파티르ᄅ 100
▁ᅭ구하 100
▁하느 100
▁하셔ᄊ고 100
▁부티 100
▁뒤ᄉ 100
▁끼고 100
ᄇ게 100
▁지도르ᄅ 100
ᄂ드리 100
▁써ᄊ나 100
▁지ᄂ지하 100
▁메 100
▁트기해 100
▁ᅡᆭ느ᄂ다 100
▁드러ᅩ셔 100
▁로리라 100
▁ᅵᄂ가ᄂ 100
▁데려가 100
▁쪼그 100
▁ᅧ녜ᅵᄂ드ᄅ 100
나느ᄂ 100
▁포자ᄋ 100
▁사시ᄂ 100
▁계회기 100
▁ᅵᄂ사하 100
▁ᅣᄋ보 100
ᄂ다며ᄂ 100
다ᄒ느ᄂ 100
▁히ᄆ드셔 100
▁ᅴ미로ᄂ 100
▁고ᄋ구 100
▁뮤지커리 100
▁하자고 100
▁드시고 100
▁버리잖ᅡᅭ 100
▁부두ᅦ 100
▁마ᄅ고도 100
▁ᅮᄂ도으ᄂ 100
고기 100
▁쪼게느ᄂ 100
라기보다 100
ᄀ까지 100
▁고ᄋ가ᄆ하 100
▁새ᄋ랴 100
▁바ᄀ수 100
ᅥᄡ느ᄂ 100
▁드ᄅ죠 100
▁마ᄂ크므 100
▁많ᅵ드ᄅ 100
▁ᅡ파트도 100
▁ᅡᄆ기 100
려서 100
▁마ᄂ드 100
▁ᅩᅵᄅ제 100
▁기다리다 100
▁보ᄅ리ᄋ 100
그때 100
▁드르니까 100
▁드ᄀ 100
▁재ᅮ 100
▁ᅩ르ᄂ 100
▁가시고 100
▁처ᄋ라 100
▁다마 100
▁재ᅯ 100
▁펴ᄋ규ᄂ 100
▁저ᄂ화느ᄂ 100
주고 100
▁따ᄀ따ᄀ 100
▁나눠지 100
▁두려ᅮ므 100
▁나ᄆ드레 100
▁그ᄃ 100
▁하ᄀ회 100
▁시ᄅ마ᄋ하 100
▁가ᄡᅵ 100
▁ᅥᄡ지 100
▁파ᄂ다ᄂ하 100
▁헤ᄅ스 100
▁하셔ᄊ 100
ᅧ쓰니까 100
▁ᅩᅵᄅ 100
▁노ᄋ지 100
▁추ᄅ퇴그ᄂ하 100
▁바라보 100
▁해봐ᄊ고 100
브라 100
▁ᅵᄂ가으 100
▁다ᄃ 100
▁하더라 100
ᅳ레 100
▁넓ᅥ 100
▁저버네 100
▁ᅵ쓰시 100
▁겨ᄆ 100
▁시ᄅ허 100
▁ᅩ리 100
▁마ᄅ자 100
▁ᅧᄂ계 100
▁ᅬ구 100
▁코ᄂ도 100
▁세기 100
▁사자ᄋ 100
ᄊ다기보다느ᄂ 100
▁배고시ᄇ 100
▁마ᄀ히 100
시그ᄅ 100
▁주에도 100
시레서 100
사으로 100
▁허리 100
▁바미 100
하잖ᅡᅭ 100
▁거비 100
ᅡᅵ 100
사리 100
ᄂ가ᅭ 100
▁지ᄇ가ᄡ 100
▁보허미 100
▁나ᅪ쓰 100
니ᄂ 100
▁기자 100
▁주ᄋ구 100
▁거ᄂ서 100
기ᄅ도 100
▁처치 100
▁그ᄂ무하 100
▁조흐 100
따ᄀ 100
미라고 100
▁ᅪ도 100
▁ᅬ로 100
ᅵ기 100
▁대도시 100
▁부ᄂ리 100
▁흐르 100
▁히ᄅ리 100
▁나하 100
▁고새ᄋ하 100
ᅮᄅ 100
▁ᅲᄀ시ᄇ파 100
▁쏘다 100
드레 100
▁초ᅦ 100
▁나ᄆ펴느 100
▁벼ᄅ로고 100
▁저ᄂ고ᄋ하 100
▁차느ᄂ 100
▁ᅵ써서도 100
▁ᅲᅯ 100
▁해ᄊ느ᄂ지 100
▁가ᄌ느ᄂ 100
▁그거ᄉ마 100
▁나ᅩ시 100
ᅧᄊ더라 100
▁바ᄅ다ᄅ하 100
▁누ᅯ 100
▁수거 100
▁조ᅥ 100
느로서 100
ᅵ느ᄅ 100
▁거ᅨ 100
도ᄋ새ᄋ 100
하ᄂ다느ᄂ 100
ᄅ러서 100
▁며ᄂ 100
▁ᅡᆭ다 100
▁가ᅵᄇ 100
▁저ᄂ교ᅦ 100
▁표혀ᄂ하 100
▁서ᄋ겨기라 100
▁하시기 100
▁ᅣᄋ재도 100
▁차ᅵ나 100
▁그ᄂ데도 100
▁지시 100
▁부조ᄀ하 100
▁겨ᄂ 100
▁마느로 100
시ᄇ구 100
해으ᄅ 100
▁모르게ᄊ 100
▁시ᄆ해 100
▁뭐르ᄅ 100
▁주ᅥ지 100
▁ᅵ리나 100
▁자라기 100
▁ᅥᅮᄅ리기 100
트러 100
대하ᄂ 100
하기ᅦ느ᄂ 100
도그ᄅ 100
주ᄂ다느ᄂ 100
▁하시니까 100
▁ᅢᄂ 100
▁기ᅥᄀ하고 100
▁바르 100
따로 100
ᅮ며ᄂ 100
▁ᅥ려ᄇ지 100
▁계셔ᄊ고 100
▁구ᄀ무ᄂ과ᅦ 100
▁부ᄅ펴ᄂ 100
▁주ᄋ구기니 100
▁ᅡᅡ 100
다니느ᄂ 100
교사 100
▁수ᅵ그 100
드레게 100
▁쩌ᄅ 100
▁도미 100
▁주ᄋ고 100
▁저ᄋ해 100
▁ᅲ리하 100
▁피ᅮ 100
▁처ᅳ 100
▁드러가ᄊ고 100
ᅳᄋ 100
쓰ᄅ까라느ᄂ 100
머ᄀ느ᄂ 100
▁개바 100
▁바ᄅ다ᄅ돼 100
▁버비 100
자기 100
▁떠러지기 100
▁배ᅮ기 100
▁ᅳ마 100
▁사라ᄊ 100
▁ᅭᄀ시므 100
▁태ᅥ나셔ᄊ고 100
▁서ᄇ서ᄇ하 100
▁조흐며ᄂ 100
▁가려 100
ᅢ드르ᄂ 100
▁ᅥ려ᅮ므 100
조으ᄅ 100
ᄊ나 100
▁피료하다 100
▁노ᄀ 100
▁가져ᅪ 100
다에 100
▁깨끄ᄉ하 100
▁사ᄂ도 100
▁저ᄋ비 100
시ᄅ까봐 100
▁ᅱᅡ 100
▁가ᄂ시 100
▁추ᄅ그ᄂ 100
▁사ᅭᄋ 100
▁ᅵ대 100
리ᅦ 100
스러ᅯᅭ 100
▁ᅲ도 100
ᄆ드리 100
▁사미ᄅ 100
가태ᅭ 100
▁시ᄚᅥ하ᄂ다 100
▁바느ᄋ 100
▁펴ᄂ리하ᄂ 100
▁도ᄋ부 100
ᅯᅣ 100
나라ᄋ 100
해ᄊ다 100
▁저네ᄂ 100
바으ᄅ 100
▁지ᅯᄂ해 100
▁지ᅯ 100
▁제ᅬ 100
▁수다니 100
▁ᅮ리ᄂ 100
▁ᅮᅲ 100
셔ᄊ지마ᄂ 100
▁마ᄂ나기 100
▁ᅵᄂ저ᄋ 100
▁새ᄋ기기 100
▁자시느 100
▁과ᄂ려 100
▁나가기 100
▁고미ᄂ하 100
고으ᄅ 100
▁하궈ᄂ가 100
▁무ᄂ하기 100
마뇨 100
▁기부 100
ᄂ저그로 100
▁고드ᄋ하ᄀ교ᄂ 100
리ᅭ 100
▁타시 100
▁치ᄂ해지ᄂ 100
처ᄂ구 100
▁너ᄅ 100
▁펴ᄋ드ᄋ하 100
▁ᅥ너하ᄀ 100
ᅵᄊ고 100
가기 100
▁자ᄅ모ᄉ되 100
▁세그므 100
▁혀ᄂ시 100
▁그매그 100
▁ᅲ며ᄋ해 100
무르ᄂ 100
▁체ᅲ 100
▁ᅵ눠 100
▁과모기 100
▁다가가 100
▁ᅧᄂ그 100
하시니까 100
▁다녀ᅪ 100
타고 100
스ᄂ 100
▁키ᅮ지 100
바그ᄅ 100
짜리 100
▁수사ᄂ 100
▁주ᄂ다 100
▁서ᅮᄂ해ᄊ 100
▁부ᄂ며ᄋ 100
돼쓰ᄅ 100
▁바껴 100
▁귀ᅦ 100
▁보수저기 100
무레 100
▁가ᄀ가 100
▁나ᄆ하ᄀ새ᄋ드ᄅ 100
바ᄃ느ᄂ 100
▁시ᄚᅥ하고 100
▁나라느ᄂ 100
빠ᄅ리 100
치가 100
수ᅯᄂ 100
▁배ᅯᄊ 100
▁서ᄂ바 100
▁나흐며 100
재이 100
▁그다 100
사느ᄂ 100
▁타서 100
▁서ᄆ 100
▁ᅧ자ᅢ드르 100
▁시ᅯᄂ하 100
▁피츠버그 100
무리 100
니ᅥ써ᅭ 100
▁겨ᄋ재으 100
▁ᅢᄀ셔느 100
▁사미 100
▁ᅩ라 100
▁ᅵᄂ사ᄋ 100
▁주러 100
▁ᅳ워ᄂ하느ᄂ 100
▁ᅵ하 100
▁주려 100
▁보ᅵᄂ다 100
▁시프ᄂ지 100
▁ᅢ매하 100
▁괘ᄂ찮지 100
▁재미나 100
▁바ᄅ다 100
▁사귀다 100
부ᄂ드르ᄂ 100
▁처ᄀ하 100
ᄋ해서 100
ᅧᄊ지 100
화가 100
▁저녀그 100
▁주이 100
쁘다 100
▁고ᄋ부하시 100
니ᄅ 100
▁느끼므 100
▁ᅵᄂ매 100
ᅥᄊ고 100
ᄂ드 100
화ᄂ 100
▁따에 100
▁ᅡ쉬ᄇ기 100
▁시ᄆ하다 100
스ᄅ리 100
케 100
▁사셔 100
▁드리ᄅ 100
▁무사 100
▁ᅤ기하시느ᄂ 100
▁소ᄅ지ᄀ하 100
▁너ᄒ 100
▁시끄러ᅮ 100
ᅵᄇ구 100
봐ᄊ더니 100
▁호러 100
되기 100
▁차비 100
▁펴ᄂ하 100
▁하느ᄂ지 100
로ᄂ 100
져ᄊ죠 100
▁때리 100
▁조하하시 100
▁조ᅭᄋ 100
▁시ᄂ처ᄋ 100
▁ᅵ고 100
▁그때ᅦ 100
여 100
▁조하써 100
▁바비 100
▁더ᄅ하ᄂ 100
채 100
▁교회ᅦ 100
▁두ᄂ 100
▁서ᄂ호 100
▁봐ᄊ지 100
추르ᄅ 100
▁저ᄂ교 100
▁드리며ᄂ 100
▁빼며ᄂ 100
커 100
▁고지ᄇ 100
▁싸ᅮ며ᄂ 100
ᄆ하고 100
기보다 100
▁ᅵᄂ사도 100
▁ᅢᄀ 100
마르ᄅ 100
고ᄋ 100
▁거ᄅ려 100
▁ᅥᄡᅳ시 100
▁느껴ᄊ고 100
▁ᅳᅵ 100
▁ᅴ시 100
▁버ᄅ레 100
▁히ᄆ드시 100
▁거ᄀ저ᄋ하 100
ᄅ리 100
▁수ᅧᄋ 100
가잖ᅡᅭ 100
▁싸ᅮ지 100
찌개 100
ᅥᄊ다 100
▁바다ᄊ 100
▁ᅦᄆ비 100
▁자라시 100
▁가까ᅯ 100
▁조하지느ᄂ 100
ᄋ하게 100
▁저노야기 100
▁해보ᄅ 100
▁돼ᄊ느ᄂ 100
다ᅮᄂ 100
과저ᄋ 100
▁ᅧᄋ화과느 100
리며ᄂ 100
▁대가 100
▁나가지 100
▁즈ᄅ겨 100
니다 100
▁서ᄋ겨기ᄂ 100
▁떠러지ᄂ 100
▁무ᄂ제ᅵᄂ 100
버리ᄂ 100
▁하리ᄂ 100
▁ᅵᄅ하며ᄂ서 100
▁하니 100
▁치ᄂ하 100
▁혀ᄋ드ᄅ 100
▁ᅵᅥ지 100
ᄂ다며느ᄂ 100
비ᄂ가 100
▁뛰느ᄂ 100
메시지 100
▁무ᄅ거 100
▁겨ᄋ차리라 100
▁ᅡ쉬ᅮ 100
▁ᅲ며ᄋ하고 100
▁주부 100
▁거ᄅ리느ᄂ 100
▁시기ᅧ 100
▁치느ᄂ 100
ᅵ르ᄂ 100
▁뿌ᄂ 100
▁마ᄌ느ᄂ다 100
ᄋ도ᄋ 100
그게 100
▁부ᄅ펴 100
▁사ᅵ트 100
ᅡᄀ 100
▁사저ᄋ 100
러ᄀ 100
▁ᅥᄂ제드ᄂ 100
▁부타ᄀ하 100
새ᄋ드르ᄂ 100
▁ᅲ며ᄋ 100
마느로 100
기라고 100
▁배겨 100
모기 100
▁ᅵ마 100
▁ᅵᄇ구 100
▁쪼기고 100
따ᄅ 100
▁시도 100
▁화자ᄋ시 100
▁회자ᄋ 100
▁마ᄅ하지 100
▁마ᄂ나ᄊ다 100
▁ᅯᄂ하 100
▁많ᅡᄊ 100
퍼ᄋ 100
▁ᅲ사 100
지며ᄂ서 100
▁배려하 100
▁서ᅮᄂ해 100
▁ᅵ브 100
▁미ᅣᄂ마 100
▁드ᄅ려 100
▁ᅵ러ᄒ게까지 100
▁써ᄊ느ᄂ데 100
쭈 100
▁마타 100
▁ᅵᆰ느ᄂ 100
▁ᅵ쁘 100
▁서ᄂ태ᄀ해 100
▁하려느ᄂ 100
▁보펴ᄂ 100
wi 100
▁ᅵ스 100
▁빼ᄉ겨 100
가ᄇ 100
ᄀ마ᄂ 100
▁자ᄋ사 100
▁초드ᄋ 100
미ᄂ가 100
▁조하해ᄊ 100
▁내지 100
▁ᅮ녀 100
▁사거ᄂ 100
머리 100
▁고ᄋ부하ᄂ 100
▁가봐 100
ᅬ 100
▁기ᄅ러 100
▁마ᄅ쓰ᄆ하시느ᄂ 100
▁거냐며ᄂ 100
▁부ᄂ류하 100
▁펴ᄂ리 100
▁ᅡ래ᅦ 100
저희 100
▁시ᄚᅳ 100
ᄅ라 100
러ᄒ지 100
▁차ᄀ 100
츠으ᄂ 100
▁서ᄂ호하 100
미라도 100
나ᅵ 100
▁거ᄀ저ᄋ하시 100
▁서ᄂ수드 100
▁겨ᄋ고 100
부ᄅ 100
져ᅭ 100
▁치ᄂ구로 100
아 100
▁끼리 100
▁혀ᄋ시ᄀ 100
▁추처ᄂ해 100
▁수ᄂ수하 100
빠ᄋ 100
ᄋ해 100
해쓰며ᄂ 100
▁드러ᅩ시 100
ᅮᄅ리ᄂ다 100
▁자거ᄇ하 100
▁재미ᅥᄡ느ᄂ 100
더ᄅ 100
▁노도ᄋ자드 100
리도 100
ᅳ므로 100
▁ᅥ리니지 100
▁혀ᄋ드 100
▁ᅩ기ᄂ 100
▁ᅧ기ᄂ 100
▁추ᄋ처ᄋ도 100
▁다ᄅ리느ᄂ 100
푸미 100
▁ᅲ리 100
▁사ᄂ채ᄀ하 100
기ᄂ데 100
▁ᅩ피스테 100
▁ᅲ치하 100
너ᄅ 100
시ᄀ저기ᄂ 100
소기 100
ᅡᄅ 100
▁크ᄅ 100
비치 100
그미 100
▁두려ᅮ 100
▁가요 100
▁저희드ᄅ 100
▁ᅥ떠ᄂ지 100
▁삶ᅦ 100
네도 100
▁나ᅪ써 100
▁스타ᅵ 100
▁터 100
▁해보기 100
▁겨여 100
ᅵ스 100
▁새ᄋ화ᄅ하느ᄂ 100
▁희마 100
▁그마ᄂ크 100
ᄀ하게 100
▁주ᄋ도ᄀ 100
▁서ᄋ겨그 100
께서 100
니라느ᄂ 100
ᄀ하ᄅ 100
▁채ᄋ기 100
ᄅ까지 100
ᄂ드ᄅ 100
채기 100
희 100
ᄃ혀 100
▁그ᄋ저ᄋ저 100
▁녀 100
지ᄅ러 100
펴ᄋ 100
▁파ᄅ리 100
▁가ᄆ사 100
▁교토 100
▁ᅧᄂ스ᄇ 100
ᅳᄂ데 100
버ᄂ씨ᄀ 100
▁터치 100
가서 100
프리 100
▁재미ᅵᄊ느ᄂ 100
ᅲᄀ 100
▁가두 100
▁ᅵᆰᅳ 100
ᄇ느ᄂ 100
▁부ᄅ펴ᄂ해 100
써ᄊ죠 100
리ᅥ서 100
게ᄊ다라느ᄂ 100
▁차벼르 100
▁거기로 100
ᅩ거드뇨 100
드ᄅ과 100
▁내려ᅩ 100
이라 100
▁ᅧᄅ리 100
▁ᅵ써쓰 100
▁조하져 100
▁헤ᅥ 100
하ᄀ교나 100
ᄅ푸ᄋ 100
ᅪᄂ 100
ᅵ드 100
▁주ᅱ 100
지더라고ᅭ 100
▁느저ᄊ 100
너무 100
ᄇ해 100
▁새ᄋ도드 100
ᅪᄊ더ᄂ 100
▁터노 100
▁구ᄀ미 100
쩌 100
▁베푸ᄅ 100
▁무ᄂ재ᅵ 100
초ᄂ 100
▁그ᄆ서 100
ᄋ햐이 100
▁추ᄀ 100
▁나ᄆ자고 100
▁시ᄂ세 100
▁가ᄂ다느ᄂ 100
▁휴 100
▁끄ᄐ 100
▁새이리ᄂ 100
▁ᅡ프다 100
▁끄ᄐ나느ᄂ 100
추ᄀ 100
ᄅ매 100
▁바ᄂ하ᄋ 100
▁고워 100
사미ᄅ 100
▁ᅵ써쓰며 100
둬써ᅭ 100
▁머무ᄅ 100
하ᄂ데 100
▁부러ᅯ하 100
지지 100
▁무서 100
▁개혀 100
▁그저네 100
▁마ᄆ 100
▁가벼 100
조ᄀ 100
ᅳ니까 100
▁ᅵ러ᄂ데 100
▁기대하 100
▁지ᅮ 100
▁과ᄋ주 100
▁저ᄋ치ᅵ 100
▁빠져써ᄊ 100
▁조지 100
▁ᅥᄡᅥ져ᄊ 100
▁쿠ᄋ쿠ᄋ 100
▁체르 100
▁대ᄉ그 100
타ᄋ 100
되서 100
▁후ᄂ려 100
지마 100
▁ᅵᄂ하ᄋ 100
니며ᄂ 100
래도 100
▁모버ᄆ 100
▁주그ᄅ 100
▁시ᄚᅳᄅ 100
▁서ᄋ료 100
▁부드러 100
▁혀ᄂ자에 100
▁버ᄅ려 100
▁레미제라브 100
무ᄂ도 100
▁사ᄋ궈 100
▁뚜ᄚ 100
▁토여 100
니거드뇨 100
▁도라ᅩ 100
ᅮ고 100
▁ᅲ러베 100
▁버ᄆ죄 100
▁가조ᄀ드ᄅ 100
▁추ᄅ시ᄂ 100
그며ᄂ 100
▁서ᅣᄋ화 100
▁ᅧᄂ겨 100
래ᄂ드 100
▁시ᄂ부 100
▁태푸 100
▁ᅲ며ᄋ하다 100
▁스마트 100
▁카페ᅦ 100
▁혀ᄋ태 100
▁ᅬ구기ᄂ드ᄅ 100
ᄌ 100
▁ᅡ버지께서 100
▁서ᄋ취 100
▁ᅭ그ᄆ 100
▁교과 100
▁노흐 100
조차 100
▁저ᄂ시회 100
▁트레ᄂ드 100
▁싸ᄅ자ᄋ사 100
▁마트ᅦ 100
▁가ᄌ춰지 100
▁고ᄋ가네 100
▁ᅧ어하ᄀ 100
▁지ᄇ사라ᄆ 100
▁치ᄅ시 100
▁자ᅧᄂ스러ᄇ 100
▁서ᅣᄋ 100
랴으 100
▁그ᄅ쎄 100
▁메시ᄂ저 100
▁버려써 100
▁ᅵᄂ터네시 100
▁ᅧ야ᄋ 100
▁사ᄋ화에 100
▁ᅱᄉ지베 100
궈네 100
▁까ᄅ끄ᄆ하 100
녜 100
▁사지니 100
▁ᅥᄡ잖ᅡ 100
▁사처 100
▁ᅱ해 100
▁괘ᄂ 100
▁무ᄃ 100
▁겨ᄋ희 100
▁되잖ᅡ 100
▁ᅥ째ᄊ 100
큐 100
▁ᅡᅮᄋ다ᅮᄋ 100
▁ᅥ마ᅥ마 100
▁ᅦᄂ비ᅦᅵ 100
▁ᅦ페ᄅ타ᄇ 100
▁ᅩ디셔 100
▁ᅪᅵ파ᅵ 100
▁가ᅱ바ᅱ보 100
▁계ᅣᄀ서르ᄅ 100
▁과우ᄂ대 100
▁꼬ᄌ히 100
▁너ᄀ너ᄀ 100
▁노고ᄅ저그로 100
▁뉴ᅭᄀ 100
▁닭 100
▁도르트무ᄂ트 100
▁도우기 100
▁뒤세ᄅ도르프 100
▁때ᄋ때이 100
▁또ᄋ고지비 100
▁류스요ᄋ 100
▁무구ᄋ화 100
▁미꾸라지 100
▁바ᄀ시후 100
▁바ᄂ며네 100
▁바아니 100
▁부규러 100
▁사ᄆ겨ᄇ사ᄅ 100
▁서ᄂ푸ᄋ기 100
▁서래마ᅳ 100
▁소걔기 100
▁쇼피ᄋ세ᄂ터 100
▁스케주리 100
▁스타버ᄀ스 100
▁시허메 100
▁싸ᄋ두이 100
▁저ᄂ마ᄋ대 100
▁치마ᄉ바라 100
▁카ᄀ테ᅵᄅ 100
▁카ᄆ보디ᅡ 100
▁커뮤니케ᅵ셔ᄂ 100
▁커뮤니케ᅵ셔니 100
▁코ᄂ테스트 100
▁토레ᄂ트 100
▁튀 100
▁퍼세ᄂ티지 100
▁푸ᄋ조ᄀ하 100
▁피ᅦ타 100
▁해비타트 100
▁혜태ᄀ 100
▁회ᄋ다ᄂ보도 100
▁휴게소 100
뇌 100
쌔 100
폐 100
▁ᅩᅦ스티 100
▁ᅲ러비 100
▁겨ᄇ쳐 100
▁도ᄋ녀ᄂ배 100
▁디비디 100
▁마ᄅ레ᅵ시ᅡ 100
▁바ᄂ주자 100
▁시뇨ᄋ카드 100
▁자ᄋ마처리 100
▁펴ᄋ초네 100
▁ᅡ녜ᅭ 100
▁ᅥᄂ더ᄀ배기 100
▁다ᄒ지 100
▁무스ᄋ부 100
▁베니스 100
▁보ᄋ투 100
▁서커스 100
▁수해ᄋ펴ᄋ가 100
▁터ᄆ브ᄅ 100
▁펴ᄋ초니 100
▁ᅡᄑ뒤 100
▁ᅧᄅ과ᄋ하고 100
▁ᅯ너미 100
▁도ᄋ그라ᄒ게 100
▁베스트 100
▁사다ᄋ패 100
▁캐ᄆ프 100
▁ᅲ시시 100
▁까ᄋ패 100
▁마ᄂ서ᄀ거 100
▁서ᄀ타ᄂ 100
▁크ᄅ러비 100
▁티ᄆ자ᄋ니ᄆ 100
▁피ᄅ기구 100
▁ᅳᄆ료수 100
▁매니지 100
▁푸요 100
▁ᅢ초ᅦ 100
▁소호ᄅ 100
▁쏘ᄅ게 100
▁저ᄂ교새이 100
▁체려ᄀ 100
▁도ᄋ호회 100
▁세ᄂ터 100
▁터ᄀ거리 100
▁대기ᅥ베 100
▁셔트ᄅ버스 100
▁소도갸 100
▁째즈 100
▁태궈ᄂ도 100
▁하ᄀ새에게 100
▁그ᄂ로자 100
▁ᅡᅵ디ᅥ 100
▁타ᄆ바ᄋ 100
▁ᅡᆭ게ᄊ느냐 100
▁도마ᄋ가고 100
▁추서게 100
▁ᅦ세ᅵ 100
▁포ᄀ해ᄋ 100
▁터ᅮᄅ 100
▁ᅧᄂ려ᄋ 100
▁ᅲ저ᄀ지 100
▁펴늬저ᄆ 100
▁도기리나 100
▁마따ᄋ 100
▁미ᄅ지ᄇ돼 100
▁사ᄆ초니 100
▁수ᅯ녀그ᄂ 100
▁ᅧᄂ스브ᄅ 100
▁ᅩᄀ수수 100
▁ᅮᄉ겨 100
▁기ᄆ치찌개 100
▁디카 100
▁자ᄇ채 100
▁도차ᄀ하ᄂ 100
▁겨ᄋ희대하ᄀ교 100
▁메뉴 100
▁사과ᄂ하ᄀ교 100
▁파ᄅ로ᅮ 100
▁소무니 100
▁바ᄆ기차 100
▁라ᅵ브 100
▁시ᄂ무네 100
▁자ᅲ로ᅯ 100
▁세타ᄀ 100
▁죄소ᄋ해ᅭ 100
▁마겨ᄂ하 100
▁추ᅡ이 100
▁토로ᄂ회 100
▁모ᄀ도으로 100
▁사ᄋ세하 100
▁세ᄂ티 100
▁매니저 100
테크 100
ᄋ호 100
▁그뉴ᄀ 100
▁나ᄂ바이 100
▁체류 100
▁ᅡᅵᅥᄂ매 100
▁ᅵ뤄ᄂ도ᄋ 100
▁추리ᄇ 100
▁소ᄂ녀 100
▁지ᄀ자으ᄂ 100
▁해ᄂ드포느로 100
▁ᅧᄂ녀ᄂ새ᄋ 100
▁구처ᄋ 100
▁나타내 100
▁터지고 100
▁해ᄋ구ᄋ 100
▁소겨서 100
▁소규모 100
▁씨디 100
▁주요시하 100
▁ᅳ요ᄋ 100
▁비미리 100
▁스카ᅵ 100
▁ᅵᅧᄂ거 100
▁배규ᄀ시ᄇ 100
▁ᅩ혀이ᄂ데 100
▁ᅪ주에서 100
▁마ᅵ크 100
▁베라ᄂ다ᅦ서 100
▁휴ᅣᄋ지ᅦ서 100
▁겨ᄅ호ᄂ하고서느ᄂ 100
▁괴로ᄇ히 100
▁시ᄅ마이 100
▁스리ᄅ러 100
▁ᅵ르므로 100
▁가ᄅ리더라고ᅭ 100
▁ᅩ기ᄂ도ᄋ 100
▁ᅴ보ᄀ 100
▁마ᅵᄂ드 100
▁체버르ᄂ 100
▁파타ᅣ 100
▁깨다ᄃ 100
▁차ᅯ네서 100
▁새이르ᄂ 100
▁보추으 100
▁노흐며느ᄂ 100
▁대저느로 100
▁나ᄆ녀고ᄋ하기 100
▁너희드르ᄂ 100
▁ᅧᄋ드ᄋ 100
▁부자ᄋ니미 100
▁지부ᄅ해 100
▁조바서 100
▁ᅦ너지 100
▁스ᄅ퍼써ᅭ 100
▁내려ᅩ며ᄂ서 100
▁커다라 100
▁트러져 100
▁뻐ᄂ해써ᅭ 100
▁부ᄂ꼬치 100
▁ᅵᄂ가ᄂ저기ᄂ 100
▁치ᄅ시보 100
▁ᅡᆭᅳ셔써ᅭ 100
▁기주느로 100
▁비ᅲᄅ로 100
▁교화ᄋ 100
▁저저ᄅ로 100
▁머시써써ᅭ 100
▁ᅵᄊ게ᄊ네ᅭ 100
▁돼지고기 100
▁스ᄇ해서 100
▁마ᄌ스ᄇ니다 100
▁저ᄂ기세 100
▁미ᄐ 100
▁ᅧᄋ토에 100
▁비디ᅩ 100
▁교포 100
▁대가조기 100
▁자ᄋ나미 100
▁피ᄅ리피네서 100
▁사ᅵ즈 100
▁고워네서 100
▁교화ᄂ하ᄀ새으 100
▁새ᄋ새ᄋ 100
▁트ᄅ며ᄂ서 100
▁ᅡ래쪼게 100
▁마ᄅ다투ᄆ 100
▁도이ᄂ처 100
▁스키자으ᄅ 100
▁ᅥ리니지ᄇ 100
▁추ᅮ니까 100
▁혀ᄋ서ᄋ 100
▁ᅣ채 100
▁개ᅵᄂ저ᄀ 100
▁ᅳᄆ시ᄀ저미 100
▁사회자가 100
▁과모그ᄅ 100
▁미서ᄋ 100
▁하ᄂ나라다 100
▁ᅵᄂ시ᄀ하느ᄂ 100
▁서ᄋ혀ᄋ 100
▁시ᄅ제저그로 100
▁호기시 100
▁ᅡ까ᄇ죠 100
▁저ᄇ모ᄀ시키 100
▁매ᄀ라그 100
▁자거ᄇ시르ᄅ 100
▁커버 100
▁트ᄀ저ᄋ하ᄂ 100
▁저ᄂ구게 100
▁과모기라도 100
▁돼ᄊ거ᄂ 100
▁저ᄂ무ᄂ저그로 100
▁고사므 100
▁추ᄅ제 100
▁모모가 100
▁구시ᄇ구 100
▁리트 100
▁ᅴ조ᄂ하 100
▁과어 100
▁씨ᄇ고 100
▁ᅩᄅ라ᅪ서 100
▁구ᄂ대ᅦ서도 100
아ᄆ 100
▁가수드ᄅ 100
▁재다ᄂ 100
▁도ᄋ마다 100
▁과하기라ᄋ 100
▁로마라ᄋ 100
▁ᅮ러써ᅭ 100
▁계저리 100
▁모ᅵ므ᄂ 100
▁가저에 100
▁시ᄆ화 100
▁또ᄀ가ᄐ잖ᅡᅭ 100
▁조ᄂ겨ᄋ하느ᄂ 100
▁고츠ᄋ 100
▁터ᄀ 100
▁바ᄂ포 100
▁해ᄊ지ᅭ 100
▁사ᄋ화ᄋ드리 100
▁다니시느ᄂ데 100
▁매려그ᄅ 100
▁치ᄂ해져써ᅭ 100
▁노라ᄊ죠 100
▁모ᄅ라ᄊ거드뇨 100
▁도라다니며ᄂ 100
▁고드ᄋ하ᄀ새ᄋ드리 100
▁부조ᄀ해서 100
▁커피쇼베서 100
▁사ᅭᄋ해서 100
거ᄉ마느로도 100
▁기부느ᄅ 100
▁저ᄆ차 100
▁차ᄋ피하ᄂ데 100
▁소소ᄀ 100
▁제하니 100
▁사회저그로 100
▁하기ᄅ래 100
▁초ᄉ부ᄅ 100
▁티므ᄂ 100
▁자취 100
▁수ᄂ가ᄂ부터 100
▁시ᄀ구드리 100
▁해ᅬᅧ해으ᄅ 100
▁누ᄂ써 100
▁ᅡ쉬ᄇ죠 100
▁하ᄂ시그ᄂ 100
▁ᅵ루ᅥ져ᅣ 100
▁재미ᅥᄡ다고 100
▁구바ᄀ 100
▁사미ᄂ데 100
▁부ᄀ부 100
▁소ᅲ 100
▁바르므ᄂ 100
▁가겨ᄀ 100
▁ᅥ려ᄇ잖ᅡᅭ 100
▁ᅩ래돼서 100
▁하느냐 100
▁ᅲ모 100
▁과ᄋ교 100
▁느껴ᄊ느ᄂ데ᅭ 100
▁거로 100
▁ᅵᄂ터네시나 100
▁자세하게 100
▁추세 100
▁가ᄆ수 100
▁투ᅥ 100
▁부ᄅ려 100
▁스타ᅵ리라 100
▁도ᄅ며ᄂ서 100
▁ᅥ르ᄂ드리 100
▁ᅵ기며느ᄂ 100
▁개ᅮᄅ 100
▁더ᅯ서 100
▁ᅥ려ᄇ죠 100
▁ᅥᄡ대ᅭ 100
▁가조ᄀ처러ᄆ 100
▁ᅵ저버리고 100
▁버려ᄊ느ᄂ데 100
▁새ᄋ사ᄂ 100
▁ᅵᄅ바ᄂ계고 100
▁히ᄆ드러ᄊ죠 100
▁구부니 100
▁버ᄅ써부터 100
▁서ᄂ수드르ᄂ 100
▁ᅧᄂ보 100
▁하ᄀ부모드리 100
▁ᅩᄅ려ᅣ 100
▁겨ᄋ허ᄆ하고 100
▁하게ᄊ스ᄇ니다 100
▁싸ᅮ다가 100
▁짧ᅳᄂ 100
▁ᅵ써ᄊ느ᄂ지 100
▁디자ᅵ너 100
▁바ᄅ레다ᄂ 100
▁비스ᄉ하다고 100
▁ᅵᄂ계 100
▁ᅵ벼ᄋ허 100
▁끄ᄐ나며느ᄂ 100
▁되ᅥᄊ고 100
▁그ᄂ래ᅦ 100
▁최ᅮ수 100
▁프로그래미 100
▁재미ᄊ더라고ᅭ 100
▁ᅡ니ᅥᄊ지마ᄂ 100
▁가리켜 100
▁많ᅡᄊ죠 100
▁주고바ᄃ고 100
▁가ᄆ자 100
▁ᅧ해이나 100
▁휴시 100
▁ᅳ흐ᄋ 100
▁지비ᄂ지 100
▁계시더라고ᅭ 100
▁ᅵᄂ시ᄀ 100
▁ᅲ가휴지ᄀ 100
▁사라ᄆ마다 100
▁ᅵᅬᅦ느ᄂ 100
ᅳ메 100
▁ᅵᄚᅥ버리 100
▁ᅪ써ᄊ거드뇨 100
▁제푸ᄆ 100
▁ᅵᄅ저ᄋ하게 100
▁고시ᅦᅭ 100
▁시디 100
▁보내려고 100
▁대하ᄀ새ᄋ드리 100
▁ᅩᄅ리ᄆ 100
▁ᅩᄅ라써ᅭ 100
▁넓ᅥᅭ 100
▁모르게ᄊ다 100
▁저ᅦ게 100
▁ᅲ녀ᄂ 100
▁나ᅪ쓰니까 100
▁펴ᄅ치 100
▁저추ᄀ 100
▁모ᄉ하ᄂ다느ᄂ 100
▁지ᄇ사라미 100
▁주요하니까 100
▁지버너ᄒ 100
▁마가ᄆ 100
▁놔두고 100
▁모교 100
▁체버르ᄅ 100
▁드ᄅ지마ᄂ 100
ᄉ하게 100
▁보ᅵ더라고ᅭ 100
▁가ᄆ도ᄀ 100
▁조브ᄂ 100
▁사ᅵ크 100
▁머그라고 100
▁ᅣ타 100
▁내려ᅩ고 100
▁나ᅪᄊ죠 100
▁ᅧᄑ지비나 100
▁나ᅩ며느ᄂ 100
▁조ᄋ로 100
▁끄ᄐ나거나 100
▁과저에서 100
▁시ᄂ다ᄋ 100
▁주시더라고ᅭ 100
▁ᅳ워ᄂ하고 100
▁차벼ᄅ화 100
▁고소ᄀ도로가 100
▁주ᅵᄂ고 100
▁계시거드뇨 100
▁펴ᄂ해ᅭ 100
▁가조기라ᄋ 100
▁며ᄂ저ᄇ 100
▁ᅳᄂ그ᄂ 100
▁지퍼서 100
▁피며느ᄂ 100
▁나ᄆ펴니라ᄋ 100
▁고ᄋ다네 100
▁가시거나 100
▁도ᄋ기드ᄅ하고 100
▁드러ᄊ지마ᄂ 100
▁새ᄀ다르 100
▁피느ᄂ 100
▁바ᄃ거나 100
▁버려써ᅭ 100
▁내녀네느ᄂ 100
▁빠지며ᄂ 100
▁시ᄂ기하고 100
▁치ᄂ구ᅧ써ᅭ 100
▁시ᄂ기해ᅭ 100
▁가ᄋ벼 100
▁드려ᅭ 100
▁표저ᄅ 100
▁가ᄂ다드ᄂ가 100
▁사ᄋ가라고 100
▁많ᅡᄊ고ᅭ 100
▁가ᄅ리느ᄂ 100
▁ᅯᄂ조 100
▁부다ᄋ하 100
저ᄂ저기ᄂ 100
▁자ᄇ지 100
▁저ᄂ혀ᄋ 100
▁고ᄅ라서 100
▁가ᄅ수로ᄀ 100
▁패니 100
▁머ᄀ더ᄂ 100
▁조하해ᄊ거드뇨 100
▁밝고 100
▁바다ᄊ거드뇨 100
▁많ᅳ며ᄂ 100
▁너머가느ᄂ데 100
▁즈ᄅ거ᅮ 100
가가 100
▁걔네드리 100
▁다니거나 100
▁서초구 100
▁파ᄇ 100
▁트ᄀ지 100
▁교수니ᄆ드리 100
▁나가며느ᄂ 100
▁레스ᄂ 100
▁시퍼ᄊ거드뇨 100
▁소재가 100
▁펴이ᄅ 100
▁ᅭ기서 100
▁다니시느ᄂ 100
▁도시ᅦ서 100
▁써ᄊ다가 100
▁조하하셔서 100
▁ᅵᄂ처느ᄂ 100
▁회저ᄂ 100
▁수하겨해으ᄅ 100
▁다무ᄂ화 100
▁미래가 100
▁겨ᄅ과가 100
▁ᅣᄋ재ᅧ게 100
▁과ᄋ고 100
▁꾸지 100
▁되ᄂ다며느ᄂ 100
▁쳐ᄊ느ᄂ데 100
▁ᅯᄂ치 100
▁지부니 100
▁조ᄋ류가 100
▁지ᅧ그ᄂ 100
▁ᅵ사ᄋ저기ᄂ 100
▁사시거나 100
▁크잖ᅡᅭ 100
▁하시다 100
▁사ᄋ과너ᄡ고 100
▁매ᄀ주느ᄂ 100
▁끄ᄐ나니까 100
▁거기ᅦ다가 100
▁사ᅵ다 100
녀게 100
▁ᅵᄂ고ᄋ 100
▁가ᄆ다 100
느냐가 100
▁ᅬ구기ᄂ드ᄅ도 100
▁고ᄋ무ᅯ니셔ᄊ고 100
▁추ᄅ서 100
▁나ᅩ잖ᅡᅭ 100
▁ᅧᅮ 100
▁커써ᅭ 100
▁자ᄋ며ᄂ 100
▁호수가 100
▁사라미ᅥ서 100
▁가계부르ᄅ 100
▁도ᄂ과 100
▁효과르ᄅ 100
▁교시ᄅ 100
▁ᅤ기로느ᄂ 100
▁코드 100
▁사라메 100
▁소ᄋ도ᅦ 100
▁며ᄎ시ᄇ 100
▁시자ᄀ하니까 100
▁드러가잖ᅡᅭ 100
▁서ᅮᄅ시 100
▁서ᄋ겨ᄀ하고 100
▁자ᄅ모시 100
▁가까ᅮ니까 100
▁그러ᄒ더라고ᅭ 100
▁ᅡᄅ지마ᄂ 100
▁과ᄂ려ᄂ해서 100
▁하ᄀ새이니까 100
▁해봐써ᅭ 100
▁노ᄋ사지ᄉ 100
▁쓰잖ᅡᅭ 100
▁그때쯔메 100
▁ᅡ버니ᄆ도 100
▁버티ᄅ 100
▁주요하ᄂ데 100
뇨ᄋ 100
▁다리ᄂ가 100
▁씨ᄉ 100
▁너허서 100
▁자라지 100
▁ᅵ시ᄇ치ᄅ 100
▁놔두 100
▁저ᄋ리하고 100
▁사교ᅲ기 100
▁ᅡ니구나 100
▁빠ᄀ 100
▁그러냐 100
▁구시가지느ᄂ 100
▁그러냐고 100
▁고미니고 100
▁ᅴ사가 100
▁구조가 100
▁치ᅮ고 100
▁서ᄋ겨ᄀ드리 100
▁마ᄌ나 100
▁조하ᄊ고ᅭ 100
▁해ᅬᅦ 100
▁ᅵᄊ더라도 100
▁비싸ᄂ데 100
▁다르지 100
하으ᄂ 100
▁때려서 100
▁보사ᄋ 100
▁드러가써ᅭ 100
▁셔트 100
▁다ᄂ저ᄆ 100
▁하궈니나 100
▁모데ᄅ 100
▁느ᄅ려ᅣ 100
▁ᅡᄂ타까ᄇ다 100
▁조시ᄆ스러ᄇ 100
▁ᅡ주ᄆ마가 100
▁마ᄂ나지마ᄂ 100
▁하ᄂ저ᄀ하 100
▁세시서 100
▁크기가 100
▁ᅥ려ᅮᄂ데 100
ᄉ기ᄅ 100
▁싸ᄂ데 100
▁ᅤ기하거나 100
▁미치ᄂ 100
▁사시느ᄂ데 100
▁마치고 100
▁보시ᄅ 100
▁타느ᄂ데 100
▁ᅡᄂ타까ᅮ 100
▁ᅡᄅ려지ᄂ 100
▁허허버ᄅ파네 100
▁시퍼써ᅭ 100
▁그래쓰니까 100
▁ᅩ세 100
▁바니고 100
▁ᅵ드ᄀ 100
▁ᅧᄂ구소 100
▁그래ᄊ지마ᄂ 100
▁내도 100
▁ᅵ시ᄇ파ᄅ 100
▁가느ᄋ하ᄅ 100
▁바ᄃ느ᄂ데 100
▁ᅥᄂ로ᄂ 100
▁거무ᄂ도 100
▁ᅱᄉ지비 100
▁시니ᄇ새ᄋ 100
▁메고 100
▁ᅩ시나 100
▁저ᄋ보대 100
▁구ᄀ무ᄅ 100
▁ᅲᅵᄅ하 100
▁보ᅧ써ᅭ 100
▁그래쓰며ᄂ 100
▁줘ᅣ지 100
▁사ᅯᄅ 100
▁좌서 100
▁ᅲᅡ 100
▁카페나 100
ᅧᄊ기 100
▁레베ᄅ 100
▁코ᄋ쿠ᄅ 100
▁겨ᄋ차 100
저ᄂ처리 100
봐서 100
▁교사로서 100
▁다루 100
▁가ᄌ다가 100
▁사ᄅ리고 100
▁ᅵ러며느ᄂ 100
▁ᅲ니버서ᄅ 100
ᄇ니 100
▁쟤네 100
▁배ᅯᅭ 100
▁ᅥ머 100
▁치ᄂ해서 100
▁ᅩ사니 100
▁기부ᄂ파 100
▁나ᄃ 100
▁자기네가 100
▁ᅧ려서 100
▁그다ᅳᄆ부터 100
▁ᅳᄆ서ᄋ하ᄀ 100
▁기ᅵᄇ자으 100
▁지ᄅ무니 100
▁수려 100
▁자그나ᅵ 100
▁ᅩ사ᄂ 100
▁기계가 100
▁마셔도 100
▁거ᄉ보다느ᄂ 100
▁과ᅬ하고 100
▁거ᄂ추기 100
▁뚜ᄚ려 100
▁ᅡᄂ되ᄂ다고 100
▁ᅵ러나고 100
▁바다드리 100
▁ᅭᄀ도 100
▁ᅵ래ᄊ더ᄂ 100
▁펴니ᅦ 100
▁드ᄅ며ᄂ서 100
▁포ᄀ려기 100
▁시흐ᄋ시 100
▁다너르ᄅ 100
▁채저ᄆ 100
▁거ᄃ고 100
▁시너지 100
▁보메 100
▁치ᄂ구드ᄅ보다느ᄂ 100
▁다ᄋ기 100
▁사추ᄂ기르ᄅ 100
▁노그ᄆ 100
▁며ᄋ사 100
▁바뀌게 100
▁ᅨ사ᄋ하 100
▁많지마ᄂ 100
▁교치 100
▁토ᄋ토ᄋ하 100
▁치ᄂ하ᄅ 100
▁나ᄆ펴ᄂ도 100
▁ᅭᄀ해 100
소ᄀ해 100
▁주ᄅ리 100
▁토여ᄀ 100
▁ᅵ모네 100
▁다ᄇ다ᄇ 100
▁가ᄋ나ᄆ구 100
▁ᅵ부ᄂ 100
▁수ᄆ기 100
▁ᅩᄅ라가ᅭ 100
▁자ᄋ저ᄆ 100
▁가보며ᄂ 100
▁ᅵ후부터 100
▁해ᄋ보 100
▁지나가ᄅ 100
▁소니 100
▁시ᄂ초ᄂ 100
▁ᅧᄂ라ᄀ처 100
▁저희보다 100
▁규치ᄀ 100
▁무ᄂ화나 100
▁ᅡᄑ서 100
▁지키ᄅ 100
▁ᅵ르ᄆ도 100
▁조ᄒ다라고 100
▁그거까지 100
▁고ᄋ하이 100
▁과나ᄀ사ᄂ 100
▁가의 100
▁ᅣ구르ᄅ 100
▁기대치 100
▁ᅵ러거드뇨 100
▁ᅡᅵ드리라고 100
▁저ᄂ자 100
▁펴ᄂ차ᄂ하 100
▁부끄러ᄇ 100
▁도ᄋ새이나 100
▁보ᅵ게 100
ᅵ며ᄂ서 100
▁체계저기 100
▁모ᄉ하느ᄂ데 100
▁ᅩᄅ해가 100
▁지바네서 100
▁커서느ᄂ 100
▁젊ᅳ니 100
▁ᅥ려서도 100
▁치ᅧᄅ하 100
쇼도 100
니ᅭ 100
▁저녀게느ᄂ 100
▁자기ᅴ 100
▁치키ᄂ 100
▁지므ᄅ 100
▁사저그로 100
▁ᅩ기느ᄂ 100
▁자체르ᄅ 100
▁자ᄋ모니ᄆ 100
▁배ᅮ게 100
▁내려가서 100
▁프로피 100
▁ᅳ워ᄂ가 100
▁자미 100
▁ᅵ료 100
▁주기가 100
▁하ᄂ다며느ᄂ 100
부ᄂ드리라서 100
▁주지마ᄂ 100
▁자ᄋ르 100
씨그ᄂ 100
▁기조ᄂ 100
▁서ᅮᄅ하고 100
▁도ᄋ네ᅦ서느ᄂ 100
▁ᅩᄅ라가고 100
지브ᄅ 100
▁가ᄌ추 100
▁재개바ᄅ 100
▁다ᄆ그 100
▁수ᅯ느ᄂ 100
▁수사ᄋ 100
▁마ᄂ드러ᅭ 100
▁고그ᄇ 100
▁ᅡ니라며ᄂ 100
▁소토ᄋ 100
▁해ᄊ느ᄂ 100
▁귀찮ᅡ 100
▁가게가 100
▁시가네도 100
▁과수ᅯᄂ도 100
▁두기라 100
▁시처ᄋ 100
▁내니까 100
▁헤ᄅ 100
▁겨ᄅ호ᄂ하느ᄂ 100
▁과도기 100
▁디자ᅵ니라 100
▁ᅳᄆ시기 100
▁나가니까 100
▁프로가 100
▁사뭐ᄅ 100
▁지구과하 100
▁ᅵ지ᄅ가 100
라호 100
▁때라 100
▁며네서느ᄂ 100
▁데ᄂ데 100
▁고ᄅ모ᄀ기 100
▁ᅵ시 100
▁서ᄂ태기 100
로ᄇ게 100
▁마ᄌ히 100
비르ᄅ 100
▁회비 100
▁소소기 100
▁부ᄅ펴ᄂ하고 100
▁펴늬 100
하며ᄂ서도 100
▁머거도 100
▁바르ᄆ 100
▁처ᄋ소느ᄂ 100
▁ᅵ내 100
▁씨씨 100
▁ᅵᄂ사느ᄂ 100
▁그러지마ᄂ 100
▁노파지 100
▁써러 100
▁흐ᄀ 100
▁ᅩ프 100
▁사ᄅ거드뇨 100
▁무ᄂ화새ᄋ화 100
▁가ᄅ래 100
▁소바ᄀ하ᄂ 100
▁바ᄂ가ᄡ 100
▁깨ᅮ 100
▁타게 100
▁차ᄂ서 100
▁ᅤ기ᅦ 100
▁ᅳ마ᄀ도 100
▁대하ᄀ로 100
▁푸ᄋ겨ᄋ 100
▁걔네느ᄂ 100
▁페ᅵ지 100
▁쓰며ᄂ서 100
▁지하처레 100
▁ᅵᄂ터네ᄉ도 100
▁부ᄂ기 100
▁세ᅯ서 100
▁누ᄅ러 100
▁뛰ᅥ노ᄅ 100
▁괘ᄂ찮ᅳ 100
▁흐르ᄆ 100
▁그러니 100
ᄀ저으 100
▁그러ᄂ가ᅭ 100
▁조교느ᄂ 100
서ᄂ새ᄋ니ᄆ드리 100
▁호ᄋ처ᄂ 100
▁지그ᄆ처러ᄆ 100
▁사리고 100
▁ᅵ래도 100
▁ᅪᄊ다가 100
▁저ᄇ소 100
▁저ᄋ해서 100
▁다ᄂ지도 100
▁바ᄂ가ᄋ제 100
▁그러죠 100
나고 100
▁ᅱᄉ츠 100
▁두ᄅ러보 100
▁사ᄋ처바ᄃ 100
▁ᅡᆬᅳ 100
▁치ᅮ치 100
▁하ᄀ교드리 100
해ᅣ지 100
▁치ᄂ구거드뇨 100
▁겨ᄋ제하ᄀ과 100
▁ᅡ즈 100
▁때무ᄂ 100
▁마ᄅ로느ᄂ 100
▁개바ᄋ저기 100
▁내시니 100
▁하ᄂ다드ᄂ가 100
▁ᅩᄅ고 100
▁기가 100
네느ᄂ 100
▁희ᄂ 100
▁ᅥ디ᄂ지 100
▁마르 100
▁지바 100
쓰시고 100
▁되ᄆ 100
▁ᅵᅣ 100
▁꼬ᄅ토이 100
▁토로니 100
▁배ᄀ화저므 100
▁주시니까 100
▁ᅦᄃ 100
다가도 100
▁흐르미 100
드ᄅ보다 100
다ᄅ라고 100
바이 100
▁스ᅱ스ᅦ서 100
▁ᅧ게서 100
▁지ᄇ주ᄋ 100
▁쑤ᄀ 100
▁하느라고 100
▁혀ᄂ대고 100
▁하게ᄊ죠 100
▁치ᄂ구드리나 100
▁소수 100
▁걔네ᄂ 100
▁고햐이 100
▁계소ᄀ해서 100
▁ᅵᆰ기 100
▁호ᄆ페ᅵ지ᅦ 100
▁마ᄂ나ᅭ 100
▁가보 100
▁무지 100
니니 100
▁무ᄂ과ᄂ데 100
▁구거하ᄀ 100
▁ᅥᄆ겨ᄀ해 100
▁소나무 100
냐ᄋ 100
▁추ᄀ구도 100
▁며ᄂ드리 100
▁누나하ᄂ테 100
▁저거느ᄂ 100
니고 100
▁뉴타ᅮ느 100
▁봐써ᄊ느ᄂ데 100
▁도두ᄀ드ᄅ 100
▁서ᄋ수ᄀ해 100
▁ᅲ치ᅯ네 100
▁초바ᄇ 100
▁도ᄋ새ᄋ네 100
▁부두 100
▁미ᄅ려 100
▁기ᄅ가 100
▁부냐ᅦ서 100
ᄆ서ᄋ 100
나보다 100
▁부자교 100
▁나ᅡ가 100
가ᄐ 100
▁하시더라고 100
▁ᅵ써ᄊ냐며 100
모그ᄅ 100
▁조ᄂ재ᅵ 100
▁ᅡ페서ᄂ 100
▁지혜 100
▁나ᅡ지 100
드ᄅ하ᄂ테느ᄂ 100
▁ᅩ세ᅭ 100
▁저ᄋ다으 100
▁ᅵᄅ바ᄋ저기 100
▁ᅨ미ᄂ해지 100
▁고ᄋ지 100
▁비어 100
▁데ᅦ서 100
▁초드ᄋ하ᄀ교나 100
▁뿌려 100
▁하ᄅ머니느ᄂ 100
▁ᅩᄂ다고 100
▁사ᄆ서이 100
저ᄇ하다 100
▁추가 100
▁하ᄀ새ᄋ드ᄅ끼리 100
▁저ᄋ치ᅵᄂ 100
시가ᄂ 100
▁초ᄂ스러 100
▁수하겨해으 100
다리 100
▁교ᅲᄀ대하궈 100
▁사뭐 100
▁ᅥ르시ᄂ드ᄅ 100
ᅧᄂ 100
▁주거드뇨 100
▁ᅩᄆ 100
겨ᄂ 100
▁가지고느ᄂ 100
이라ᄂ 100
▁카페ᅦ서 100
▁사시리 100
▁저ᄂ제 100
사ᄅ 100
▁사라ᄆ드리나 100
▁겨ᄋ사ᄋ 100
▁쿠ᄅ 100
▁주벼네느ᄂ 100
▁재래시자 100
▁내려 100
▁시ᄂ세지 100
▁ᅯᄂ서 100
▁벼ᄂ하지 100
▁나ᄆ드ᄅ보다 100
부ᄅ로 100
돼ᄊ느ᄂ데 100
▁하시며ᄂ 100
▁ᅩ죠 100
▁시퍼도 100
셔ᄊ다 100
▁부텨 100
▁서ᅮᄅ과 100
▁혀ᄇ 100
▁주벼네도 100
▁주자으 100
▁초드ᄋ하ᄀ새ᄋ 100
▁새ᄋ가ᄀ해도 100
▁드러가며ᄂ서 100
▁쥐 100
▁부타그 100
▁거ᄉ까지 100
저느ᄅ 100
▁계ᅣ 100
▁서ᄋ수ᄀ하 100
▁저ᄋ도니까 100
▁밟 100
▁훼 100
▁ᅧ리 100
▁거ᄆ소하 100
▁태모으 100
▁ᅧᄅ고 100
▁더러 100
▁하ᄀ새ᄋ드ᄅ하고 100
▁그거하고 100
▁차부ᄂ하 100
▁매ᄀ주 100
체르ᄅ 100
▁누려 100
▁ᅡᄂ되ᄂ 100
쪼기ᅥ서 100
▁ᅵᆰ지 100
써ᅣ 100
▁마시ᄂ 100
▁서ᄋ시ᄅ하 100
▁ᅭ이ᄂ 100
▁쪼기라고 100
▁즈ᄋ며 100
▁노ᄂ리 100
▁바ᄋ치 100
▁마시ᄊ다 100
▁차ᄋ 100
▁주다 100
▁사ᄂ다 100
▁부ᄂ하ᄂ테 100
▁기레서 100
▁고소ᄀ도로 100
▁취치 100
▁ᅩ브 100
ᅯ져 100
▁ᅵ버네ᄂ 100
▁사ᄆ배ᄀ 100
▁뚜 100
▁ᅧᄂ겨ᄅ되 100
▁교ᅲᄀ과저ᄋ 100
▁하기ᅦ 100
▁ᅧᄂ그기 100
▁ᅫᅭ 100
▁밝ᅳ 100
▁ᅡ파트고 100
▁파ᄀ 100
▁저ᅣ 100
▁ᅥ두 100
▁코ᄋ쿠르 100
▁데모 100
▁따지지 100
▁휴ᄋ 100
▁ᅣ이 100
▁ᅨ저네도 100
▁머무르 100
▁거마ᄂ크ᄆ 100
▁하ᅧ 100
까ᅭ 100
▁모ᄀ도에서 100
▁주ᅵᄂ고ᄋ 100
▁며ᄂ제 100
▁벼ᄋ 100
▁다해 100
▁ᅯᄂ마ᄂ 100
▁겨ᄅ로 100
ᄆ마ᄂ 100
▁저의 100
마리 100
▁ᅴ도 100
▁저그이 100
나ᄋ 100
▁소ᄀ도 100
▁도네 100
▁후보ᅦ 100
▁과자ᄋ 100
▁대게서 100
▁나쁘다 100
▁뽀ᄇ지 100
보며느ᄂ 100
▁벼ᄅ개 100
▁껴써ᅭ 100
도으ᄂ 100
▁고ᄋ교ᅲ기 100
▁부저ᄋ저 100
▁비ᄂ도 100
▁기ᅪ 100
▁푸ᄆ조으 100
ᄀ바ᄀ 100
▁하ᄂ그 100
시ᅦ서 100
▁코트 100
▁시기가 100
▁수서ᄋ고ᅦ 100
▁가ᅣ지 100
▁리드 100
▁주고ᅭ 100
▁ᅵᄇ하ᄀ하 100
▁ᅵ드 100
▁노피 100
▁ᅱ치 100
▁머거ᄊ더 100
▁지ᄇ드ᄅ 100
시다 100
▁그리ᄅ 100
▁새유 100
▁ᅵᄇ사하 100
▁ᅧ어도 100
▁ᅲ치ᅯ 100
▁머러지 100
▁스타 100
▁노야기 100
ᄆ소 100
▁때까지ᄂ 100
▁나ᄒ 100
▁저ᄂ무ᄂ하ᄀ교 100
▁꼬ᄀ지 100
▁시고ᄅ스러ᄇ 100
▁과ᅵ리 100
▁차ᄆ고 100
▁스티 100
▁ᅵᅢ 100
ᄉ도 100
▁기자부ᄂ드 100
▁세고 100
▁마자ᅣ 100
▁회느ᄂ 100
▁주ᅵ 100
▁드ᄋ로ᄀ그 100
▁도ᄋ새ᄋ하ᄂ테 100
▁바ᄋ해 100
ᄂ지느ᄂ 100
▁바뀌ᅥᅣ 100
▁다ᅳ메도 100
▁수느이 100
▁ᅮᄂ도이 100
▁ᅬᅯ 100
▁ᅧ하ᄀ새이 100
▁서ᄋ저그로 100
▁ᅩᅵᄅ자 100
▁재미느ᄂ 100
▁ᅡᄂ내 100
▁다ᄋ다ᄋ하 100
▁사리ᄂ데 100
ᅪ라 100
▁비스ᄉ해 100
▁채ᄋ기기 100
▁ᅡ까ᄇ 100
▁혀ᄂ시레 100
▁쪼기ᅥ 100
▁트ᄀ수 100
▁채기ᄆ가 100
거ᅮᄂ 100
려ᅣ 100
고느ᄂ 100
▁하시더ᄂ 100
▁시ᄂ기하 100
▁미ᄃ기 100
▁서ᄂ지ᄂ구기라 100
▁겨여이 100
▁주ᄅ서 100
▁마트ᅦ서 100
▁사네서 100
▁고야기 100
ᄂ테 100
▁제ᅴ 100
▁타ᄊ느ᄂ데 100
▁꾸셔ᄊ 100
▁터져 100
▁추ᄅ자으 100
▁거ᄃ 100
나메 100
▁베르 100
ᄅ리ᄂ 100
▁도ᅪ주ᄂ다 100
후부터 100
▁벼ᄀ 100
▁해써ᄊ 100
▁하ᄀ새ᄋ회 100
ᄊ지 100
▁따져 100
▁ᅭ소 100
▁ᅢ드리라 100
▁겨ᄋ기자ᄋ드ᄅ 100
▁거니까ᄂ 100
▁ᅥ리내 100
▁쪼그로느ᄂ 100
▁도ᄅ봐 100
주시ᄂ다고 100
▁지ᅯᄂ 100
▁겨ᅮ리며 100
▁무뚜ᄀ뚜ᄀ하시 100
하기가 100
소긔 100
▁ᅭᄋ기 100
서ᄋ저기ᄂ 100
▁지ᄅ무 100
▁떠ᄅ 100
▁노느 100
▁모ᅣ이 100
▁돼도 100
▁ᅳᅦ 100
▁겨ᄋ부 100
▁나뉘 100
▁지ᅯᄂ그 100
베서 100
▁저ᄂ주 100
려다가 100
하시죠 100
▁자ᄋ나ᄂ치 100
르게 100
▁드ᄋ수 100
▁제ᅬ하며 100
▁머시 100
▁터ᄋ 100
▁ᅵ리고 100
▁주사 100
▁펴ᄂ해지 100
해쓰ᄆ 100
▁호ᄂ 100
이ᅥ써ᅭ 100
▁후보ᅧ 100
▁다ᄋ화ᄋ해 100
▁시ᄚᅥ하시 100
궈니 100
▁매체 100
바니 100
▁쉬ᅯ 100
▁과ᄂ과으 100
▁ᅰ 100
대교 100
▁ᅵ로ᄂ 100
▁계저ᄅ 100
▁사ᄅ게 100
▁바뀌ᅥ쓰ᄅ 100
▁게다가 100
▁고ᄀ서 100
▁화내 100
▁ᅩ래ᄂ 100
▁교ᅲᄀ비 100
▁하더ᄂ가 100
▁저ᄀ자 100
▁ᅢ과 100
▁화ᄅ 100
▁과ᄂ리하기 100
▁호바 100
▁후지 100
▁개바ᄅ되 100
▁소ᄋ 100
▁ᅩ버 100
▁파ᄂ매하 100
▁드ᄃ지 100
▁ᅣᄋ펴 100
꼬ᄎ 100
러니 100
▁시저ᄅ 100
▁해쓰ᄆ 100
▁나레느ᄂ 100
▁교ᅲ그 100
▁노려ᄀ하고 100
▁다ᅣᄋ하 100
▁처가 100
▁시켜서 100
▁대하ᄀ새으 100
▁드ᄃ게 100
▁마레 100
▁도ᄀ트ᄀ하 100
지ᄉ 100
ᅩ더라고ᅭ 100
▁겨꺼 100
하라 100
▁자그ᄆ 100
▁기쁘 100
해ᄊ구나 100
▁ᅡᆭᅡ쓰ᄅ까라 100
▁ᅨ미ᄂ해 100
자서 100
▁나가ᄂ다 100
▁시ᄂ구 100
▁개느ᄂ 100
미라ᄋ 100
ᄂ하고 100
▁ᅧ자하ᄂ테 100
▁가ᄂ시그 100
▁보기ᅦ 100
▁자라느ᄂ 100
▁차자ᅩ 100
▁나주에ᄂ 100
하기ᄂ 100
▁쓰시 100
▁삐지 100
해써ᄊ죠 100
▁더러ᅮ 100
▁도ᅪ주시 100
져ᄊ 100
▁가ᄋ화하 100
ᅪᄊ기 100
▁매다 100
▁ᅵ라느ᄂ 100
▁저ᄂ다ᄅ하 100
▁배드미ᄂ터 100
▁느끼게ᄊ고 100
▁시처에 100
▁소ᄅ로 100
▁서ᄋ겨 100
▁ᅥ디까지 100
▁소시 100
드ᄅ고 100
기기 100
제트 100
▁지ᅳ시 100
▁싸ᅮ기 100
▁데ᄅ 100
▁ᅬᅮ 100
▁모ᄉ해ᄊ 100
▁ᅥ르니ᄂ 100
▁초드ᄋ하ᄀ교느ᄂ 100
▁바리 100
▁하ᄂ구기라 100
▁사ᄋ하ᄂ 100
ᄃ고 100
▁지나ᄂ버 100
보며ᄂ 100
▁주도저 100
많ᅳᄂ 100
▁부뉘기ᅦ 100
▁때ᄆ 100
ᄡᅵ 100
▁부러 100
미ᅥ써 100
다니며ᄂ서 100
▁조흐시 100
ᅪᄊ느ᄂ데 100
▁저ᄇ 100
부ᄀ 100
▁바ᄇ가ᄡ 100
가ᅣ 100
▁줘써 100
ᅳ셔 100
▁조ᄋ하ᄇ바 100
▁사라ᄋ하 100
▁고무시 100
▁내ᄋ저ᄋ하 100
▁도ᅪ주기 100
ᅯᅭ 100
차가 100
꼬치 100
스터 100
ᅢ가 100
▁ᅥᄇ 100
처네서 100
▁ᅡ까ᄇ기 100
▁괘ᄂ찮고 100
게ᄊ거니 100
▁펴이 100
부ᄂ드ᄅ도 100
▁교수니 100
ᅵ므로 100
▁패스 100
▁사ᄋ화이ᅥ 100
▁하ᄂ저ᄋ저기 100
ᄇ하ᄂ 100
▁시ᄂ자 100
▁ᅵᄂ무ᄅ 100
▁치ᄂ구부ᄂ 100
▁하라버지드ᄅ 100
▁떠러져써 100
▁마ᄂ드ᄂ다느ᄂ 100
저ᄋ하ᄂ 100
▁보셔 100
▁거ᅦ느ᄂ 100
▁며예 100
▁보ᅵᄅ 100
▁해봐 100
▁수느으 100
▁가져ᅩ 100
▁묘 100
▁마ᄅ쓰ᄆ드리 100
▁서느ᄅ 100
▁자시ᄂ가 100
하시며ᄂ서 100
▁나가느ᄂ데 100
▁부ᄂ드ᄅ하ᄂ테 100
▁바다ᅣ 100
▁ᅵ쓰시ᄂ 100
▁시기ᄂ데 100
▁주ᅴ 100
▁보내ᄂ다 100
ᄅ파 100
▁키ᅮ셔 100
▁가ᄆ다ᄋ하기 100
▁시비ᅯ 100
▁치ᄂ구드레 100
▁세계ᅦ 100
▁서ᅮᄂ하 100
▁너가 100
치다 100
▁ᅵᄀ 100
▁ᅲ해ᄋ하 100
▁교미 100
▁도라다녀 100
니ᄂ가 100
▁처ᄂ마 100
저ᄋ해 100
나라 100
리ᄂ데 100
▁모자라 100
▁주ᄀ게ᄊ 100
▁서ᄋ햐 100
▁재미써ᄊ 100
▁ᅯᄂ도 100
트느ᄂ 100
느냐 100
▁고리 100
포ᄂ 100
▁고ᄋ사ᄂ 100
▁ᅡ나 100
▁ᅵᄇ자이라 100
▁대저ᄇ 100
▁차ᄂ 100
▁ᅫᄂ 100
니ᄆ드ᄅ 100
▁그러고느ᄂ 100
▁더ᄂ 100
사에 100
▁비ᄅ라ᅦ 100
▁노려ᄀ해 100
지베서 100
▁ᅥᄆ겨ᄀ하 100
▁보ᅡ 100
▁처지 100
ᅵ고 100
▁ᅤ기해ᄊ 100
▁마ᄋ해ᄊ 100
▁보조ᄂ하 100
▁ᅧ해ᄋ하 100
해ᄊ느ᄂ지 100
▁가ᄋ해 100
▁뛰ᅥ드러 100
▁즈ᄀ 100
려느ᄂ 100
▁즈ᄅ겨하 100
▁ᅥᄀ 100
최 100
▁자사ᄋ하 100
스ᄋ 100
▁저느로 100
▁ᅵ호 100
버ᄆ 100
봐ᄊ느ᄂ데 100
셔ᄊ 100
즈ᄅ 100
▁가까ᅯ지 100
▁하냐 100
ᄊ다라고 100
▁서ᄀ 100
ᅭ으로 100
▁ᅤ기하다 100
▁모ᅵ며 100
▁비ᅩ 100
자ᄋ니미 100
▁저노야기라 100
▁허라 100
ᅵ써ᅭ 100
▁해ᄊ다가 100
▁차ᄌ기 100
도느ᄂ 100
▁그저ᄂ 100
시ᄆ해서 100
▁비교하며 100
▁비싸다 100
▁보사 100
ᅦ서부터 100
세가 100
ᄅ려져 100
▁대도 100
셔ᄊ나 100
써ᄊ느ᄂ데ᅭ 100
▁초니 100
▁느껴지고 100
▁끄티ᅦ 100
이ᅥᄊ거드뇨 100
가라ᄀ 100
▁드러내 100
▁치ᄂ하ᄅ머니 100
ᅧᄀ 100
▁시저메 100
ᄋ기저그로 100
하시느ᄂ데 100
▁도라가셔 100
▁따내 100
▁새ᄋ도 100
드ᄅ로부터 100
▁시미ᄂ 100
ᄋ저그로 100
▁무뚜ᄀ뚜ᄀ 100
▁구매하 100
▁대토ᄋ려 100
▁다니느ᄂ데 100
ᄎ 100
▁가ᄂ파 100
▁ᅵ자 100
▁ᅨ저ᄂ보다 100
▁사거 100
▁ᅡ니더라 100
▁햐ᄋ 100
▁고ᄋ파 100
짜ᄀ 100
ᄂ가르ᄅ 100
▁ᅵᄊ느ᄂ가 100
▁저그 100
▁ᅥᄅ마크 100
▁과수 100
ᄋ가ᄀ 100
게ᄊ느ᄂ데 100
느ᄂ데ᅭ 100
▁마ᄌ춰지 100
▁ᅱ허ᄆ하다 100
▁노미 100
▁도자ᄋ 100
▁ᅵᄊ느ᄂ데도 100
▁지비ᅥ 100
▁ᅲ며ᄋ하지 100
▁ᅥᄡᅥ져 100
되며ᄂ 100
▁느러 100
해지 100
▁사셔ᄊ고 100
느ᄋ 100
되게ᄊ지마ᄂ 100
▁푸러지 100
▁쓰지 100
▁파도 100
ᄅ하게 100
▁채저 100
▁ᅣᄋ시 100
져ᄊ더라고ᅭ 100
▁까느ᄂ 100
ᅣᄀ가ᄂ 100
▁지ᄅ려 100
▁서ᄅ드ᄀ 100
매 100
ᄅ드르ᄅ 100
▁과가 100
▁시ᄚᅳ며 100
▁기수ᄀ사ᅦ 100
▁부ᄂ다 100
그러 100
▁ᅲᅵ 100
▁ᅡᄂ저ᄂ하 100
▁며이ᄂ데 100
▁츠이라 100
지니까 100
▁자ᄅ하시ᄂ 100
▁노려ᄀ하 100
구하고 100
▁ᅮ스ᄅ 100
▁해내 100
▁ᅣᄋ재 100
도아ᄂ 100
▁ᅮ녀ᄋ 100
▁두르ᄅ 100
▁하셔쓰며 100
파가 100
▁겨ᄅ저ᄋ 100
▁지ᄇ주 100
▁ᅥ프 100
▁너므며 100
▁소ᄅ지ᄀ 100
▁ᅵ래ᅣ 100
▁가느ᄋ서 100
▁자ᄅ하 100
▁사귀ᄂ 100
허ᄆ하 100
저ᄋ마ᄅ 100
▁사지 100
▁배ᄀ구시 100
▁서미ᄂ드ᄅ 100
▁나가ᄊ 100
▁ᅡ니ᅥᄊ다 100
때무네 100
▁쓰ᄂ다 100
러ᄊ느ᄂ데 100
▁서로ᅦ 100
▁가나ᄂ하ᄂ 100
▁꼬ᄆ꼬ᄆ 100
여ᄀ 100
▁도야ᄋ화ᅦ 100
▁사라져 100
▁비바 100
▁자기ᄂ 100
▁후보드ᄅ 100
▁과겨 100
▁취지ᄀ하 100
려며느ᄂ 100
▁사ᄆ자 100
▁고가 100
▁서ᄇ서ᄇ 100
▁까기 100
▁때무네도 100
나도 100
▁사ᄅ까지 100
▁내ᄂ 100
보리 100
▁비ᅭᄋ 100
사니 100
써ᄊ잖ᅡᅭ 100
▁지ᄅ리 100
▁사게 100
▁배나 100
▁ᅭ그므 100
▁고치 100
▁치ᄂ구ᅵ 100
▁ᅥᄆ마드ᄅ 100
▁지ᄅ벼 100
▁더ᄋ치 100
녀느ᄅ 100
▁개바르 100
▁퇴그ᄂ하 100
▁시가느 100
▁저ᄋ채 100
돼ᅭ 100
째 100
ᅧ기 100
▁시자ᄀ해ᄊ 100
지라고 100
▁보라 100
ᄅ려ᅣ 100
이ᄂ데 100
▁ᅮᄂ도ᄋ하 100
ᄋ고르ᄅ 100
▁무뚜ᄀ뚜ᄀ하 100
▁도ᄋ새ᄋ드ᄅ 100
▁태ᄀ 100
ᄅ지도 100
▁ᅡ치ᄆ바 100
▁포ᄂ 100
▁지ᅧ그 100
버ᄇ 100
부ᄂ 100
▁자서 100
ᄇ혀 100
ᄀ느ᄂ 100
▁시ᄂ처ᄋ하 100
▁고지비 100
ᅪᄊ느ᄂ데ᅭ 100
▁나ᅩ기 100
ᅥᄊ 100
져ᄊ더ᄂ 100
니까뇨 100
▁부ᄀ 100
지궈ᄂ드ᄅ 100
▁치ᄂ하기 100
▁무ᄂ제드ᄅ 100
자ᄋ나ᄂ 100
ᅡ네도 100
▁사다ᄋ 100
▁노트 100
▁ᅡᄅ려지 100
▁ᅵ비 100
▁ᅥᄆ마ᄂ 100
▁뮤지커르 100
▁마차ᄂ가지고 100
▁마ᅳ 100
▁새ᄋ가ᄀ까지 100
▁도라가ᄂ다 100
사ᄋ저기ᄂ 100
ᅮᄂ데 100
가ᄊ더ᄂ 100
ᄅ쩌 100
▁지가ᄀ 100
ᄂ류 100
돼ᄊ더ᄂ 100
▁체버 100
혀라 100
▁해ᄊ냐 100
▁추ᄋ나 100
켜 100
ᅧᄊ거드ᄂ 100
▁지여 100
ᅡ써ᅭ 100
▁가봐써 100
거ᅦ 100
ᄂ뜨 100
▁ᅧᄋ햐ᄋ 100
▁토ᄋ하 100
▁더ᄇ 100
▁자ᄇ히ᄂ 100
▁스ᄇ과느 100
▁지ᄇ다니 100
ᄊ다느ᄂ 100
하ᄂ테도 100
▁히ᄆ드러ᄊ 100
쪼게서 100
다기 100
▁피료하지 100
▁제자 100
▁바으 100
▁ᅵ제ᄂ 100
마네 100
쯔 100
모ᄉ하거나 100
▁많ᅡ써ᄊ 100
ᅯᄊ더ᄂ 100
▁마다 100
▁지ᄂ추ᄅ 100
지ᄀ 100
ᄅ러 100
▁가ᄆ서ᄋ저 100
▁바뀌기 100
지기 100
▁주요하고 100
▁수화 100
▁부ᄂ며ᄋ하 100
서느ᄅ 100
ᅥᄊ나 100
ᄋ해써ᅭ 100
ᄀ과 100
▁마ᄅ하다 100
▁새ᄋ가ᄀ해ᅣ 100
소ᄀ되 100
ᅬ느ᄂ 100
▁기퍼ᄊ 100
써서 100
트ᄅ 100
ᄅ하ᄂ 100
▁짜리 100
▁ᅵᅭᄋ해 100
▁지그므 100
르며ᄂ 100
▁드러가쓰 100
▁시ᄚᅥ써 100
▁토ᄋ하ᄀ 100
▁보다도 100
저메서 100
▁나마써 100
▁따기 100
▁개고 100
▁ᅳ워ᄂ 100
사ᄂ도 100
▁티치 100
▁ᅯᄂ수 100
▁사하이 100
▁지ᄂ보라 100
▁베ᄂ 100
해르ᄅ 100
▁나므며ᄂ 100
거ᅴ 100
거시 100
▁수하기 100
▁바래 100
다ᄋ서니 100
ᄀ사ᄋ 100
▁혀ᄂ사 100
마ᄅ로 100
▁해다ᄅ라 100
▁추ᄅ그ᄂ하 100
▁화기ᄂ하 100
거르ᄆ 100
▁ᅥᄡᅥ지ᄂ 100
▁추ᅮ 100
▁거러ᅩ 100
▁대부부 100
▁ᅥᄡᅥᄊ다 100
▁보시 100
▁주거라 100
ᄆ도ᄋ 100
랴이 100
▁대드ᄅ 100
▁ᅤ기하시 100
묘 100
▁ᅮᄅ지 100
▁지도하느ᄂ 100
▁대사 100
쯔메느ᄂ 100
리지 100
▁토ᄋ제하 100
기ᄅ래 100
▁따라ᅩ 100
자에 100
▁뿌 100
치ᄅ시ᄇ 100
▁ᅡᄂ저ᄂ 100
나써써ᅭ 100
▁ᅲ지하 100
▁드러가지 100
류ᄅ 100
▁새ᄋ화ᄅ해 100
▁지ᅧ 100
ᄅ마다 100
ᄅ리기 100
▁지ᄂ시 100
▁빠지지 100
▁테니스 100
ᄂ도ᄋ 100
쾌 100
▁체가 100
▁ᅥᄡ냐 100
▁사라ᄊ다 100
ᅧ서ᄉ 100
드레서 100
셔ᄊ고 100
▁나누기 100
▁고새ᄋ 100
도르ᄅ 100
▁수화ᄀ하 100
▁하ᅵ 100
▁벼ᄂ해 100
▁호ᄋ처 100
▁해ᄊ구나 100
▁파ᄅ시 100
▁노ᄅ게 100
ᄋ주ᅦ 100
▁지치 100
프ᄅ래 100
하ᄀ새ᄋ드리 100
▁도ᄋ해 100
▁나자 100
▁그주에서 100
저그ᄂ 100
해써써ᅭ 100
▁혀으 100
까ᄂ 100
하셔써ᅭ 100
벼ᄋ 100
거ᄂ지 100
ᄀ히 100
셔ᅭ 100
▁서니ᄆ 100
▁ᅥ르ᄂ드르 100
ᄋ화 100
ᄂ지ᄂ 100
혀ᄂ 100
ᄀ시ᄀ 100
ᅵ르ᄅ 100
더라고 100
지ᄅ수로ᄀ 100
▁ᅡᆭᅡᄊ더 100
▁시ᄚᅥ하시느ᄂ 100
그ᄆ바ᄋ 100
▁바브 100
▁매ᄇ 100
시지 100
해서느ᄂ 100
▁저그ᄋ 100
▁사ᄋ사 100
▁자ᄀ가로 100
하ᄀ녀ᄂ 100
기거나 100
새이ᄂ데 100
▁ᅥ서 100
ᅵ리나 100
▁무하ᄂ 100
가셔ᄊ죠 100
▁마시며ᄂ 100
라므ᄅ 100
▁기ᅥᄇ 100
토ᄋ하ᄂ 100
버ᄂ호 100
▁트ᄅ리게 100
ᅵ니 100
▁ᅵ쓰ᄅ지 100
ᅮ니까 100
더ᄂ데 100
뜨ᄉ 100
▁개서ᄂ 100
처리 100
▁드러ᅪ써 100
다ᄋ하ᄂ다고 100
드ᄋ 100
추리 100
▁사기 100
채ᄀ 100
하ᄀ새으ᄂ 100
▁보ᄀ하ᄀ 100
▁ᅡᆭ스ᄇ니 100
▁부ᄐ자 100
▁ᅲ해ᄋ 100
ᄋ회 100
구리 100
▁ᅲ해이 100
주ᅴ 100
▁뭐ᄂ 100
츠ᄋ 100
져ᄊ지마ᄂ 100
▁라ᅵ느 100
▁가ᄡᅳ 100
매ᅵᄅ 100
쓰니까ᄂ 100
드리나 100
▁며예로 100
▁저ᄋ도ᅧ 100
나ᄊ느ᄂ데 100
▁하ᄅ지 100
소리 100
▁표혀ᄂ 100
▁내시느 100
▁주ᄋ하ᄀ새ᄋ 100
▁ᅵ러지 100
부자 100
▁보려 100
과가 100
토에 100
로부터 100
▁새ᄋ화ᄅ하 100
▁뿌ᄂ마 100
다라 100
▁새ᄋ며 100
▁서ᄋ고ᄋ 100
▁조교ᅦ 100
시가네 100
▁화자 100
ᄅ저그로 100
▁토ᄋ하ᄇ 100
더ᄀ 100
▁서혀 100
바드ᄂ 100
▁고새 100
▁호ᄂ나느ᄂ 100
▁노ᄋ자 100
▁ᅵᅬ 100
줘ᅭ 100
▁화자으 100
기ᅦ 100
쳐ᄊ다고 100
▁서ᄅ저 100
돼ᅣ 100
ᄂ씨ᄀ 100
ᄅ레 100
바브ᄅ 100
▁네ᅵ 100
ᅵᄊ 100
ᄆ비 100
▁다ᄂ계 100
▁다여ᄂ하ᄂ 100
대추ᄋ 100
▁히ᄆ드 100
니니까 100
ᄀ해ᅭ 100
다드ᄂ가 100
▁저므ᄅ 100
▁기ᅥ 100
서ᄅ 100
겨ᅮ레 100
모ᄉ 100
치며느ᄂ 100
▁ᅤ기하지 100
꼬마 100
▁ᅵ라기보다 100
조흐ᄂ 100
그믜 100
▁부셔 100
대가 100
츠이 100
바ᄃ지 100
스쿠 100
ᄋ과니 100
▁최그 100
하ᄂ다며ᄂ 100
냐며느ᄂ 100
시계 100
▁느끼게ᄊ 100
▁대회 100
▁계기 100
▁배로 100
ᄅ마ᄂ 100
처에서 100
해써ᄊ고 100
▁초대하 100
타ᅵ 100
호ᄀ 100
대회 100
▁호가 100
▁서ᅮ 100
▁거ᄅ리ᄂ 100
▁새ᄋ가기ᄂ데 100
화ᄂ겨ᄋ 100
ᄂ짜ᄀ 100
▁가써ᄊ 100
▁하시지 100
▁도ᄋ무 100
▁흐ᄂ 100
드로 100
ᅬ저그로 100
▁하궈느 100
▁토이르 100
▁조하하시느ᄂ 100
드느ᄂ 100
▁시가니ᄂ 100
러서 100
▁하시게 100
되지마ᄂ 100
▁나기 100
후ᄂ려ᄂ 100
사시ᄇ 100
▁때리며ᄂ 100
두ᄋ 100
지ᄇ하고 100
휘 100
세ᅮ 100
▁수ᅵ 100
샤ᄇ 100
▁자ᄅ사느ᄂ 100
두리 100
▁지ᄅ 100
▁도ᄋ대무 100
▁처바 100
피ᄅ 100
▁커ᄊ 100
자ᄋ비 100
ᄅ지 100
코ᄂ도 100
뿌리 100
ᅪᄊ죠 100
▁며이라 100
시켜서 100
투ᄀ 100
▁사ᄋ하 100
▁ᅨᄉ나 100
기ᅥ써ᅭ 100
괴 100
▁대부부니ᄂ 100
투 100
▁다니게 100
▁차므 100
▁주ᄋ대 100
하자느ᄂ 100
ᅰ 100
▁다녀쓰 100
▁ᅤ기하자 100
▁그러ᄀ 100
고ᄋ무ᅯ니 100
하ᄀ과 100
▁고야 100
▁다ᄋ화ᄋ 100
하시거드뇨 100
▁하더 100
▁소리로 100
대주ᄋ 100
▁쪼기라 100
▁되느ᄂ가 100
부부 100
▁해보며ᄂ 100
좌 100
▁크나 100
▁치ᅧ 100
▁많ᅡ져써 100
▁하ᄀ새이ᅥ 100
배기 100
▁ᅥ리 100
▁ᅥ떠ᄒ게ᄊ냐 100
리기 100
터ᄋ 100
▁ᅡ주ᄆ마드ᄅ 100
수도 100
부두 100
▁조ᄒ다더라 100
▁ᅵᄇ자 100
피고 100
ᅯ니 100
가미 100
기ᅦ서 100
▁추ᄅ새 100
▁바ᄅ다ᄅ 100
▁펴ᄂ해 100
개서 100
▁저ᄂ다 100
▁마ᄀ차 100
▁시키ᄂ 100
ᄅ까봐 100
까기 100
▁미수 100
▁ᅵᅭᄋ하느ᄂ 100
▁마ᄅ쓰ᄆ하셔 100
▁저ᄋ마 100
▁푸ᄆ조 100
▁대대 100
▁ᅩ시며ᄂ 100
▁나ᅩ라 100
제하 100
▁치ᅮ느ᄂ 100
미로 100
▁시자ᄀ하며ᄂ 100
▁ᅩᅵ 100
다ᄀ 100
ᅱᄉ 100
ᅢ 100
드르니까 100
▁모ᄉ하시 100
▁ᅵᄂ사하느ᄂ 100
스타 100
▁다ᅳ 100
▁도ᄋ새이라 100
▁ᅵ베 100
▁다미 100
거ᅧ써 100
▁레스 100
▁패ᄂ 100
▁모ᄉ새ᄋ겨 100
사나 100
ᄂ겨이 100
ᅮ스 100
▁토ᄋ하느ᄂ 100
▁사ᅣ되 100
▁저ᄇ하 100
부ᄂ드ᄅ하ᄂ테 100
▁뻐ᄂ하 100
가루 100
ᄀ저기ᄂ 100
ᅣ이나 100
▁키ᅯ써 100
▁소ᅬ 100
▁ᅵ사ᄋ해 100
다며느ᄂ 100
▁따라가느ᄂ 100
▁ᅧ해ᄋ하느ᄂ 100
▁차ᄂ바 100
자그ᄆ 100
ᄂ저ᄋ 100
두르ᄅ 100
▁ᅳ워ᄂ하 100
▁많ᅡ지느ᄂ 100
▁자체ᅦ 100
▁해봐ᄊ 100
뻐 100
▁ᅧ자드리 100
비ᅭ 100
구그ᄅ 100
▁자ᄅ해ᅣ 100
▁쓰드ᄂ 100
버네느ᄂ 100
▁사라미라 100
ᄋ하잖ᅡᅭ 100
▁부저 100
▁자ᄀ기 100
▁부모니 100
▁머ᄉ 100
시ᄅ히 100
쳐지느ᄂ 100
▁화자ᄋ 100
▁서ᄂ무르 100
과ᄂ과 100
시기ᄂ 100
▁하나다 100
라ᄀ하ᄂ 100
▁조ᄆ마ᄂ 100
▁타지 100
▁쉬며ᄂ 100
▁레스토라 100
▁개바ᄅ하 100
ᅥ비 100
휴 100
▁대치 100
꾸시 100
▁비주 100
ᄅ리ᄋ 100
그ᄀ 100
ᄂ무ᄂ 100
니라도 100
느니 100
시비ᄅ 100
▁모ᄀ도에 100
ᅵᄆ 100
ᄅ하ᄅ 100
▁머ᄀ게 100
▁가셔 100
▁키ᅮᄂ 100
▁부ᅵ 100
꾸셔서 100
▁퍼지 100
▁드라마ᅦ 100
▁머시ᄊ 100
러ᄋ 100
▁다미미ᄂ 100
차ᅵ 100
▁새ᄋ가 100
▁무ᄂ제고 100
지며느ᄂ 100
다ᄂ지 100
▁파ᄂ다ᄂ 100
▁비ᄅ디 100
▁페ᅵ스부그 100
▁서ᄂ새 100
하기보다느ᄂ 100
▁추ᅯ 100
▁고ᄋ다 100
느라 100
이ᄂ가 100
ᅵᄊ잖ᅡᅭ 100
▁수사 100
▁주ᄋ시 100
거지 100
파네 100
후ᄂ 100
▁커쓰 100
거죠 100
기ᅴ 100
▁바러 100
▁그러게 100
▁드ᄋ로ᄀ 100
▁무서ᅯ하 100
사ᅦ서 100
▁미ᄂ주 100
▁하ᄂ저ᄋ 100
▁주아ᄋ 100
▁고ᄋ포 100
차ᄆ 100
ᄌ게 100
마크 100
▁치ᄂ해지느ᄂ 100
▁부처 100
니라서 100
▁부ᅧ 100
▁쉬ᄇ 100
하ᄇ 100
사에서 100
려지고 100
ᄀ해 100
궈 100
▁지추 100
ᄋ부ᄀ 100
▁해ᄂ드포 100
▁푸느ᄂ 100
▁수ᄂ대 100
ᅮ며ᄂ서 100
▁사라미구나 100
▁마ᄅ쓰ᄆ하 100
▁까다로ᅮ 100
▁하ᄀ교벼ᄅ 100
포느ᄅ 100
셔써ᄊ거드뇨 100
▁바ᄋ하 100
▁서ᄂ새ᄋ니 100
▁저ᄂ며 100
자라느ᄂ 100
▁젊 100
▁하궈 100
▁도ᄋ차 100
▁며ᄋ저 100
어르ᄅ 100
▁지하처려 100
▁자ᄅ하시느ᄂ 100
▁느리 100
ᄂ가ᅦ 100
수ᅴ 100
ᅯ서 100
괴ᄋ자ᄋ히 100
▁ᅵ나 100
서ᅭ 100
지비 100
▁고드ᄋ하ᄀ 100
▁사르ᄅ 100
ᅵ쓰니까 100
▁무서ᄇ 100
조하 100
ᄋ가ᄆ 100
ᄂ트 100
▁고저ᄂ 100
▁가ᄋ화 100
ᄂ시그ᄂ 100
▁가느ᄋ 100
케ᅵ 100
▁조흐ᄂ지 100
▁하ᅮ 100
매르ᄅ 100
▁ᅥ저께 100
▁ᅯᄂ루 100
▁과수ᅯ 100
게ᄊ구나 100
비ᄅ 100
▁나ᄆ자ᅢ드ᄅ 100
▁미ᅡᄂ하지 100
하다고 100
▁찌저 100
▁거러가며 100
▁ᅡ주머니 100
다ᄋ해서 100
▁까ᄅ 100
궈ᄂ도 100
▁ᅡ치 100
ᄀ비 100
▁주ᄋ가ᄂ주ᄋ가 100
▁되게ᄊ더라 100
▁ᅥᄅ구 100
▁푸ᄋ겨 100
리죠 100
▁치뤄 100
파느ᄅ 100
▁빠ᄅ가ᄂ 100
▁주러드 100
ᄅ까라느ᄂ 100
▁ᅵ도ᄋ하 100
▁고대 100
찮ᅡᅭ 100
▁쇼 100
▁치키 100
보가 100
하시다가 100
▁마버 100
▁조ᄒ다느ᄂ 100
▁과나ᄀ사 100
되ᄂ다거나 100
소ᄀ 100
파니 100
ᄋ도이 100
▁초드ᄋ하ᄀ교ᅦ 100
▁짧 100
▁꼬ᄅ토 100
▁터ᄉ바ᄐ 100
▁무ᄋ 100
▁회사ᅯ 100
▁새ᄋ가ᄀ하게 100
▁버ᄂ화 100
▁따ᄆ 100
▁ᅤ기라 100
보느ᄂ 100
씨ᅦ 100
▁ᅩᄀ 100
다보니까 100
▁가ᄋ나메 100
주ᅦ 100
▁화하ᄀ 100
▁마ᄐ 100
러가느ᄂ 100
자드리 100
▁고ᄋ가ᄆ 100
이ᅥᄊ느ᄂ데 100
▁가로수 100
▁기주네 100
잖 100
▁드러나 100
펴ᄋ가 100
▁고드ᄋ 100
▁도마ᄋ 100
▁디자ᅵ 100
▁시니ᄇ 100
▁며치 100
▁사무지 100
▁나ᄁ 100
▁서ᄋ다 100
구서 100
▁저유 100
▁교수니ᄆ께 100
▁사대 100
기ᅦ도 100
▁추ᄅ퇴그 100
쁘 100
▁ᅬ하ᄅ머니 100
쪼ᄀ과 100
▁해ᄊ스ᄇ니 100
라느ᄂ데 100
▁최소하 100
▁도더ᄀ저기 100
▁휴ᅣᄋ지 100
▁겨우ᅦ느 100
▁ᅩ래ᄉ도아 100
▁고하ᄀ 100
▁쓰ᄅ모ᅥᄡ 100
▁시비뤄 100
▁ᅯᄂ씨 100
▁모ᄆ무게 100
쎄 100
러며느ᄂ 100
ᄂ찮 100
▁거차ᄋ하 100
▁시허므 100
▁내녀네 100
▁소래포구 100
▁티케 100
ᄁ 100
▁ᅵᄂ터네스 100
▁하ᄅ머니하ᄂ테 100
ᅴᅯ니 100
▁ᅵᄇ자에 100
가ᄡᅵ 100
▁가며 100
▁하시더라 100
▁ᅵᄅ바ᄂ계 100
자ᄇ기 100
▁펴나ᄂ하 100
▁ᅵ루ᅥ져 100
ᄌ춰져 100
▁미눠 100
▁다르더라고 100
▁커피쇼베 100
▁화자ᄋ푸미 100
▁봐ᅣ게ᄊ다 100
▁미ᅧᄀ구 100
해ᄊ네 100
▁주미ᄂ드ᄋ로ᄀ 100
▁피고ᄂ해 100
▁호ᄋ코 100
▁휴대 100
▁ᅧ야 100
ᄌ춰 100
▁쑤 100
▁스튜 100
ᄅ고ᄇ 100
ᅯ하느ᄂ 100
▁ᅢ니파 100
▁트ᄀ저ᄋ 100
▁마ᄅ다투 100
과ᄂ해 100
▁바ᄂ바니ᄂ 100
▁부디ᄌ 100
▁베라ᄂ다 100
▁배규ᄀ시 100
▁ᅴ해 100
미ᅭ 100
▁스케주ᄅ 100
▁보라카ᅵ 100
▁시러ᄇ 100
▁펴ᄋ소 100
꺼ᄉ 100
눠네 100
▁벼ᄂ호 100
▁재미써써 100
갸 100
▁ᅲ스호스테 100
▁ᅥ그ᄉ나 100
▁괴로ᄇ혀ᄊ 100
▁구ᄋ시러ᄋ 100
▁내구기니 100
▁모로코 100
▁서머ᄀ서머ᄀ 100
▁싸ᄅ구ᄀ수 100
▁저랴ᄀ 100
▁커ᄂ베ᄂ셔 100
▁코ᄆ프ᄅ레ᄀ스 100
▁태ᄅ러ᄂ트 100
▁토ᅭᅵ리 100
▁페ᄂ셔 100
▁해피ᅦᄂ디 100
ᄅ리ᅮ드 100
▁ᅡᄀ수ᄂ화니 100
▁ᅡᄂ저ᄂ베ᄅ트 100
▁ᅡᄂ저ᄂ자ᄋ치 100
▁ᅡᄋ코르ᅪ트 100
▁ᅡᅵ디가 100
▁ᅡ사가사ᄀ하 100
▁ᅢᄀ세서리 100
▁ᅢ햐ᄋ다니라 100
▁ᅣᄀ수터 100
▁ᅥᄇ데ᅵ트 100
▁ᅥᄋ더이 100
▁ᅦ스커ᄅ레ᅵ터 100
▁ᅧᄂ나ᄅ리기 100
▁ᅭᄂ사마 100
▁ᅮᄅ르ᄋ도도 100
▁ᅮ두머리 100
▁ᅰ디ᄋ 100
▁ᅲᄂ차ᄋ주ᄋ 100
▁ᅲᄋ토ᄋ서 100
▁ᅲᄋ프라ᅮ 100
▁ᅲ러브ᄂ 100
▁ᅲ로패스 100
▁ᅲ배지 100
▁ᅳ요어너하ᄀ 100
▁ᅴ기소치ᄆ하 100
▁ᅵᄂ도네시ᅡ 100
▁ᅵᄂ피니트 100
▁ᅵᄇ자으로서느ᄂ 100
▁ᅵ고ᄉ저고 100
▁가ᄋ나며ᄀ 100
▁고ᄋ지사하 100
▁고리타부ᄂ하 100
▁과바ᄂ수가 100
▁괘ᄋ자ᄋ히 100
▁구ᄀ회ᅴᅯᄂ 100
▁구ᄂ구ᄀ주ᅴ 100
▁구머ᄋ가게 100
▁궈뉘저기 100
▁그라타ᄋ 100
▁까치ᄅ까치ᄅ하고 100
▁꾀 100
▁끄ᄚᅵ 100
▁내서ᄋ저기고 100
▁너ᄂ세ᄂ스 100
▁노ᄀ로ᄀ지 100
▁노ᅯᄂ구처 100
▁느ᄀ대소녀 100
▁다바ᄋ구 100
▁대ᅧ저ᄆ 100
▁대랴ᄀ저그로 100
▁대류ᄀ 100
▁도ᄋ바ᄋ시ᄂ기 100
▁도유러ᄇ 100
▁디즈니래ᄂ드 100
▁따ᄋ따머ᄀ기 100
▁라스베ᅵ거스 100
▁래ᄂ터ᄂ 100
▁래프티ᄋ 100
▁레포트 100
▁리ᅥᄅ리티 100
▁마서ᄡ 100
▁마주쳐 100
▁매니ᅡ 100
▁메뚜기 100
▁무ᄂ바ᄋ구 100
▁무가ᄆ가ᄀ 100
▁무차벼ᄅ하게 100
▁바ᄅ모ᄀ까지 100
▁바ᄋ소에 100
▁바테ᄂ더 100
▁배ᄋ크 100
▁보ᄋ처ᄂ도이라 100
▁부ᅣ여ᄀ 100
▁부ᅥ케 100
▁부ᅵᄀ부 100
▁부하ᄀ새ᄋ회자이 100
▁비ᅧᄋ리로 100
▁비로소 100
▁빠ᄀ빠ᄀ하 100
▁뿌드ᄉ해 100
▁사리ᄂ버미다 100
▁새ᄀ치ᄅ하고 100
▁새ᄅ러리매ᄂ 100
▁새ᄅ러리매느로 100
▁새ᄅ리ᄂ저 100
▁새ᄋ뚜ᄋ마ᄌ게 100
▁서ᄂ라ᅵ즈 100
▁서ᄅ구겨ᄅ차 100
▁서ᄋ버ᄆ죄 100
▁서ᄋ자ᄋ하며ᄂ서느ᄂ 100
▁서니ᄇ겨 100
▁서포트 100
▁소ᄀ소ᄀ드리 100
▁소ᄂ모ᄀ시계 100
▁소ᄂ찌거ᄆ 100
▁소바ᄋ서 100
▁쇠 100
▁수ᄉ자ᅦ 100
▁스케치부ᄀ 100
▁스타크래ᄇ트르ᄅ 100
▁스태프 100
▁스포츠세ᄂ타 100
▁시ᄂ뢰 100
▁시ᅯᄂ시ᅯᄂ하 100
▁시내ᄉ무 100
▁시뇨ᄋ부ᄅ랴ᄋ자 100
▁시눠ᄅ도 100
▁시해ᄋ차고르ᄅ 100
▁써ᄅ러ᄋ하 100
▁쐬 100
▁쓰ᄆ쓰미 100
▁자ᄋ례시ᄀ 100
▁저ᄂ랴ᄀ도 100
▁조시ᄆ하라고 100
▁주무ᄂ지ᄂ하 100
▁주재ᅯᄂ드 100
▁주호ᄋ그ᄅ자 100
▁지ᄀ거래 100
▁지ᄂ과뇌도 100
▁지ᄂ추ᄅ하기까지 100
▁지ᄇ차그ᄅ 100
▁지ᄋ지ᄋ대 100
▁짜자ᄋ며ᄂ 100
▁쪼르르 100
▁찌ᄇ찌ᄇ 100
▁처ᄂ호도에서 100
▁처ᄋ려ᄆ하 100
▁초ᄆ스키 100
▁초코ᄅ리스ᄅ 100
▁촤려ᄋ 100
▁추기겨이 100
▁치어ᄅ치어ᄅ거리 100
▁커ᄆ프ᄅ레ᅵ 100
▁코메디 100
▁코퍼스 100
▁크니모가 100
▁테ᄅ레비저 100
▁토모ᄀ고ᄋ사 100
▁티ᄆ자ᄋ니므ᄂ 100
▁패ᄂ크ᄅ러 100
▁펴ᄋ주ᄂ화 100
▁하버드 100
▁해ᅬᅧ해이 100
▁해수ᅭᄀ자이 100
▁혀ᄂ추워 100
▁혀래ᄀ혀으 100
▁혜태기 100
▁호ᄆ프ᄅ러스 100
▁화ᄅ서ᄋ화 100
▁휘ᄇ쓰ᄅ려 100
▁흐ᄂ쾌히 100
리스마 100
머ᄅ리뛰기 100
머무ᄉ 100
쇄 100
퓨 100
효ᅲᄅ저기 100
▁보ᄀ수아 100
▁쥐부ᄅ노리 100
▁ᅡᄅ뜨ᄅ하 100
▁ᅡᅵ스하키부 100
▁ᅡ카데미ᄀ 100
▁ᅥᄑ느ᄂ 100
▁ᅧ쭤 100
▁ᅬ가ᄉ지베 100
▁ᅬ로ᄇ다고 100
▁ᅳᄋ그ᄇ시레 100
▁가ᄂ호사 100
▁나ᄇ푸ᄆ 100
▁낡 100
▁네트ᅯ크 100
▁노ᄋ미ᄂ드ᄅ하ᄂ테 100
▁다그치고 100
▁마ᄂ지자ᄀ거 100
▁머ᄌ지 100
▁무지개떠기 100
▁비니ᄅ보ᄋ지 100
▁비자그미 100
▁비즈니스 100
▁사과ᄂ새ᄋ도 100
▁서ᄋ매매 100
▁슈퍼마케 100
▁스타데ᄆ 100
▁시ᄅ마ᄋ스러ᅯ 100
▁자ᄋ추ᄋ도 100
▁저ᄋ차ᄀ돼 100
▁지니ᄇ 100
▁지베레리니 100
▁추ᄂ처니ᅥᄊ 100
▁쾨ᄅ르 100
▁투재ᄋ 100
▁펴ᄋ타ᄂ하 100
▁푸르르 100
▁호ᄆ스테ᅵ 100
▁흐지부지 100
▁ᅥᅮ러져 100
▁ᅵᄇ마세 100
▁개바리ᅵᄀ 100
▁겨ᄂ뎌 100
▁깨트려 100
▁끄ᄅ려가 100
▁내ᄋ자ᄋ고 100
▁다ᄋ화ᄋ스러ᅮᄂ데 100
▁도ᄀ리ᄇ무니 100
▁러ᄂ더네 100
▁메튜보 100
▁모교ᄀ타 100
▁바ᄋ코기라 100
▁스테ᅵ크 100
▁스페ᄀ 100
▁지ᄀ서ᄅ저그로 100
▁처ᄂ주교 100
▁처러ᄡ 100
▁파리바게트 100
▁피ᄅ드하키 100
▁하거베 100
▁화ᄅ도ᄋ저기지 100
쪼ᄅ기ᄉ 100
▁ᅧᄆ새ᄀ 100
▁ᅩ사카 100
▁ᅬ지ᅵᄂ드 100
▁ᅵᄅ무ᄂ하ᄀ과 100
▁가치과니 100
▁겨ᄅ제하고 100
▁과ᄂ수시서 100
▁귀ᅧᅯ 100
▁마ᄀ내따리 100
▁바ᄂ가ᄇ게 100
▁수머서 100
▁싸히며느ᄂ 100
▁지ᄂ흙 100
▁쿠ᄋ콰ᄋ거리 100
▁하ᄋ고이나 100
▁사회구조 100
▁ᅬ토리 100
▁ᅯᄅ드ᅯ 100
▁다ᄋ시ᄂ네 100
▁메소드 100
▁배ᄀ화저메서 100
▁사그라드ᄅ고 100
▁새ᄋ기ᄆ새 100
▁자ᄂ드ᄀ 100
▁저ᄋ치ᅵ느로서 100
▁저누치 100
▁지ᄀ서ᄅ저기 100
▁지ᄋ그러 100
▁ᅡᄂ저ᄂ사고 100
▁구처이 100
▁미구ᄀ사니ᄂ데 100
▁보토의 100
▁조ᄀ바ᄅ 100
▁체ᅵᄂ저므로 100
▁하ᄆ추ᄀ 100
▁ᅵᄅ조의 100
▁따도ᄅ리 100
▁바ᄅ효 100
▁바ᄋ버브ᄂ 100
▁서대무 100
▁펴ᄋ태ᄀ 100
▁호ᄋ보하러 100
띠ᅥᄆ 100
▁ᅵᄅ대ᅵᄅ 100
▁다혀ᄅ지리 100
▁라ᅵ티으 100
▁미묘하 100
▁사ᄆ차까지 100
▁자ᄋ미꼬치 100
▁주거지ᅧ그로 100
▁지ᄀ조이 100
▁채취해서 100
▁프ᄅ루 100
▁ᅡᄇ구저에서 100
▁ᅩᄅ려다보며ᄂ 100
▁구ᄀ리비 100
▁다ᅵᅥ트 100
▁도ᄋ겨ᄋ시 100
▁바ᄋ배도에서 100
▁캐츠 100
▁포ᄅ더 100
▁가ᄋ르으로 100
▁무ᄂ드ᄀ 100
▁싸요 100
▁처ᅳ미ᅥᄊ고 100
▁추ᄀ구화나 100
▁취ᅥ브ᄂ 100
▁치ᄂ처기 100
▁하ᄇ시다 100
▁ᅵᄆ대노이 100
▁고ᄋ배ᄀ기 100
▁기계고ᄋ하ᄀ과 100
▁끄ᄐ무리 100
▁드려ᄊ더니 100
▁며ᄋ려ᄋ하 100
▁벼ᄋ해ᄋ 100
▁주거지ᅧ기 100
▁조ᄋ례 100
▁ᅥ하ᄀ다에서 100
▁수ᄀ기보다 100
▁좌ᅮ 100
▁ᅡᆭ느냐라 100
▁ᅧᄂ구ᅯ네서 100
▁ᅧᄅ드ᄋ가 100
▁거ᄂ너펴느로 100
▁내놔 100
▁다ᄆ다ᄆ하 100
▁하수ᄀ지ᄇ 100
▁주시ᄇ시 100
▁서ᄋ자ᄋ해 100
▁ᅵᄇ히지 100
▁다ᄂ호바ᄀ 100
▁버붜ᄂ 100
▁수그니 100
▁ᅵᄂ새에 100
▁기ᅵᄇ자ᄋ 100
▁다르머ᄡ느ᄂ 100
▁마ᄀ내따ᄅ 100
소ᄀ다ᄀ 100
▁ᅵᄂ터뷰 100
▁마ᄋ포 100
▁모르ᄅ거료 100
▁캐스티 100
▁쿠ᄋ쿠ᄋ거리 100
드ᄅ써ᄀ 100
▁까치ᄅ하 100
▁사다ᄋ도에서 100
▁서ᄅ나ᄅ까 100
▁테두리 100
▁추ᄅ파ᄂ 100
▁회ᄉ지ᄇ 100
▁마ᄋ서리 100
▁스무라호 100
▁스무리ᄅ고 100
▁주요서으ᄂ 100
▁처ᄅ드ᄅ고 100
▁대하ᄋ저 100
▁마ᄂ드러져ᄊ고 100
▁저ᄀ하ᄇ하 100
▁주요서이 100
▁바ᄅ겨ᄂ 100
▁보드게ᅵᄆ 100
▁캐ᄅ리 100
▁ᅡᆭ게ᄊ냐 100
▁리디이 100
▁비례 100
▁스페ᅵ 100
▁카포ᄂ 100
▁흐ᄋ미로ᅯ 100
▁ᅨ주ᄋ부터 100
▁저ᄂ구ᄀ저그로 100
▁하ᄀ부혀이 100
▁ᅩ지어 100
▁ᅲ비시 100
▁ᅵᄂ프라 100
▁다녀써ᄊ스ᄇ니다 100
▁밝혀 100
▁사너비 100
▁페ᄂ시 100
▁기다려ᄊ다가 100
▁지나쳐서 100
▁드러줘 100
▁가ᄆ시자 100
▁노래패 100
▁무ᄂ구르ᄅ 100
▁시료ᄋ 100
퇴지ᄀ 100
▁ᅩ버타ᅵ므ᄅ 100
ᄋ료ᄋ 100
▁가르키 100
▁겨ᄅ코 100
▁드셔써ᄊ느ᄂ데 100
▁보ᄀ스ᄇ 100
▁거ᄆ즈 100
▁도ᅪ줘ᄊ죠 100
▁쪼ᄎ 100
▁체코 100
▁프ᄅ라 100
▁ᅧ해으로 100
▁코ᄅ라 100
▁빼ᄉ기 100
▁기드ᄀ 100
▁며ᄋ치으 100
▁서ᄅ계 100
스크래 100
▁내서ᄋ저기ᄂ데 100
▁바ᄅ려으ᄂ 100
▁추ᄀ구패 100
▁고ᄅ프 100
▁규ᄂ혀 100
▁씨ᄀ씨ᄀ 100
▁최ᅡ그ᄂ 100
▁ᅣᄋ리ᄇ 100
▁저ᄀ다ᄋ하 100
코미디 100
▁개개ᅵ 100
▁머시써ᄊ고 100
▁바ᄂ지하 100
▁ᅲᅭᄋ하 100
▁서ᄅ며이 100
▁마ᄂ마ᄂ하게 100
▁그ᄀ자이 100
▁추ᄅ바ᄅ 100
레저ᄂ드 100
ᄋ뚜ᄋ 100
▁ᅲ해이ᅥ써ᅭ 100
▁치ᄋ구드리 100
▁보라카ᅵ라드ᄂ지 100
▁자뭐ᄂ도 100
▁추ᄋ겨기ᅥ써ᅭ 100
▁ᅧᄀ하레서 100
▁저ᄌ소드리 100
▁조저ᄋ리니 100
▁하ᄀ새ᄋ드레게 100
▁ᅪᄂ고ᄋ 100
▁대추ᄅ그ᄆ 100
▁소려ᄋ 100
▁도기러 100
▁미뉴리 100
▁파ᄅ시비며ᄂ 100
▁개보ᄋ 100
때쯔미ᄂ 100
▁과여ᄀ 100
▁서미ᄂ드르ᄂ 100
▁과ᄂ라ᄆ 100
▁기ᄆ포 100
▁세ᄀ스 100
▁나ᅪᄊ다느ᄂ데 100
▁스케주ᄅ러 100
보조그므ᄅ 100
키드ᄀ 100
▁버ᄂ씨기 100
▁ᅪᄋ조 100
▁서러ᅯ 100
▁바ᄂ차느ᄅ 100
▁ᅣᄀ푸미 100
▁무ᄂ래도ᄋ 100
▁저ᄋ류자 100
▁ᅧᄂ고대 100
▁가ᄋ르ᄋ 100
▁사ᄆ처ᄋ도ᄋ 100
▁시ᄂ부ᄂ즈ᄋ 100
▁저눠ᄂ주태ᄀ 100
▁패니라서 100
▁조ᄂ주ᄋ 100
파르ᄉ 100
▁미ᅡᄂ해ᄊ다고 100
버브로 100
▁체가ᄆ하 100
▁파ᄂ벼ᄅ 100
▁버ᄂ쯔므ᄂ 100
▁지ᅩᄀ 100
▁토ᄋ하ᄇ다ᄋ 100
▁피거ᄇ 100
▁하ᄀ스브ᄅ 100
▁화자ᄋ푸므 100
▁마ᄉ지비 100
▁ᅲᄂ리 100
▁모자르 100
▁자ᄂ자ᄂ 100
▁리모데ᄅ리ᄋ 100
▁두ᄅ째치고 100
▁마포구 100
▁머러ᄊ죠 100
ᅥᄑ고 100
▁가끄ᄆ씨그ᄂ 100
▁재거ᄂ추ᄀ 100
▁기뻐 100
▁ᅧᄅ푸이 100
▁머시ᄊ더라고ᅭ 100
▁커프ᄅ 100
▁ᅩᄂ라ᅵ 100
▁재다네 100
▁구자에 100
▁ᅥ떠ᄀ하냐 100
▁바드며느ᄂ 100
▁주ᄋ고드ᄋ하ᄀ새ᄋ드 100
▁기르ᄆ지지 100
▁ᅥᄅ구르ᄂ 100
▁ᅵᄂ조ᄋ 100
▁고여니 100
▁도ᄋ시ᅦ 100
▁ᅮᄂ도ᄋ회 100
▁드러ᅪᄊ다가 100
▁미러주 100
▁ᅪᄊ냐 100
투더ᄅ 100
▁ᅯ크 100
▁혀ᄂ그므로 100
▁다ᄂ고ᄅ 100
▁다니시다가 100
▁겨ᄋ저ᄂ처 100
▁베ᅵ지 100
▁써ᄊ느ᄂ지 100
▁ᅭ그미 100
수ᄅ러ᄋ 100
▁나ᄀ서 100
▁바ᄂ바니ᄂ데 100
▁빠ᄋ지ᄇ 100
▁부ᄅ러ᄊ죠 100
▁기로ᄀ 100
▁바ᄋ버ᄆ 100
▁ᅳᄂ펴ᄋ구 100
▁무나ᄂ하 100
▁자ᄋ래ᅦ 100
▁추ᄋ부ᄀ 100
▁배꼬ᄎ 100
▁제추ᄅ하 100
▁펴ᄋ저ᄆ 100
▁구부느ᄅ 100
▁대드ᄅ거나 100
▁바ᄀ스 100
▁쎄ᄂ 100
▁추구하 100
▁해쓰나 100
▁바다ᄊ더니 100
▁부ᅥ비 100
▁토피 100
▁트ᄀ지이 100
▁조ᅧ니 100
▁가ᄆ사해써ᅭ 100
▁ᅥ지가ᄂ 100
▁하수ᄀ 100
▁ᅩ배 100
▁도ᄋ무리라서 100
▁피고ᄂ하니까 100
▁차ᄋ피하다고 100
▁푸러져 100
▁사ᄅ리ᄆ하 100
▁서ᄋ부느ᄅ 100
▁며ᄋ쾌하 100
▁비켜 100
▁하느라 100
▁밝히 100
▁저ᄋ지ᄀ하 100
▁개ᄅ러 100
▁ᅧᄂ수도이 100
▁저ᄀ대가 100
▁가느ᄋ서으ᄅ 100
▁서ᄂ해ᄋ 100
▁하ᄇ치며ᄂ 100
끄더ᄀ 100
▁무서ᄇ잖ᅡᅭ 100
▁허수ᄅ 100
▁ᅩ래돼ᄊ죠 100
▁바ᄆ새 100
▁사자ᄋ니미나 100
▁보며뇨 100
▁수ᄅ지ᄇ하고 100
▁배부르 100
▁호ᄀ시라도 100
▁마려니ᄂ데 100
▁피디 100
▁기ᅥ베 100
▁드ᄃ게ᄊ죠 100
▁저ᄋ시ᄂ저그로 100
▁주려ᅣ죠 100
▁ᅡᅵ러니 100
▁가ᄋ나며게서 100
▁타ᄆ구 100
▁피료서으ᄅ 100
▁고드어 100
▁대저니 100
▁무꺼서 100
▁자ᄋ서ᄋ 100
▁모ᄆ싸ᅮ 100
▁케ᄃ 100
▁다ᄅ라져ᄊ죠 100
▁새ᄋ계 100
▁너모ᄀ 100
▁고ᄋ구ᅴ 100
▁버니ᄂ가 100
▁주겨ᅭ 100
▁ᅨ사ᄋ하시 100
▁ᅲ차ᄋ 100
▁화서이 100
▁지ᅧ기라서 100
▁ᅥ피ᄅ하 100
▁세조ᄋ 100
▁시ᄑ스ᄇ니다 100
▁타ᅵ미 100
▁하ᄇ바니ᅦᅭ 100
▁미루 100
▁저ᄂ재ᄋ 100
▁서구ᅦ 100
▁미수리ᅭ 100
▁드러주거나 100
▁호ᄂ나ᄊ고 100
▁ᅳ으 100
▁드ᄅ수로ᄀ 100
▁바르미 100
▁지지ᄅ하ᄀ과 100
▁ᅱ허ᄆ해서 100
▁미ᄂ주다ᄋ 100
▁너머ᅪ서 100
▁그ᄆ소ᄀ 100
스토ᄇ 100
▁모ᄅ라ᄊ다고 100
▁저ᄋ치계 100
▁ᅴ료 100
▁대추리 100
▁스니미 100
▁처ᄉ나ᄅ 100
▁처시느ᄅ 100
▁호ᅳᄋ 100
▁ᅥᄅ구리 100
▁구체저그로 100
▁해우 100
▁ᅡᄅ게ᄊ스ᄇ니다 100
▁시ᄅ마ᄋ스러ᄇ 100
▁ᅡ르ᄆ다 100
▁드리ᄂ다거나 100
▁지소ᄀ되 100
꼬부ᄅ 100
▁저ᄂ처ᄅ 100
▁파뤄ᄅ부터 100
▁그러ᄒ네ᅭ 100
▁저눠ᄂ 100
▁부치ᄆ개 100
▁모르게ᄊ네ᅭ 100
▁지ᄇ주ᄋ해서 100
▁피씨 100
▁ᅵᄂ즈ᄋ 100
▁ᅵᅮ시 100
▁서ᄋ겨ᄀ사ᄋ 100
▁겨ᄆ해서 100
▁코치 100
▁나ᄆ펴ᄂ하ᄂ테 100
▁나가려며ᄂ 100
▁타ᄂ다드ᄂ지 100
▁보ᅪᄂ 100
▁소매 100
▁시ᄅ버 100
▁태ᄀ시비 100
▁ᅣᄋ시ᄆ 100
▁ᅯᄅ드 100
▁따ᄆ나고 100
▁ᅡ내하ᄂ테 100
▁ᅵᄅ사ᄋ저그로 100
▁해봐라 100
▁시러비 100
▁귀찮다고 100
▁흐ᄂ드ᄅ고 100
▁넓히 100
례ᅭ 100
너ᄇ 100
▁ᅮᄅ며ᄂ서 100
▁ᅧᄀ저ᄂ 100
▁ᅵᆰᅳ며ᄂ서 100
▁까ᄀ드 100
▁초주ᄋ고 100
▁조자ᄀ 100
▁ᅩᄅ리다가 100
▁모르게ᄊ더라고ᅭ 100
▁사ᄅ버ᄅ 100
▁흙자ᄋ나 100
▁추ᄀ하하ᄂ다고 100
▁티미라서 100
▁버려ᄊ죠 100
▁호ᄋ코ᄋ 100
▁쓰러지고 100
▁주머ᄀ 100
▁하ᄀ새으로서 100
▁ᅫ고ᄀ 100
▁히ᄆ드러져 100
▁ᅡ저씨하ᄂ테 100
▁ᅬ부ᅦ서 100
▁자시ᄂ가ᄆ 100
▁피ᅡ니스트가 100
▁ᅩᄅ케가 100
▁도라ᅩ며ᄂ 100
▁저ᄂ례 100
▁거ᄂ무리고ᅭ 100
▁무서ᅯᄊ거드뇨 100
▁놔ᄊ더라고ᅭ 100
▁드ᄋ까지 100
▁ᅬ하라버지가 100
▁바ᄀ스ᅦ 100
▁스ᄅ프고 100
▁기가ᄂ제 100
▁주미ᄂ드ᄋ로ᄀ버ᄂ호 100
▁ᅵ사ᄋ해ᄊ고 100
▁나ᄅ짜 100
▁주ᅵ니 100
▁고ᄋ터 100
▁표혀ᄂ해 100
▁도ᅪ주려고 100
▁ᅡᆭᅳ며느ᄂ 100
▁사ᄂ소가 100
▁ᅥᄡᅳ시니까 100
▁죄소ᄋ하ᄂ데 100
▁도ᄅ리더라고ᅭ 100
▁헤세 100
▁모ᄀ수 100
▁바뀌ᅥᄊ죠 100
▁ᅥ깨 100
▁시ᄂ라으ᄂ 100
▁수도ᄋ저그로 100
▁스ᄋ무ᅯ느ᄅ 100
▁마려니 100
▁도ᄋ호 100
▁미ᅧᄀ구기 100
▁ᅧᄋ무ᄂ하ᄀ과 100
▁새ᄋ겨나고 100
▁주려ᅣ 100
▁거부가미 100
▁저ᄋ무ᄂ 100
▁나ᅩ시며ᄂ 100
▁화자ᄋ푸미나 100
▁표혀ᄂ하며ᄂ 100
▁머ᄀ느ᄂ다거나 100
▁ᅵᄇ주 100
▁되ᅥᄊ지마ᄂ 100
▁시ᄚ더라고ᅭ 100
▁과ᅵ르ᄂ 100
▁ᅡᄂ저ᄋ서ᄋ 100
▁대리ᄇ 100
ᄅ거료 100
▁ᅣᄋ재도ᄋ 100
▁ᅥᄡᅥ져ᄊ죠 100
▁수ᅭᄋ하 100
▁다니ᄅ화 100
▁서ᅮ르ᄂ 100
▁케ᅵ스라서 100
▁ᅵ무ᄂ도이 100
▁주ᄋ시미 100
▁사미니까 100
▁버티다가 100
▁다가ᅩ느ᄂ 100
▁조ᄋ모ᄀ 100
▁재미ᅥᄡ더라고ᅭ 100
ᄉ거리 100
▁귀ᅧᄇ 100
▁스타ᅵ리ᅦᅭ 100
▁프레ᄂ드 100
▁화료ᄋ해서 100
▁ᅵ쓰시니까 100
▁주러ᄊ느ᄂ데 100
▁기르ᄆ 100
▁많ᅳ세ᅭ 100
▁ᅵ쓰시고ᅭ 100
▁노하ᅮ 100
▁바꿔ᄊ죠 100
▁스피 100
▁주ᄂ다더ᄂ가 100
▁까ᄅ리 100
▁나ᄆ자ᅢ드ᄅ하고 100
▁마ᄂ나ᄊ다며ᄂ 100
▁가ᄋ조 100
▁ᅵ러나드ᄂ 100
▁ᅧ해ᄋ가쓰ᄅ 100
▁ᅡᄂ타까ᄇ 100
▁ᅵᆰᅥᄊ느ᄂ데 100
▁기주느ᄅ 100
▁세사으ᄅ 100
▁구지ᄀ 100
ᄅ두 100
▁ᅱ주 100
▁기ᄑ수 100
▁파라ᅣ 100
▁미눠네 100
▁드러가써 100
▁바ᄂ쯔ᄆ 100
▁자시ᄀ드ᄅ도 100
▁도라보고 100
▁기후 100
▁가끄ᄆ씨 100
▁ᅡᅮ르 100
▁무ᅥ시ᄂ 100
부자ᄋ니ᄆ 100
▁소시그ᄅ 100
▁ᅵ벼ᄋ 100
▁사라ᅩᄂ 100
▁처ᄅ드느ᄂ 100
▁노파서 100
▁ᅩᄅ려ᅣ지 100
▁피하거나 100
▁때느뇨 100
▁스노 100
▁ᅵ저버려ᅭ 100
▁보셔ᄊ죠 100
▁다ᄂ도ᄀ주태그ᄂ 100
▁부모니ᄆ드ᄅ하ᄂ테 100
ᄋ도ᄅ하다 100
▁트ᄀ화르ᄅ 100
▁대하ᄀ새ᄋ드르ᄂ 100
▁무료잖ᅡᅭ 100
▁새ᄋ화리냐 100
▁해벼ᄂ 100
▁보자며느ᄂ 100
▁도쿄라ᄋ 100
▁마ᄀ거ᄅ리 100
▁계사ᄂ해서 100
▁사라ᄆ드레게 100
▁ᅥ머니라으ᄂ 100
▁교지ᄀ 100
▁다ᅳ므로느ᄂ 100
▁토ᄋ시ᄂ비느ᄂ 100
▁저ᄋ치ᅵᄂ드ᄅ 100
▁귀찮ᅳ니까 100
▁저ᄋ채기라고 100
▁조하져써ᅭ 100
▁화ᄂ사ᄋ 100
▁ᅦ라ᅵ 100
▁자ᄀ고ᄀ 100
▁ᅥ려ᅯᄊ느ᄂ데 100
▁해보다가 100
▁차ᄆ서ᄀ 100
▁ᅵ버써ᅭ 100
서ᄅ수 100
▁주자ᄋ하느ᄂ 100
▁혀ᄋ제드ᄅ보다 100
▁태구게 100
▁ᅲ머 100
▁시대ᅴ 100
▁가느ᄋ하며ᄂ 100
떠드ᄆ 100
▁자기마늬 100
드ᄉ 100
▁ᅵᄇ대 100
▁저그니까 100
▁드러ᅩ세ᅭ 100
▁ᅵ타ᄅ리ᅡᅥ 100
▁사ᄋ대바ᄋ 100
휘ᄀ 100
▁해ᅡᄂ가 100
▁노프ᄂ데 100
▁거ᄂ추ᄀ사 100
▁메시ᄂ저나 100
▁하ᄂ구기느ᄅ 100
▁ᅵᄂ시그ᄅ 100
▁그러ᄒ다며느ᄂ 100
▁드시며느ᄂ 100
▁스ᄅ퍼 100
▁미티 100
▁ᅵᄂ시기 100
▁스ᄇ드ᄀ해 100
▁끄ᄐ나ᄊ거드뇨 100
가ᅳ르ᄂ 100
▁조하해써써ᅭ 100
▁겨ᄋ치가 100
▁그러기ᅦ느ᄂ 100
▁끊기고 100
▁바아느ᄂ 100
▁드러ᅪᄊ고 100
▁사지니나 100
▁고지브ᄅ 100
▁초기ᅦ느ᄂ 100
▁ᅧᄂ자ᄋ 100
▁다미므ᄂ 100
▁많ᅡ져서 100
▁머ᄋ처ᄋ 100
▁자ᄀ지마ᄂ 100
▁대토ᄋ려이ᄂ데 100
▁데라며ᄂ 100
▁ᅡᅵᅦ게 100
▁ᅡ라ᄊ거드뇨 100
▁사ᄋ태라 100
▁사ᅯ느ᄂ 100
▁ᅥ려ᅮᄆ 100
▁서라ᄀ사ᄂ 100
▁시ᄂ기하ᄂ데 100
츠이나 100
▁ᅭᄋ거나 100
▁계셔써ᅭ 100
▁혀ᄋ하ᄂ테 100
구ᅧᄀ 100
노이 100
▁미ᄅ려서 100
비ᅥ서 100
▁ᅡᅵ테 100
▁나ᅪᄊ고ᅭ 100
▁지거ᄇ구니ᄂ 100
▁ᅡ기자기하ᄂ 100
▁치ᄂ하지마ᄂ 100
▁하늬ᅯᄂ 100
▁채기미 100
모ᄋ사 100
▁ᅧᄅ저ᄋ 100
▁지ᄅ무네 100
▁포하ᄆ 100
▁괘ᄂ찮ᅡ써ᅭ 100
▁서ᄂ세 100
▁베ᅵ비 100
▁ᅡ냐이 100
▁다ᄅ려ᄀ 100
▁지ᄂ시므로 100
▁시구ᄂ 100
▁ᅦ레ᅵ 100
▁서브 100
▁보ᅵ며느ᄂ 100
▁나누거나 100
▁주ᄂ다드ᄂ지 100
▁지ᅱ 100
▁해ᄀ가조 100
▁휴대포네 100
또ᄀ따ᄀ 100
▁사ᅥ비 100
▁자루 100
▁ᅧ야ᄋ구 100
▁다해이다 100
▁트기해서 100
▁대토ᄋ 100
▁코미 100
▁바ᄋ하기니까 100
▁놔ᄊ다가 100
▁드러ᅩ며느ᄂ 100
▁많ᅡ지죠 100
▁소래포구가 100
▁하바ᄂ기 100
▁사ᄆ계 100
▁ᅵ내ᅦ 100
▁끼리마ᄂ 100
▁구니ᄂ마ᄂ 100
▁ᅩ시며느ᄂ 100
▁보ᄂ저미 100
▁무ᄅ푸 100
▁찌그며느ᄂ 100
▁토ᄋ하기 100
▁하ᄀ버 100
너브ᄅ 100
▁계사ᄂ 100
▁까시ᄂ 100
▁봐ᅣ게ᄊ다고 100
▁싸ᅯᄊ거드뇨 100
▁가까ᄇ 100
▁저ᄋ보그ᄂ 100
▁구거사ᅦ 100
▁누나드르ᄂ 100
▁ᅥᄂ더ᄀ 100
▁ᅵᄇ자이ᄂ데 100
▁되냐며ᄂ 100
▁바ᄅ저ᄂ해서 100
▁ᅬ구기ᄂ드르ᄂ 100
▁ᅭ쪼ᄀ 100
▁자ᄅ하자 100
▁계시거나 100
▁치ᄂ구드리라으ᄂ 100
▁저ᄋ채그ᄂ 100
▁가게끄ᄆ 100
▁치주ᄋ 100
▁주게ᄊ다 100
바ᅵ버 100
▁마타서 100
▁소파 100
▁드셔 100
▁부ᄂ바ᄂ 100
▁나가ᄊ죠 100
▁거리가미 100
▁계ᅣᄀ지 100
▁ᅵᄂ즈 100
▁바ᄂ마다 100
▁ᅵ쁘고 100
▁드러ᄊ스ᄇ니다 100
▁ᅮᄂ저느ᄂ 100
▁ᅯᄂ하며느ᄂ 100
▁하ᄀ녀ᄂ쯔ᄆ 100
▁비ᅭᄋ보다 100
▁새ᅮ 100
▁치ᄂ구부ᄂ드ᄅ 100
▁사시비 100
▁젊ᅳ시ᄂ 100
▁하ᄅ찌 100
▁ᅵ써ᄊ다가 100
ᄅ라ᄀ 100
가다ᄀ 100
▁배ᅮ시고 100
▁머거라 100
▁가바으ᄅ 100
▁괘ᄂ찮더라고ᅭ 100
▁ᅡ쎄 100
▁빼ᄊ겨 100
▁바다ᄊ느ᄂ지 100
▁주ᄋ도ᄋ 100
▁나ᅪ쓰며ᄂ 100
▁몫ᅵ 100
▁지나며느ᄂ 100
▁ᅯᄂ자기 100
▁바ᄋ사느 100
▁떠러뜨리 100
▁싸며느ᄂ 100
▁ᅧᄂ구하느ᄂ 100
▁코ᄂ서트ᅦ 100
▁노라써ᅭ 100
▁드리ᄇ 100
저ᄆ프 100
▁ᅡ파트ᅧᄊ느ᄂ데 100
▁ᅮᅪ 100
▁마ᄌ추며ᄂ 100
▁개녀미라고 100
▁내리며ᄂ 100
▁며ᄋ과니 100
▁느껴ᄊ느ᄂ데 100
▁ᅵᅮᄉ하고 100
▁ᅵᄇ수 100
▁가ᄌ춰지고 100
▁가ᅵ드 100
▁소ᅳ므ᄂ 100
▁주러서 100
▁조하하세ᅭ 100
▁머거ᄊ다 100
자ᄋ구ᄀ 100
▁까ᄅ끄ᄆ하고 100
▁마스로 100
▁ᅬ하ᄅ머니도 100
▁무거ᄇ 100
▁터ᄉ바ᄐ도 100
▁겨ᄅ호ᄂ하며ᄂ 100
▁채ᅯ서 100
▁무늬 100
▁뚜ᄚ고 100
▁ᅥᄂ니드르ᄂ 100
▁소ᄀ초 100
▁차자ᄊ느ᄂ데 100
▁바뀌거나 100
▁보ᅵ거나 100
▁시스테미 100
▁트ᄅ리ᄂ데 100
▁ᅵ거스ᄂ 100
▁조ᄒ구나 100
▁그러ᄒ다느ᄂ데 100
▁ᅲᄃ 100
▁다ᄇ사 100
▁ᅵᄂ사ᄋ파 100
꼬ᄀ대기까지 100
▁ᅥ리내드ᄅ 100
▁가ᄊ더니 100
▁드러ᅪᄊ느ᄂ데 100
▁겨ᄋ허므로 100
▁비니ᄅ 100
▁추ᄋ다ᄋ하 100
▁ᅡᄅ게ᄊ느ᄂ데 100
▁두루 100
▁주ᄋ고드ᄋ하ᄀ새ᄋ드ᄅ 100
▁하ᄀ버느ᄂ 100
▁서ᄂ새ᄋ니므로 100
▁사하ᄀ과 100
▁태ᅥ나시고 100
▁새이르ᄅ 100
▁노서ᄂ 100
▁ᅡᄂ쓰러ᅯ 100
▁다니세ᅭ 100
▁고ᄋ겨ᄀ 100
너ᄆ시ᄅ 100
▁트레ᄂ드가 100
▁싸ᄅ자ᄋ사가 100
▁모래 100
▁소그로마ᄂ 100
▁치ᄂ해지며ᄂ 100
▁ᅥᄡᅳ시고 100
▁하ᅱ 100
▁마ᄌ죠 100
▁시비뤄ᄅ 100
추ᄅ사ᄂ 100
▁바ᅱ 100
▁자ᄀ푸 100
▁테스트 100
▁트ᄅ리다 100
▁가트니까 100
▁겨ᄋ기자이ᄂ데 100
▁많ᅳ며 100
▁조하하게 100
▁세대거드뇨 100
▁차ᄋ고 100
▁가까ᅯᅭ 100
▁새이리ᅣ 100
▁과ᄋ주가 100
▁포ᄆ 100
▁ᅣᄀ사 100
▁대시ᄂ해서 100
▁나쁘다고 100
▁ᅥ려ᅯ지며ᄂ서 100
▁쓰ᄅ모ᅥᄡ느ᄂ 100
▁서ᅮ리니까 100
▁조ᅲ 100
▁휴ᅣᄋ지느ᄂ 100
▁펴이레 100
▁ᅵᄅ흐ᄂ 100
▁기다려서 100
▁ᅥ디ᅦ다 100
▁파주느ᄂ 100
▁마ᄅ하며느ᄂ 100
▁자리ᄂ데 100
▁펴ᄋ가해 100
▁지나가며ᄂ서 100
▁ᅤ라ᄋ 100
▁시자에서 100
▁저ᄂ시회르ᄅ 100
▁조ᄒ게ᄊ고ᅭ 100
▁고ᅣᄋ시로 100
▁배ᅯᄊ느ᄂ데 100
▁하냐ᄋ 100
▁무서ᅮ니까 100
▁ᅧ태 100
▁사ᄅ게ᄊ다 100
▁ᅵᄂ재 100
▁거치ᄅ고 100
▁부녀리라 100
▁껴서 100
▁벼ᄅ내 100
▁다르지마ᄂ 100
▁ᅪᄊ다며ᄂ 100
▁지ᄀ저네 100
▁자시ᄀ드ᄅ하ᄂ테 100
▁ᅧ해ᄋ하며ᄂ서 100
▁ᅡᄂ저ᄂ하게 100
▁뻐ᄅ 100
▁주마리 100
▁구세 100
▁혀ᄋ태소 100
▁키라ᄋ 100
▁하ᄅ머니하ᄂ테느ᄂ 100
▁소네서 100
▁사ᄋ태니까 100
▁그나르ᄂ 100
▁드려서 100
▁ᅩᄅ라가더라고ᅭ 100
▁걔드ᄅ 100
▁과수ᅯᄂ드리 100
▁사미라고 100
▁추ᄅ바르 100
▁조ᄒ거나 100
▁지내며ᄂ서 100
▁시ᄆ해ᅭ 100
스브ᄅ 100
▁고ᄋ부하다가 100
▁머시ᄊ다고 100
▁노ᄋ자ᄀ무 100
▁소스 100
▁하ᄅ까라고 100
▁ᅵ저버리 100
▁더ᅮ니까 100
▁소고기 100
▁깨끄ᄉ하고 100
▁가새이 100
▁가수나 100
▁나니도 100
▁기ᄅ며ᄂ 100
▁나ᅪ라 100
▁보ᅵ죠 100
더ᅮᄀ 100
▁ᅩ시거나 100
▁ᅬ고니까 100
▁자ᄇ혀ᅭ 100
▁구시 100
▁노ᄒ기 100
조차도 100
▁끄ᅥ 100
▁그리므ᄂ 100
▁대드ᄅ고 100
▁모ᄉ하니 100
▁ᅡᆭ더ᄂ 100
▁다여ᄂ하게 100
▁새ᄋ가ᄀ하ᄆ 100
▁모르잖ᅡᅭ 100
▁나ᅩ거나 100
▁저ᄆ시 100
▁ᅡ니ᅥᄊ고ᅭ 100
▁새ᄋ가ᄀ하잖ᅡᅭ 100
▁지ᄇ주ᄋ도 100
▁ᅥᄆ마드ᄅ끼리 100
▁마ᄅ투가 100
▁자라느ᄂ데 100
▁나빠서 100
▁저쪼게서 100
ᅣᄋ 100
▁표혀ᄂ하고 100
▁바티 100
▁보ᄂ저ᄀ 100
▁ᅤ드리 100
▁쏘다가 100
▁부러ᅯᅭ 100
ᅵ리ᅥᄊ나 100
▁고ᄋ가ᄆ대 100
▁까ᄅ리ᄂ 100
▁가겨ᄀ도 100
▁모ᄉ해ᄊ죠 100
하드 100
▁서ᄂ지ᄂ 100
바라미 100
▁자즈 100
▁ᅨ고ᅦ 100
▁시저ᄅ부터 100
▁사ᅭᄋ되ᄂ 100
▁수화ᄀ하고 100
▁고ᄋ부보다느ᄂ 100
▁거차ᄋ하ᄂ 100
▁내쓰니까 100
▁서ᄂ새ᄋ니ᄆ드리라ᄋ 100
▁ᅵ저버려 100
▁브ᄅ로 100
▁주ᅵ느ᄂ 100
▁새ᄋ기ᄂ다고 100
▁도더ᄀ저기ᄂ 100
▁좌저 100
▁ᅵ쓰니 100
▁시끄러ᄇ다 100
▁도네서 100
▁노도ᄋ 100
▁처시ᄂ 100
▁그래ᄊ지 100
▁부ᄂ시ᄀ저미 100
▁조ᄒ잖ᅡᅭ 100
▁가까ᅯ지느ᄂ 100
▁비교하며느ᄂ 100
▁싸잖ᅡᅭ 100
▁가라타고 100
▁나마ᄊ느ᄂ데 100
▁더ᅱ 100
▁보ᄂ다거나 100
▁ᅥᄅ마짜리 100
▁수해ᄋ 100
▁ᅵ사ᄋ혀이 100
▁디자ᅵᄂ 100
▁배ᅧ 100
▁가자니 100
▁ᅡ프니까 100
▁ᅭᄃ 100
▁피더라고ᅭ 100
▁모라서 100
▁ᅧᄂ구하고 100
▁조하ᄊ죠 100
▁흐터지 100
가지 100
▁따ᄅ드르 100
▁ᅡ래ᄉ지ᄇ 100
▁자ᄅ새ᄋ겨 100
주ᅵ레 100
▁추처미 100
▁가르치ᄂ 100
▁무르페 100
▁바ᄂ서ᄋ 100
▁하ᄀ구 100
▁쓰ᄂ다고 100
▁ᅨ보그 100
로ᅢ 100
▁화자ᄋ시르ᄂ 100
▁ᅨ미ᄂ해지느ᄂ 100
▁마ᄅ자고 100
▁ᅧ릐 100
▁데ᄅ피 100
▁느러나고 100
▁구두 100
▁되ᄂ다라느ᄂ 100
▁ᅢᅪ 100
▁ᅤ기하며느ᄂ 100
파ᄅ따ᄀ 100
▁기회로 100
▁내ᄂ다고 100
▁ᅡ버지께서느ᄂ 100
▁후ᄀ 100
▁드ᄋ로ᄀ그미 100
시키려고 100
▁ᅥ초ᄂ 100
▁히ᄆ드ᄅ지마ᄂ 100
▁봐ᄊ다고 100
▁즈ᄅ거ᄇ고 100
▁키ᄅ로ᅵᄂ 100
▁쓰거나 100
▁녀ᄂ씨ᄀ 100
▁느ᄀ 100
▁ᅤ기하잖ᅡᅭ 100
▁새ᄋ가그로느ᄂ 100
▁ᅥ머니드ᄅ 100
▁가조ᄀ드ᄅ도 100
▁커프리 100
▁자ᄅ하ᄂ다 100
▁하지마느ᄂ 100
▁과ᄋ하ᄇ서 100
▁드리죠 100
▁구ᄀ무ᄂ하ᄀ과ᅦ 100
▁그ᄇ시기 100
▁싸기ᄂ 100
▁드러나느ᄂ 100
▁거러ᅣ 100
▁푸ᄅ타ᅵᄆ 100
▁주셔ᄊ고 100
▁사나ᄀ회 100
▁해ᄊ냐고 100
▁부ᄐ고 100
▁쪼기라ᄋ 100
▁되ᄅ까ᅭ 100
▁부디ᄌ히고 100
▁화시레 100
▁쓰더라고ᅭ 100
지르 100
▁ᅩ시죠 100
▁지바니르ᄅ 100
▁초ᄀ매도 100
▁재미써ᄊ느ᄂ데 100
▁시ᄅ려ᄀ도 100
▁내부 100
▁ᅡ파트라서 100
▁마ᄌ지마ᄂ 100
▁모ᄀ저 100
▁시ᄂ도시라고 100
▁느끼지마ᄂ 100
▁나ᄆ자드ᄅ마ᄂ 100
▁떠ᅩᄅ리 100
▁며ᄋ소 100
ᄅ빠ᄋ 100
▁고ᄋ부하다 100
▁사ᅯ니 100
▁토지 100
다다ᄀ 100
▁ᅵ지ᄅ 100
▁개ᅯ 100
▁바ᄂ가ᅯ 100
▁ᅡᆭᅡᄊ나ᅭ 100
저ᄀ부ᄂ 100
▁세트 100
▁서로하ᄂ테 100
▁쪼기거드뇨 100
▁고ᅥ무 100
▁주ᄋ소기ᅥ 100
▁ᅲ재서ᄀ 100
▁크거드뇨 100
▁스ᄋ마가 100
스러 100
▁쓰느ᄂ데ᅭ 100
▁마ᄅ해ᄊ지 100
▁기과네서 100
▁ᅵᄂ무ᄂ 100
▁그려ᄊ느ᄂ데 100
▁그러더ᄂ데 100
▁고ᄅ모게 100
▁괘ᄂ찮ᅳᄂ데 100
▁가드ᄀ 100
▁서ᄃ 100
▁다ᄂ지ᅦ서 100
싸ᄅ라 100
▁ᅮᄂ도ᄋ자이 100
▁마ᄅ하기가 100
▁수프 100
▁추ᄆ 100
▁부대끼 100
▁사ᄅ리ᄂ 100
▁걔드리 100
▁드ᄂ다고 100
▁시고ᄅ하고 100
니미라ᄋ 100
▁사라ᄋ하ᄂ다 100
▁구서워니 100
▁비해 100
▁바ᄅ레리나느ᄂ 100
다ᄅ라ᄊ고 100
▁ᅤ기하기로 100
▁하ᄂ다느ᄂ데 100
▁바느로 100
▁지ᄀ서 100
▁드러가죠 100
▁채프ᄅ 100
라ᅭ 100
▁ᅵ리드ᄂ 100
▁되더ᄂ데 100
▁ᅵᄊ느 100
▁ᅵ사ᄋ해서 100
▁파라써 100
▁도시ᄆ지 100
패이 100
▁ᅩᄅ려서 100
▁세ᄂ 100
▁저ᄂ화하 100
고ᄋ개 100
▁ᅥ떠ᄒ고 100
나ᄊ거드뇨 100
▁무ᅥᄉ보다도 100
▁ᅤ기하기느ᄂ 100
▁ᅡᄂ돼써ᅭ 100
▁ᅳ로서 100
▁저ᄋ도ᅧ서 100
▁하드ᄂ가 100
▁ᅥ르 100
▁저ᄋ도ᅧᄊ느ᄂ데 100
▁서ᄂ거ᅦ 100
▁하시나 100
▁ᅡᄆ호 100
조리ᄆ 100
▁기ᅥ기지마ᄂ 100
▁겨ᄋ제ᅦ 100
두ᄋ그ᄅ 100
▁가마ᄀ사 100
▁포기하고 100
자매 100
▁괘ᄂ찮네 100
▁쳐도 100
▁ᅨ보ᄀ 100
▁ᅪᄊ고ᅭ 100
▁케ᅥ하 100
▁ᅢ며느ᄂ 100
▁사ᅲ 100
▁새ᄋ화ᄅ비가 100
▁조ᄋ교가 100
나메서 100
고ᄀ 100
ᄇ니까 100
바ᄐ도 100
▁토ᄋ시ᄂ 100
▁테ᄂ데라고 100
▁ᅵ리라서 100
▁부ᄂ수 100
▁ᅮᄆ지기고 100
▁나ᄆ자ᅧ 100
▁사ᄂ타 100
▁ᅡ쉬ᄇ게 100
▁비ᅲ리 100
▁화ᄅ바ᄅ하고 100
▁나ᄆ죠 100
▁파라ᄂ새 100
▁투지포 100
▁사라ᄊ다고 100
▁차마 100
마ᄌ추ᄆ 100
▁뉴타ᅮᄂ 100
▁카토ᄀ도 100
구파 100
▁주ᄋ가니 100
▁파니까 100
▁부ᄂ서ᄀ하 100
▁가계부느ᄂ 100
▁벼기 100
커ᄅ 100
▁하ᄂ펴ᄂ 100
▁마래 100
▁ᅡ버 100
▁도마ᄋ치 100
▁조ᄋ교르ᄅ 100
주리ᅣ 100
▁사회나 100
▁찌고 100
▁그ᄆ소 100
▁ᅬ추ᄅ 100
래ᄋ 100
▁자ᄋ비가 100
▁ᅭᄋ도니 100
▁ᅥ구ᄅ 100
▁ᅵᄅ무 100
▁차ᄋ피하ᄂ 100
ᅯ니라도 100
▁머니까 100
▁ᅵᅵ기 100
▁저ᄋ리하느ᄂ 100
▁비니 100
▁다해이ᄂ 100
▁배ᅦ서 100
▁그ᄂ처마ᄂ 100
▁무러보고 100
▁하라버지하고 100
▁미ᄅ지ᄇ 100
▁ᅱ혀비 100
▁미ᄅ려나 100
▁바까 100
차고ᄀ 100
▁자냐 100
▁ᅮ리나라ᅦ 100
▁보ᄀ궈니 100
▁기ᅵ브 100
ᅥᅭ 100
저ᄋ규지 100
페ᄅ 100
▁서ᄋ햐으ᄂ 100
▁버ᄂ다느ᄂ 100
▁ᅡᄇ구저ᄋ도이 100
▁노라서 100
▁차ᄆ다가 100
▁저ᄂ재 100
▁지나가고 100
▁고마 100
▁무ᅧᄀ회사 100
▁사리ᄇ하ᄀ교 100
▁느끼거드뇨 100
▁구매하ᄂ 100
▁모ᅵ메서 100
▁자ᄅ하ᄂ다고 100
▁자ᄂ치라 100
▁가로수기 100
▁그래ᅣ지 100
▁보ᅧᄊ느ᄂ데 100
▁화ᄂ자 100
▁마시니까 100
▁그때보다 100
▁시ᄅ지ᄅ저그로느ᄂ 100
▁크ᄅ러브 100
▁ᅡᄂ되거나 100
▁해ᄊ더라 100
▁과ᄂ해서 100
▁시ᄑ지마ᄂ 100
하도로ᄀ 100
▁부부니거드뇨 100
▁저ᄋ도씨ᄀ 100
▁캐니ᅥᄂ 100
▁ᅡᅵ드리라ᄋ 100
▁대다수 100
가라고 100
▁거ᅦ서부터 100
▁거저ᄅ 100
▁ᅧᄋ화드ᄅ 100
▁주ᄋ도ᄀ서이 100
▁드러ᅩ니까 100
▁서ᅣᄋ화ᅦ서 100
뽀로 100
▁트ᄆ나 100
▁고ᄋ하기ᅥ 100
ᅭ어 100
▁추지 100
▁자라ᄊ고 100
▁느껴져ᄊ 100
▁ᅴ미로느ᄂ 100
바ᄅ자 100
▁제무ᄅ포고 100
▁쪼차ᅪ 100
▁포ᄀ려ᄀ저기 100
▁떠ᄀ 100
▁놔도 100
▁조하하느ᄂ데ᅭ 100
스티기 100
포ᄅ 100
▁하ᄀ교라서 100
▁지ᄂ과ᄂ도이 100
▁무사으 100
다으ᄂ 100
호바ᄀ 100
▁자ᄅ하시고 100
▁마피ᅡ르ᄅ 100
▁보세ᅭ 100
▁그거보다 100
▁가조ᄀ드ᄅ하ᄂ테 100
▁ᅥ디ᅣ 100
▁부모니ᄆ께서느ᄂ 100
▁차ᅵ나타ᅮ네 100
▁부다ᄆ스러 100
▁노파 100
▁버ᄆ죄ᅦ 100
▁터ᄉ바ᄐ까지 100
▁치ᄂ하ᄂ데 100
로ᅮ 100
▁주기고 100
▁베ᄅ 100
▁피자르ᄅ 100
▁다혀ᄅ지ᄅ저기 100
▁사ᄆ서 100
▁나ᄆ고ᅭ 100
ᅮᄂ지 100
▁가ᄋ나메서 100
▁뛰ᅥ다니 100
▁기저 100
▁소ᅳᄆ도 100
▁ᅩ프ᄂ 100
▁ᅨ바ᄋ 100
▁고드ᄋ하ᄀ새ᄋ까지 100
▁고ᅣᄋ시느ᄂ 100
▁ᅡᄂ겨ᄋ 100
▁내거나 100
▁ᅮᄉ기고 100
▁펴늬저므 100
▁ᅧ해ᄋ지로 100
▁도니ᄂ데 100
▁퇴교 100
▁무ᄂ허ᄂ 100
▁지바혀네 100
▁거주하셔 100
▁배ᅮ나 100
▁커피비 100
부하ᄅ 100
▁계소ᄀ하며ᄂ 100
화하ᄀ과 100
▁가ᄋ하고 100
▁뉴타ᅮ니 100
지ᅧ그로 100
▁모ᄉ하지 100
▁ᅵᄅ주 100
▁계ᅣᄀ지기 100
▁ᅲ하ᄀ도 100
▁가ᄋ사드 100
ᄋ부 100
▁모리ᄇ하 100
▁가무 100
▁그ᄇ소 100
▁저ᄀ그ᄆ 100
▁기주네서 100
▁커ᄂ트로ᄅ 100
▁나라다 100
▁제가ᄋ사 100
▁ᅵᄇ자에서도 100
▁그러다보니까ᄂ 100
▁나ᅳᄅ 100
▁후기 100
▁과저이 100
▁마ᄀ혀 100
▁거러가느ᄂ 100
해ᅣ게ᄊ구나 100
▁크기마ᄂ 100
▁ᅬ시 100
▁저ᄋ도ᄂ지 100
▁ᅤ기하느ᄂ데 100
▁저ᄂ화로 100
스ᄅ프게 100
▁ᅡᄅ프 100
▁ᅧᄅ매느ᄂ 100
▁ᅡ시니까 100
ᄆ까지 100
▁고ᄋ가네서 100
▁나무도 100
▁내새ᄀ 100
▁ᅡ파트고ᅭ 100
▁추ᄋ겨ᄀ저기 100
▁노리가 100
이며ᄂ 100
▁다너 100
▁나라마ᄂ 100
▁노리고 100
▁모ᄀ사니 100
▁나마서 100
▁ᅡ래ᄉ지베 100
▁나ᅵ니까 100
▁시자ᄀ돼ᄊ 100
▁자ᅧ니 100
▁돼ᄊ느ᄂ데ᅭ 100
▁서ᄂ새ᄋ니미ᄂ데 100
▁초기 100
▁새ᄋ기ᄂ다 100
ᄋ하ᄅ 100
▁ᅴ겨네 100
▁마ᄋ하ᄂ다 100
▁시키ᄅ 100
▁ᅱ혀ᄇ 100
▁내ᄊ느ᄂ데 100
▁호주 100
▁주바ᄋ자 100
▁바ᄋ버ᄇ로 100
▁저교ᄋ 100
즈메 100
시ᄇ사마ᄂ 100
▁게ᅵ트 100
▁다니다 100
▁넓ᅵ 100
새의 100
하ᄊ더ᄂ 100
▁회사ᅯᄂ 100
매느ᄂ 100
▁싸ᅭ 100
▁코너 100
▁ᅡᄂ쪼게 100
▁ᅵ러ᄂ대ᅭ 100
▁꼬ᄎ누 100
▁하ᄇ겨 100
▁시ᄂ초네 100
▁비ᄀ 100
▁다ᄂ저ᄅ되 100
▁가수도 100
▁부도ᄋ사 100
▁서ᄂ새ᄋ니미니까 100
▁저희하ᄂ테느ᄂ 100
▁보ᄀ구 100
▁노그ᄆ하느ᄂ 100
▁치ᄂ구드리죠 100
▁거지ᄉ마리라 100
▁시자기 100
▁그러ᄒ다기보다 100
▁ᅪᄋ따도 100
▁데라ᄋ 100
▁ᅭ리느ᄂ 100
▁다ᄋ부 100
▁마ᄅ쓰ᄆ하셔ᄊ 100
▁기바ᄂ 100
▁파ᅡ 100
하ᄀ과ᅦ서 100
▁교토ᄋ비느ᄂ 100
▁차ᅦ 100
▁과하ᄀ도 100
▁자ᄅ하니까 100
▁빠ᄅ라지 100
▁스토리도 100
▁부드러ᄇ 100
지ᄅ거리 100
ᄇ시ᄀ 100
▁모버ᄆ새 100
▁둬 100
▁주벼네서느ᄂ 100
▁카레 100
▁추ᄅ자ᄋ지 100
▁과ᄂ계도 100
▁새누리 100
▁두며느ᄂ 100
▁세잖ᅡᅭ 100
▁지ᄂ보가 100
▁ᅭᄀ시ᄆ내 100
▁다ᄋ하고 100
▁버ᄂ화가 100
▁미끄러ᄇ 100
▁퇴 100
▁시ᄆ저그로 100
▁보ᄀ지가 100
▁소ᄋ타니 100
▁호ᄋ대느ᄂ 100
▁타ᅵ트 100
▁처ᄅ도 100
▁ᅵᄅ저ᄋ하 100
▁머ᄀ히 100
▁겨ᄋ제르ᄅ 100
지비라고 100
▁겨ᄋ치 100
뜨스ᄂ 100
▁ᅧ자드ᄅ끼리 100
▁체ᅲᄀ과ᄂ 100
▁빠ᄅ가ᄂ새 100
▁고ᅵᄅ 100
▁초보 100
기다 100
서니나 100
▁꾸리 100
토니 100
▁서피ᄋ 100
▁바께서느ᄂ 100
▁ᅡᄂ서ᄋ 100
▁사라ᄆ드리잖ᅡᅭ 100
리ᄂ다 100
▁하궈니라 100
▁바다마ᄂ 100
▁저ᄋ치사회ᅦ 100
▁부ᄅ러ᄊ다 100
▁ᅥᄂ더기 100
▁ᅨᅣᄀ 100
▁나라ᅦ서느ᄂ 100
▁다ᄇ다ᄇ하다 100
▁ᅤ기지마ᄂ 100
▁가지며ᄂ 100
▁데서나 100
▁츠에느ᄂ 100
▁하ᄀ버ᄂ하고 100
▁저버드 100
▁ᅵ로니 100
▁나ᅡ져ᄊ다 100
▁ᅧᄋ화ᄂ데 100
▁가ᄋ다에 100
▁과ᄂ계느ᄂ 100
▁하시잖ᅡᅭ 100
▁뛰ᅥ도 100
▁서ᄂ거도 100
▁사주 100
▁비교해 100
조ᄋ기 100
꺼ᄆ 100
▁나ᅩ셔 100
도이ᄅ 100
▁배나여해으 100
때부터 100
세ᅯ리 100
▁그러ᄒ지ᅭ 100
저ᄇ해 100
▁며네서도 100
▁고ᄋ부하ᄂ다 100
▁수ᅥᄇ하고 100
▁수ᅧ이 100
삐지ᄅ 100
▁나자져 100
▁보더라고ᅭ 100
▁보ᅵᄂ 100
▁배저으 100
▁ᅵ러ᄒ고 100
▁후로느ᄂ 100
▁노ᄅ라ᄂ 100
▁쿠포 100
▁수ᅧᄋ자ᄋ 100
▁쿠ᄋ쿠ᄋ짜 100
▁ᅧ지궈 100
▁사대가 100
▁주무ᄂ 100
▁보시ᄂ 100
▁부부니나 100
▁ᅡ주머니드ᄅ 100
▁내배ᄐ 100
▁과ᄋ주ᅦ 100
▁화료ᄋ도 100
▁사ᄅ잖ᅡᅭ 100
▁주니까ᄂ 100
▁세ᅵᄅ 100
ᅦᄀ스 100
▁커ᄆ퓨터가 100
▁ᅧᄋ햐ᄋ려 100
▁저ᄋ도며느ᄂ 100
▁내비 100
▁사ᅭᄋ되 100
▁무ᄂ제지 100
▁저ᄋ시기라 100
▁미ᄂ주다 100
▁차ᄀ하 100
드ᄋ하ᄀ새이ᅥ쓰니까 100
▁찌저져 100
▁사라미잖ᅡᅭ 100
▁토프 100
▁초ᄂ스러ᅮᄂ 100
▁사ᄅ리 100
▁고시라 100
▁드러가게 100
▁겨ᄋ기궈느 100
▁그러ᄒ게ᄊ죠 100
▁고추 100
ᅣᄀ해서 100
▁ᅧ어ᄇ 100
▁히ᄆ드ᄅ더라 100
▁도ᄂ하고 100
▁내녀니 100
▁저ᄋ도ᅵᄅ 100
▁ᅵᄂ하ᄋ고 100
파트 100
▁느ᄋ려그 100
▁ᅪᄊ잖ᅡᅭ 100
▁나뉘ᅥ지 100
▁ᅮᄉ 100
▁끊ᅳ 100
▁ᅵ써ᄊ거드 100
▁ᅯᄂ루미 100
▁가저 100
ᄅ마니 100
저께ᄂ가 100
느ᄂ지 100
해ᅡᄂ 100
▁ᅡ끼려 100
▁대써ᅭ 100
▁서ᄅ비 100
▁도야ᄋ화느ᄂ 100
▁지거브로 100
▁며ᄋ푸므 100
▁하ᄂ가 100
▁교ᅲ게서 100
▁새ᄋ가기거드뇨 100
바네다가 100
▁ᅧ해ᄋ마ᄂ 100
▁거ᄐ 100
▁추ᄋ도 100
ᅪ쓰며ᄂ 100
벼ᄅ히 100
▁도ᄂ마ᄂ 100
▁ᅳᄂ해이 100
▁사교ᅲᄀ비 100
▁새벼ᄀ 100
▁하리ᄂ저ᄆ드 100
▁ᅥ버 100
▁지시ᄀ 100
▁취소 100
▁초로ᄀ 100
마ᄂ지ᄅ 100
▁묘미 100
▁화료ᄋ하 100
다느ᄂ데 100
ᄋ시니 100
▁노ᄀ지 100
▁사다여 100
▁ᅧ기서느ᄂ 100
▁ᅵᄊ느ᄂ지르ᄅ 100
쿼ᄅ 100
냐며ᄂ서 100
▁도ᅪ줘 100
▁무ᄋ치 100
▁시ᄆ저 100
▁고ᄋ겨ᄋ 100
▁바니ᄂ가 100
▁다니니까ᄂ 100
▁대서느 100
▁포지ᄂ 100
▁시ᄀ다으 100
▁주ᄋ가ᄂ주ᄋ가네 100
▁쳐주 100
▁거드ᄅ고 100
▁가ᄆ사ᄋ 100
초ᄅ하 100
▁치거나 100
▁교ᅲ게 100
과ᄂ계나 100
▁테니스자ᄋ 100
▁ᅩ리고 100
ᅣ으ᄅ 100
▁추게 100
▁저ᄂ고ᄋ과 100
▁가ᄇ니다 100
카시 100
스트리 100
▁고시고 100
▁시ᄂ서ᄂ하 100
▁ᅯ니ᄂ 100
▁그거라ᄋ 100
▁ᅳᄇ 100
조ᄋ도 100
ᄂ다기 100
▁마지마기 100
주이 100
▁며ᄋ무니ᅥᄊ 100
▁포기해ᄊ 100
▁ᅡ래ᄉ지바 100
▁새ᄋ가ᄀ하며 100
▁미ᄂ주다이 100
▁히ᄆ드ᄅ기 100
▁ᅡ프로느ᄂ 100
▁서ᅨ 100
▁보수느ᄂ 100
▁가ᄐ다라 100
▁거ᄆ새ᄀ해 100
자지 100
리서ᄀ 100
드ᄅ잖ᅡᅭ 100
▁하ᄀ녀ᄂ부터ᄂ 100
▁뭐하느ᄂ지 100
▁개혀ᄀ 100
▁ᅡ까도 100
▁서ᅮ려 100
회ᅦ 100
▁ᅡᄂ타 100
▁짜ᄅ려 100
▁ᅡᄂ저ᄋ되 100
▁취햐이 100
▁사며ᄂ서 100
▁하게써ᅭ 100
▁ᅧ자라고 100
▁ᅥᄡ다가 100
▁ᅭ새ᄂ 100
▁머ᄀ느ᄂ다 100
▁도ᄋ네ᅭ 100
▁재버 100
▁타ᄀ구 100
▁토프리라 100
하ᄀ새ᄋ드ᄅ 100
▁ᅮᅧᄂ 100
▁부ᄅ싸ᄋ하다 100
▁수ᅧ으 100
▁스트레스느ᄂ 100
▁사라미니까 100
▁회사ᅦ서느ᄂ 100
▁소도시 100
▁추ᄋ부ᄂ 100
ᄋ사ᄋ 100
▁ᅡ쉬ᅮᄆ 100
▁그ᄅ 100
▁내려노ᄒ 100
▁커ᄊ느ᄂ데 100
▁초드ᄋ하ᄀ새ᄋ드리 100
▁그거거드뇨 100
▁보ᅡᄂ 100
▁비ᄎ 100
하그ᄇ 100
▁무ᄂ화르ᄅ 100
▁ᅩ다 100
ᄅ히 100
▁재개바 100
▁해써ᄊ잖ᅡᅭ 100
▁끊기 100
저ᄆ드리 100
▁부다므 100
▁부러ᄇ기 100
▁트티 100
봐ᄊ자 100
▁바다ᄊ다 100
나셔서 100
▁채ᄀ도 100
꼬리 100
보ᄀ도 100
▁프라ᄋ스ᅦ서 100
▁부자ᄋ 100
▁자ᅧᄂ사 100
▁ᅵᄊ느ᄂ지도 100
▁뽀바ᅣ 100
▁ᅩ해 100
▁회저 100
▁하자느ᄂ 100
ᄋ차 100
▁바ᄀ자가 100
▁드러나지 100
류가 100
까지가 100
▁ᅵᄀ수ᄀ하 100
▁보ᅵ셔ᄊ 100
▁보ᄀ자ᄇ해 100
▁ᅵᄅ시 100
▁무ᅥᄉ 100
▁자조ᄂ시므 100
펴ᄂ해서 100
▁계사ᄂ해 100
▁자ᄆ바 100
▁가ᅳ리 100
▁도아리느ᄂ 100
▁때보다느ᄂ 100
▁ᅡ파트나 100
▁차ᄋ무느 100
ᄇ사 100
ᄂ하ᄂ 100
▁가ᄡ 100
▁자보ᄂ 100
▁푸ᄆ조ᄋ 100
▁보니느ᄂ 100
▁ᅢ나 100
▁도ᄋ차이 100
▁저미ᄂ 100
▁드러가서도 100
▁지하처려기 100
▁다니고ᅭ 100
▁느즈 100
▁ᅲ치ᅯᄂ새이 100
▁머리로 100
▁자거비라 100
▁고드ᄋ하ᄀ교라고 100
▁까다로ᅮ셔 100
▁지ᄅ서 100
저미ᄂ데 100
▁시고레서 100
▁가저ᄋ부 100
▁사ᄋ대로 100
▁부류드 100
▁혀ᄂ사ᄋ 100
▁가아지느ᄂ 100
▁부부ᄂ보다 100
▁나거드뇨 100
하나 100
▁마ᄂ드러ᄊ다 100
▁제자리 100
가ᄊ느ᄂ데 100
▁ᅣᄋ시ᄀ 100
▁후지ᄂ 100
▁파ᄂ다느 100
▁ᅡ프로ᄂ 100
▁그ᄇ시ᄀ비 100
하ᅳ 100
ᅮ수 100
▁바ᄋ지 100
레서부터 100
▁주그ᄅ지 100
▁머무ᄅ러 100
하ᄀ과가 100
▁ᅣᄋ보해 100
▁주셔쓰 100
▁수ᄂ대구 100
▁하느ᄂ구나 100
▁봐서느ᄂ 100
▁토로네 100
▁제가ᄀ가기 100
▁거ᅧ서 100
▁ᅮ리나라도 100
▁ᅵ화 100
▁돼나 100
▁부부니고 100
▁차ᄆ다 100
▁지지해 100
▁보끄 100
서ᅣ 100
▁되려고 100
▁ᅵ주 100
▁나니까ᄂ 100
저쩌 100
▁하ᄀ교니까 100
▁흐기ᄂ 100
▁서ᄋ햐이ᄂ 100
▁수ᅧᄋ자이 100
ᆰ혀 100
▁그벼 100
▁ᅧᄂ구로 100
▁수자 100
▁뭐ᄉ 100
미ᄆ 100
▁자사 100
▁ᅬ과게 100
▁추ᄀ구자ᄋ 100
▁과ᄂ리하 100
▁부트려 100
▁나가서느ᄂ 100
▁시ᄆ해ᅣ 100
ᅩᄂ다느ᄂ 100
▁녀느ᄂ 100
▁시ᅴ 100
▁저ᄀ저ᄅ 100
▁저ᄋ치느ᄂ 100
▁쪼끄마ᄒ 100
이드ᄂ 100
▁처ᅮ 100
▁ᅨ비 100
▁ᅵᄅ드 100
▁처버리 100
ᄊ나봐ᅭ 100
▁비ᄅ라ᅦ서 100
▁주아ᄋ나 100
고ᄋ포즈 100
▁노르 100
그ᄅ자 100
▁하ᄇ치 100
▁하자며느ᄂ 100
▁ᅵᄅ보너과 100
▁캐녀 100
가ᄂ다ᄋ 100
▁차ᄋ자ᄀ 100
▁ᅤ기드 100
▁서비 100
▁그ᄇ 100
▁때서부터 100
▁그거ᄉ까지 100
러지 100
피리 100
▁소서 100
▁노파져ᄊ 100
▁거ᄆ지 100
누나하고 100
▁드러내지 100
▁ᅵᄅ드ᄋ서그 100
▁너ᄆ겨 100
▁ᅥ머니르ᄅ 100
ᅬᅦ도 100
▁사무지기 100
▁소ᅯᄂ해 100
▁너ᄆ기 100
▁과ᄂ제 100
▁거게ᄊ죠 100
또가ᄀ 100
▁구로구ᅦ 100
▁무ᄂ화느ᄂ 100
▁부모느ᄂ 100
▁하리ᄂ되 100
▁내ᄋ며 100
▁과ᄂ려ᄂ되 100
▁개ᅵᄂ저그로ᄂ 100
▁허마ᄀ해 100
▁소주 100
▁꼬ᄅ 100
▁서호 100
▁겨ᄋ계 100
▁비스 100
버ᄇ저 100
▁뵈 100
▁시고리 100
▁해쓰ᄅ까 100
▁사무소ᅦ 100
▁햐ᄋ기 100
▁매ᄀ도 100
까ᅯᅭ 100
그ᄇ하고 100
▁바ᄂ하ᄋ시 100
▁주차자이 100
▁가셔써ᅭ 100
써ᄊ다느ᄂ 100
해ᄋ버 100
▁프라ᄋ 100
호가 100
▁가아지하ᄂ테 100
▁비ᄅ디이 100
ᄇ지리 100
▁고쳐서 100
계소ᄀ 100
▁드이 100
▁가티하느ᄂ 100
▁파ᄂ사 100
▁벼ᄂ수 100
▁ᅩ래돼ᄊ 100
▁벼ᄀ도ᄅ 100
▁ᅵ루ᅥ 100
▁ᅵ끄 100
▁서니ᄆ드 100
해라 100
▁저희ᅴ 100
ᄋ보ᄀ하 100
▁저ᄋ도ᄂ데 100
▁ᅵ르키 100
▁새ᄋ가기나 100
▁ᅵᅭᄋ 100
▁하ᄇ버ᄇ 100
▁ᅥ너하 100
▁주이기 100
트나 100
내더라고ᅭ 100
▁ᅮ도 100
▁ᅡ니ᄂ데도 100
▁ᅵᄇ하ᄀ시기 100
▁표시 100
▁더ᄀ부 100
▁ᅦᅳ 100
▁ᅵᄚᅥᄊ 100
▁개ᄂ 100
▁재파 100
▁ᅡ니ᅦ 100
▁내주시 100
▁구거구ᄀ무ᄂ 100
ᄉ지ᄇ 100
▁모ᄉ하게ᄊ 100
호리 100
▁ᅵᄂ지 100
▁저ᄂ나리 100
▁가무ᄅ 100
▁보ᄆ바ᄋ하 100
▁ᅡ시ᅡ궈 100
▁사죠 100
▁가ᄋ나 100
▁푸ᄉ 100
▁버녀ᄀ 100
▁거ᄂ무ᄅ드ᄅ 100
▁혜 100
▁나라ᅪ 100
▁하ᄂ가이 100
써ᄊ스ᄇ 100
▁짧ᅡ지 100
▁최ᅡ 100
써쓰니까 100
코ᄆ 100
▁꾸미셔ᄊ다 100
▁노ᅵᄂ부ᄂ드 100
▁시ᄆ하고 100
▁처리하ᄂ다 100
▁하ᄂ구거과 100
▁지하도 100
▁ᅥ드ᄂ 100
▁새ᄋ가ᄀ해써 100
▁ᅡ쉬ᄇ다 100
▁제ᅡ 100
▁ᅪᄀ 100
저ᄂ보다 100
▁ᅬ로ᅮ 100
▁기느으 100
▁배기ᄂ 100
▁지ᄇ차ᄀ하 100
▁새ᄋ가ᄀ하니까 100
▁바ᄃ죠 100
히ᄂ 100
▁서ᄅ치하며ᄂ 100
▁세려 100
▁도ᄋ가비 100
▁드ᄋ라 100
▁ᅡᄅ바새이 100
▁따라자ᄇ 100
▁무ᄀ 100
부ᄂ드르ᄅ 100
▁도ᄀ 100
▁희마이 100
ᄂ다ᄂ 100
▁때ᄂ데 100
▁부ᄂ서기 100
▁과ᅦ서 100
주ᄋ부 100
▁쿠이 100
▁ᅦ프 100
▁되ᅥᄊ더ᄂ 100
▁비주이 100
무네 100
모니 100
▁레스토라ᄋ 100
가드ᄅ 100
▁지켜지 100
▁바ᄋ햐ᄋ 100
▁파ᄂ매르ᄅ 100
▁기ᅧ 100
▁패ᄋ 100
레도 100
자ᄋ하고 100
▁ᅤ기로 100
지비ᄂ데 100
▁하다가느ᄂ 100
▁즈ᄋ 100
자가서 100
▁사며ᄂ 100
▁바ᄅ다ᄅ해ᄊ 100
▁서ᄋ부니 100
▁시고리ᅥ 100
ᅡᄂ고 100
또바ᄀ 100
하ᄀ새이고 100
▁기러지 100
▁대치도 100
하자며ᄂ 100
▁그러고서 100
▁다ᄂ도 100
▁표저ᄋ 100
수료 100
▁초나 100
▁처ᄂ부 100
▁대ᄉ그리 100
▁ᅵᄇ시하 100
▁서ᄂ호하지 100
▁재미ᅵ써 100
저워 100
▁도태 100
▁놔ᄊ느ᄂ데 100
▁교수니미셔 100
▁게ᅳ 100
▁사ᄆ초ᄂ드ᄅ 100
가ᄐ잖ᅡᅭ 100
ᄉ느ᄂ 100
▁조ᄀ 100
▁머ᄉ지 100
▁가ᄋ해ᄊ 100
▁가게ᅦ서 100
▁가게ᅦ 100
▁사ᄋ다ᄋ 100
▁사다네 100
▁지ᄌ 100
저기ᅦᅭ 100
▁시ᄂ기ᄅ 100
▁조ᄅ리 100
▁겨ᅮ리ᅥ 100
게ᄊ냐 100
▁ᅵ차 100
▁뉴ᅭ기 100
▁터치하며ᄂ 100
▁ᅧ자ᅡᅵ 100
▁가지셔 100
▁주러드러 100
소ᄋ 100
▁넓ᅥ지 100
▁ᅣᄋ서ᄋ 100
▁ᅧᄂ스ᄇ하며ᄂ 100
▁비ᅥ 100
▁제하 100
▁ᅧ서ᄋ드 100
▁하ᄇ겨ᄀ되 100
▁내려ᅩ시 100
▁레 100
구려 100
▁차자내 100
▁내ᅦ 100
차ᄅ 100
▁ᅯᄅ벼 100
▁저ᄋ녀ᄂ 100
▁바ᄅ려 100
▁허마ᄀ하 100
▁하게ᄊ지 100
▁내ᄋ래ᄋ하 100
▁자ᄋ며니ᅥ 100
▁거ᄂ데ᅭ 100
쓰시ᄂ 100
▁저ᄂ다ᄅ해 100
▁대나 100
▁고치려 100
▁모ᅣ으 100
▁ᅥᄡᅥ져ᄊ지마 100
▁저ᄀ그ᄀ 100
▁도라ᅩᄂ 100
▁자ᄋ나ᄂ스러ᄇ 100
ᄚᅥ써ᅭ 100
▁배ᅮ라 100
하ᄂ미ᄂ 100
▁재미ᄊ기 100
▁주무 100
니ᄆ드리나 100
▁겨ᄋ햐ᄋ 100
▁거ᄅ로느ᄂ 100
▁게시 100
▁ᅥᄡᅥ쓰 100
레ᄂ 100
▁줘ᄊ 100
츠게서 100
▁ᅧ서 100
▁뒤ᄉ사 100
▁라며느 100
ᅥ떠ᄂ 100
▁무ᄅ려 100
돼써ᄊ거드뇨 100
니가 100
▁소ᅬ되 100
러브 100
부ᄂ께 100
▁수ᅥ비ᅥ 100
▁사ᅥᄇ과 100
ᅪᄂ도 100
ᅯᄅ 100
▁개바ᄋ저 100
서네서 100
드리기 100
▁저그ᄋ하기 100
때까지 100
ᅵ리 100
▁뒤ᄉ다 100
▁다ᄅ부터 100
▁고기가 100
트가 100
▁궈ᄂ 100
▁티브ᅵ로 100
▁ᅡ라보다 100
▁수ᄅ지브 100
사라ᄆ 100
▁며ᄋ하고 100
ᅭ이 100
▁개ᅵᄂ주ᅴ저기 100
▁노래바에 100
▁ᅴᅯᄂ니 100
▁후회되 100
▁가디거니 100
이ᅦᅭ 100
▁껴주 100
▁거냐 100
▁도ᄀ하 100
ᄂ처러ᄆ 100
▁ᅧᄋ자 100
▁다이ᄅ 100
▁나네 100
▁조ᄆ비 100
스러ᅯ써ᅭ 100
로ᅦ 100
▁보셔ᄊ 100
▁피ᄅ려 100
▁비스ᄉ하다 100
▁시ᄂ겨으ᄂ 100
▁ᅡᆭ더라 100
저ᄋ하고 100
▁새ᄋ가ᄀ하기 100
▁버서 100
사ᄋ지 100
스러ᅮᄂ 100
▁서미 100
▁허ᄂ 100
ᄂ해져ᄊ고 100
ᄅ쑤ᄀ 100
주ᅵᄅ 100
▁때리지 100
ᅮ리 100
▁구해ᄊ고 100
▁노프 100
▁나먀ᄋ주ᅦ서 100
▁취지 100
▁과ᄋ사 100
▁모구거 100
▁타ᄅ서 100
▁때리시 100
▁케ᅵ스로 100
▁토ᄋ사로니 100
▁내써ᅭ 100
▁나ᄌ지 100
ᅩ냐 100
나거나 100
▁ᅧᄂ차 100
▁회시 100
▁과ᅬ하 100
▁빠지기 100
▁주게 100
▁내보내 100
차벼리라 100
▁추ᄋ시ᄅ하 100
▁사회새ᄋ화 100
머느ᄂ 100
▁기계고ᄋ하 100
▁바ᄂ하 100
▁고ᄋ교ᅲ그 100
ᅧ그로 100
▁가루 100
▁기ᄅ치 100
쳐ᄊ거드뇨 100
써ᄊ대ᅭ 100
▁ᅡ메 100
하시ᄂ데 100
▁부다ᄆ되 100
▁겨ᄋ제려 100
▁디제ᅵ라 100
▁마자ᄊ느ᄂ데 100
▁겨ᅮ리 100
시ᄆ히 100
▁혀ᄂ과 100
▁머ᄀ거리 100
드르 100
▁나누느ᄂ데 100
▁드ᄃ느ᄂ다 100
▁거기ᅦ느ᄂ 100
▁토ᄋ하지 100
▁부다ᄆ돼 100
▁토ᄋ과 100
▁프라ᅵ드라 100
▁재미ᅵᄊ 100
▁파주 100
▁ᅲ치ᅯ니 100
▁마ᄅ자ᄋ나 100
▁ᅨᄉ나리 100
▁쳐써ᅭ 100
▁마느ᄂ 100
▁거라도 100
▁씨서 100
보ᄅ 100
▁사귀지 100
▁토로ᄂ하 100
모로 100
▁미개보이라 100
바ᄃ다 100
▁꾸미ᄂ데 100
▁되ᄂ다ᄂ 100
▁하ᄀ부모드 100
▁거늬 100
▁거세 100
▁죄소ᄋ하다 100
▁자ᄋ나니라 100
▁호ᄀ 100
벼ᄀ 100
▁페스 100
푸ᄋ 100
▁ᅩᄅ라가니까 100
ᄇ시 100
▁차드으 100
ᄂ타지 100
ᄑ지베 100
▁떠ᄅ리 100
▁ᅩ피스테리 100
라ᄊ다고 100
▁서ᄂ배로 100
워ᄂ도 100
▁드러ᅩ셔ᄊ 100
▁ᅮ리도 100
▁ᅤ드르 100
▁마려ᄂ해 100
ᅳ며ᄂ 100
가네 100
▁사의 100
▁보ᄀ지ᄀ하 100
르지 100
▁추ᄋ처ᄋ도ᅧᄊ 100
▁더ᄂ져ᄊ 100
▁타ᄉ하 100
▁ᅤ기하자며ᄂ 100
▁대주ᄋ 100
▁저ᄂ무ᄂ저기 100
▁저녀 100
궈네서 100
▁프리 100
▁차므며ᄂ 100
▁차ᅵ저 100
기라서 100
▁화자ᄋ하느 100
▁머ᄀ기 100
▁도ᄋ새으 100
무ᅵ 100
▁고ᄋ하ᄀ과 100
▁혀ᄂ지 100
▁초ᄋ가 100
ᅵ버 100
▁거ᄂ네 100
▁자ᄀ푸ᄆ서 100
▁보ᅲ 100
써도 100
▁ᅲ며으 100
리ᅥᄊ고 100
▁서ᄂ새이 100
타ᅭ 100
▁토ᄆ 100
이ᅭ 100
▁ᅡᄂ저ᄋ 100
▁둬ᄊ더 100
▁치ᄂ해지기 100
되니까 100
▁노도ᄋ자 100
▁하며ᄂ서느ᄂ 100
▁ᅭᄋ서 100
▁너도 100
▁ᅥᅮᄅ려ᄊ 100
▁추ᅱ 100
▁비ᄅ리 100
▁도ᄋ대무ᄂ 100
▁부부니니까 100
▁ᅥ때ᄊ 100
펴ᄂ도 100
▁태ᅥ나시 100
저으 100
겨ᄅ되ᄂ 100
▁사교ᅲ게 100
▁뒤도 100
저부니 100
▁츠에서 100
ᄋ추 100
▁겨ᄋ햐으 100
▁고저ᄋ저기 100
▁사라져ᄊ 100
▁다ᄂ저므 100
▁샤ᄇ 100
데도 100
▁태구 100
▁투표가 100
재가 100
가ᄡ 100
▁저ᄂ토ᄋ 100
도나 100
▁고러 100
▁혀ᄂ대무ᄂ하 100
▁때ᄋ 100
교도 100
▁미ᄂ가ᄆ해 100
▁세게 100
▁너네드 100
수니 100
▁조거느 100
▁가ᄆ다ᄋ하 100
ᅵ쓰ᄅ 100
▁모ᄆ지 100
▁시ᄂ고라 100
ᄋ하죠 100
리ᄋ 100
▁초ᄋ기 100
▁끊ᅥ지 100
▁부사 100
▁ᅣ다이 100
▁치ᄂ처ᄀ드ᄅ 100
▁ᅡᅵ도리 100
▁ᅩ셔ᄊ 100
▁저ᄋ하지 100
▁ᅣ그ᄂ하 100
▁스ᄇ과ᄂ 100
▁고ᄋ하으 100
▁자ᄋ모니 100
▁해무ᄅ타 100
▁머시써 100
치지 100
부느ᄂ 100
▁체허미 100
▁소리로마 100
▁시ᄆ가ᄀ해 100
시허미라 100
▁부류 100
▁쪼기니까 100
▁화자ᄋ시르 100
메ᄂ 100
▁사에 100
그러ᄒ죠 100
▁해겨ᄅ하시 100
▁지ᄀ채그 100
▁드무 100
레ᅵ 100
ᄊ거드ᄂ 100
마으ᄂ 100
싸서 100
찌ᄋ 100
ᄂ가느ᄂ 100
▁ᅵᅵᄅ 100
로ᄀ 100
▁뛰지 100
ᄆ씨ᄀ 100
새기 100
▁서ᄋ모 100
▁다ᄚ 100
▁부사네 100
▁나ᅪᄊ네 100
▁소가 100
▁새ᄋ가ᄀ하기ᅦ 100
▁소도ᄀ하 100
▁모스ᄇ드ᄅ 100
▁사ᄂ마ᄂ하 100
▁ᅡᄅ며ᄂ서 100
▁저ᄀ그 100
ᄆ드르ᄅ 100
▁처ᅳ미라 100
가므로 100
▁ᅧ해이ᅥ 100
▁ᅵ어 100
▁주ᄀ게 100
▁자세하 100
ᄋ화ᄅ 100
표가 100
▁나서부터 100
시게ᄊ죠 100
▁추서기라 100
▁드러ᄊ기 100
ᅧᄅ 100
ᅵ리ᅦᅭ 100
▁해ᄋ보ᄀ 100
▁모ᄅ려다니 100
▁타ᅵ 100
▁나며ᄂ서 100
▁지저부ᄂ해 100
하ᄂ다기보다느ᄂ 100
내ᅣ 100
ᄂ라ᄂ하 100
▁다ᄂ과 100
▁ᅵᄅ자리 100
▁대화하 100
▁ᅧᄂ그ᄀ하시 100
▁누리 100
▁보시며 100
▁마ᄂ마ᄂ 100
▁시ᄚᅥ하지 100
▁시ᄅ려그 100
▁또래ᅧ 100
ᄅ려며ᄂ 100
▁주스 100
▁ᅦ피소드드ᄅ 100
▁쪼꼬 100
▁ᅣᄋ재도으 100
▁모ᄀ도이 100
ᄂ다며ᄂ서 100
▁조ᄒ게써 100
▁나므니까 100
ᄀ세 100
▁조거ᄂ 100
▁과ᅦ 100
내느ᄂ데 100
조로 100
▁ᅵᄅ보 100
▁보펴ᄂ저 100
▁때부터느ᄂ 100
거라드ᄂ가 100
가타서 100
▁구매해 100
▁조기 100
▁느ᄅ려 100
▁되니까ᄂ 100
▁회시그 100
▁배ᄀ수 100
▁ᅢ매모호하 100
▁너ᄒ기 100
▁끼쳐 100
▁노니 100
ᄆ드ᄅ 100
▁서니라 100
▁자ᄂ도 100
▁조ᄋ자 100
▁고마ᄇ다 100
마ᄆ 100
▁뜨스 100
▁피고 100
▁사ᅭᄋ하지 100
▁하니까느ᄂ 100
쳐ᄊ 100
▁미구ᄀ사 100
▁ᅵᄂ궈니 100
▁바ᄋ화 100
셔ᄅ 100
저ᄇ 100
▁마ᄂ나ᄂ지 100
저으로 100
녀네느ᄂ 100
▁미ᅣᄂ마ᅦ 100
▁페 100
드ᄅ기 100
▁버려ᄊ다 100
구ᄂ데 100
드려 100
▁뽀바ᄊ 100
▁파ᄂ매되 100
▁노ᄂ바 100
▁ᅧᄅ리ᄂ다 100
▁저니ᄂ데 100
▁자시ᄀ 100
▁시저 100
▁조ᄒ다라 100
▁ᅵ쓰니까느ᄂ 100
ᅲ로ᄇ게 100
▁깨끄ᄉ 100
▁하ᄀ녀ᄂ부터 100
▁가ᄆ사하 100
ᅧᄋ 100
▁저로서 100
▁ᅧ서ᄋ스러 100
ᅯᄊ느ᄂ데 100
러지지 100
▁가저ᄋ저기 100
ᄆ사하느ᄂ데 100
▁스마트포 100
▁기ᅥ브 100
▁ᅡ피ᅥ 100
▁대해ᄋ 100
▁기가니라 100
▁뚜ᄀ따 100
▁차ᄆ느ᄂ 100
▁과ᄂ계드 100
▁다녀ᅪᄊ 100
사치 100
▁마ᄐ기기 100
▁ᅬ부저 100
기저기ᅥᄊ 100
▁태ᅥ나써 100
▁서ᄋ부 100
▁겨ᄋ기자으 100
▁가ᅵ 100
▁ᅥᆰ 100
▁버ᄂ호 100
▁소녀 100
▁ᅵᄅ하시느 100
▁서니 100
러며ᄂ 100
수ᅯᄂ도 100
겨이나 100
포니 100
▁주ᄂ비해 100
▁보라ᄆ 100
자ᄋ니ᄆ 100
▁부타ᄀ하기 100
도ᄋ새이ᅥ서 100
쓰느ᄂ 100
▁바드셔 100
기르ᄂ 100
▁거르며ᄂ 100
▁ᅥᄡᅥ져쓰 100
▁ᅵᅣ기하 100
하자마자 100
▁기느 100
▁겨ᄋ기하며 100
ᅵᄀ 100
▁저ᄂ고ᄋ하셔 100
사도 100
▁사ᅵ트ᅦ 100
▁쉬ᅮ 100
▁비ᅲ 100
▁노ᄋ다ᄆ 100
르메 100
가ᄊ지마ᄂ 100
▁스ᄇ 100
계가 100
게ᄊ느ᄂ 100
▁배ᄀ파ᄅ시ᄇ사 100
빠르ᄅ 100
▁ᅵᅯᄅ쯔 100
▁ᅮᄂ도 100
화느ᄂ 100
▁노ᄋ자으 100
체가 100
▁ᅥᄡ더라 100
▁지ᄀ자이ᄂ 100
▁거ᅧ써 100
ᄋ과ᄂ 100
▁자ᄆ시리 100
▁대고 100
래가 100
▁주ᄋ대ᅦ 100
라그ᄅ 100
▁보ᄀ도 100
▁지ᄂ해ᄋ하 100
▁소ᅳ므 100
▁사라미ᄂ 100
처느로 100
▁사리비 100
ᅩ지마ᄂ 100
ᅮ르ᄅ 100
ᅥ베 100
▁겨ᄋ재ᄋ하 100
다ᄇ 100
▁ᅧ르미ᅥ 100
매ᄀ 100
▁ᅧ자ᅵ 100
저기고 100
ᄋ구 100
가ᄌ고 100
▁개서ᄂ해 100
ᄉ하고 100
▁스ᄇ과 100
▁더니 100
자ᄀ저ᄋ 100
▁치ᄂ처ᄀ드 100
▁주차자 100
▁많ᅡ써 100
▁세느ᄂ 100
▁저가 100
▁푸시 100
▁무하ᄂ저 100
▁겨ᄋ고하 100
▁서미ᄂ 100
시로 100
▁미부 100
▁자ᄀ서ᄋ하 100
▁시ᄃ 100
▁끼느ᄂ 100
▁ᅮ녀ᄋ하시 100
▁놔ᄊ다 100
▁노하 100
▁호ᄋ처느 100
▁ᅴ시ᄆ 100
▁ᅯ네서 100
니죠 100
▁차펴ᄂ 100
▁바라 100
ᄂ지도 100
배ᄀ치ᄅ시 100
사ᄋ해 100
▁거ᄅ려ᄊ 100
▁부자시 100
▁치ᄂ하다 100
▁테니스자 100
지며ᄂ 100
▁하ᄀ녀니ᅥ 100
▁그래써쓰 100
▁서ᄋ고ᄋ하 100
져쓰며ᄂ 100
▁다녀ᅪᄊ고 100
▁주요하기 100
ᄅ드리 100
새ᄋ화리나 100
▁가시 100
▁ᅲᄂ 100
기ᅥ비 100
▁표저 100
가ᅦ 100
제푸므 100
스파 100
ᄀ저그로 100
▁머그려 100
▁시ᅯᄂ해 100
▁대처 100
▁저ᄂ구ᄀ 100
서ᄋ도 100
▁버려ᄊ고 100
려ᄊ느ᄂ데 100
▁주시지 100
리ᄂ 100
ᅵ게 100
대ᅦ 100
러ᄇ다고 100
▁겨ᄅ호ᄂ시ᄀ자 100
라ᄆ 100
▁그스 100
▁드러가ᄊ 100
▁도ᅮ 100
ᄂ가ᄋ 100
하고ᅭ 100
▁치ᄂ구드리니까 100
▁구거교ᅲ 100
▁미ᅯ 100
▁도ᄋ무ᄅ드ᄅ 100
▁ᅵᄂ가 100
자로 100
▁조하ᄊ다 100
▁지ᅯᄂ하 100
ᅣ이 100
▁겨ᄅ저ᄋ하 100
▁버리며 100
▁모셔 100
▁저ᄂ다이 100
▁ᅡ라ᄊ 100
▁마ᄌ추기 100
▁드ᄅ리ᄂ다 100
▁지느ᄂ 100
ᄆ부 100
▁사ᄂ해이 100
▁찌개 100
▁ᅲ며ᄋ하기 100
▁하ᄀ무ᄂ저 100
주ᅡᄅ 100
▁ᅩ시브 100
크게 100
가지느ᄂ데 100
▁사거ᄂ드 100
▁크내 100
▁부조ᄀ해 100
▁돼쓰 100
▁배치 100
▁ᅧ기ᅦ서 100
ᄇ쓰ᄅ 100
▁대세 100
쾌하 100
ᄀ자ᄋ 100
▁다ᄅ라져ᄊ 100
▁부라ᄂ해 100
▁타ᄂ타ᄂ하 100
비ᅦᅭ 100
무니 100
ᄂ바라ᄆ 100
▁도시ᅧ 100
▁즈미ᅥ 100
나ᅵ트 100
▁버ᄅ레드 100
그래도 100
▁부라ᄂ 100
▁ᅥᄡ더 100
▁다르다라 100
▁드러보며 100
▁거ᄀ저ᄋ되 100
▁또ᄀ바 100
▁ᅩ사네 100
셔ᄊ고ᅭ 100
▁주ᄂ비하며ᄂ 100
▁ᅥ려ᄆ 100
사ᄂ처러ᄆ 100
▁치매 100
▁바그ᄅ바그ᄅ하 100
▁ᅡ라드ᄃ더라고 100
▁노ᄋ부 100
▁시기ᄂ 100
▁ᅩ빠드ᄅ 100
▁저ᄋ도고 100
▁과ᄂ계ᅧ 100
▁개로 100
▁나ᅡ져 100
▁해ᄋ도에 100
▁뉴 100
▁도차ᄀ해 100
▁취ᅥ 100
▁주미ᄂ드 100
나ᅴ 100
▁다니시 100
▁재미로 100
▁부ᄂ하 100
▁사ᄋ과너ᄡᅥ 100
▁사ᄋ화이라 100
▁푸ᄅ려 100
▁부ᄆ 100
화랴이 100
▁마ᄅ리 100
ᄀ서ᄋ사ᄋ 100
▁ᅧ어ᅦ 100
느라고 100
▁괘ᄂ찮ᅡ지 100
게ᄊ더라고ᅭ 100
▁ᅢ매해 100
▁넓다 100
거ᅣ 100
▁드러봐써 100
▁서ᄂ무 100
▁지ᄀ저ᄂ 100
▁미ᄂ가ᄆ 100
▁자기네드ᄅ 100
▁교ᅲᄀ과저 100
▁자ᅧ 100
벼르 100
▁가미 100
▁ᅧ르 100
▁버서나지 100
▁시자ᄀ하며ᄂ서 100
▁부ᄅ펴으 100
▁ᅵᄆ시 100
▁다ᄋ하ᄂ 100
▁ᅵ모드리 100
▁빠느ᄂ 100
▁해서느ᄂ 100
▁나르 100
데라고 100
▁싸ᅮ며 100
▁마ᄅ하며ᄂ서 100
▁타ᄀ 100
▁대서 100
▁자ᄋ소ᅦ 100
▁대보 100
▁바다쓰 100
▁ᅦ스ᅦ 100
조그ᄆ 100
▁도의하 100
▁구니니 100
▁녀서ᄀ 100
▁하ᄂ계저 100
▁ᅲ하ᄀ새ᄋ 100
부르 100
▁화다 100
로니라드ᄂ지 100
티치ᄋ 100
▁처러ᄆ 100
▁주ᄋ구ᄀ사 100
려ᅭ 100
▁하ᄀ새으 100
▁미대 100
▁마ᄋ해ᄊ고 100
▁로 100
교르ᄅ 100
▁자ᅲ리 100
써쓰며ᄂ 100
▁끄러 100
제ᄅ 100
벼워네서 100
자라고 100
▁자바ᄊ다 100
▁마자써 100
▁노ᄅ라ᄊ 100
▁자ᄋ미 100
▁미끄러 100
▁사라써ᄊ고 100
저ᄀ도 100
▁마ᄅ쓰ᄆ하셔써 100
처ᄇ 100
려ᄋ 100
▁제ᅬ하 100
ᅵ써ᄊ더ᄂ 100
타ᄂ 100
궈ᄂ하고 100
해ᄊ잖ᅡᅭ 100
마ᄂ하고 100
사ᄅ고 100
▁피고ᄂ하 100
새ᄋ가그ᄅ 100
▁시ᄀ구드 100
▁규 100
티ᄋ하 100
ᅲᄅ 100
▁네ᅳ 100
▁호러라 100
ᅥ써 100
주ᄂ 100
▁ᅧ해ᄋ비 100
▁ᅩ후 100
ᄂ저ᄂ하게 100
▁피ᄅ리피 100
▁바ᄋ소ᄋ바느 100
가며ᄂ 100
마니 100
무ᄂ하ᄀ 100
▁가ᅵᄇ해 100
▁제ᅡᄂ 100
▁저버 100
지ᄂ짜 100
쓰셔서 100
▁되시 100
▁고ᄋ무ᅯ 100
ᄅ거리 100
▁새ᄋ가ᄀ하지 100
ᄋ스러ᅮᄂ 100
▁저ᄋ부ᅦ 100
에다 100
▁노라ᄊ 100
▁바ᄂ대해써ᄊ 100
ᅦᅵ 100
▁빼ᄊ 100
치ᄂ하ᄂ 100
▁주ᅦ 100
▁ᅥᄃ기 100
▁도ᄀ리ᄇ하 100
자ᄀ 100
자ᄋ마ᄂ 100
ᅩᄅ 100
▁쓰며느ᄂ 100
지시 100
마ᄌ느ᄂ 100
ᅵᅢ 100
▁되ᅥ써 100
▁ᅵᄅ보니ᄂ 100
ᄂ마ᄂ 100
▁과ᅬ보다 100
▁ᅵᄅ서 100
▁기사ᄋ 100
▁ᅧ교사드 100
▁ᅳ게 100
ᅥ떠ᄒ게 100
▁소ᄀ하느 100
▁겨ᄀ 100
▁소리나 100
ᄋ꼬 100
▁교ᅣ 100
구ᅦ 100
되잖ᅡᅭ 100
▁라 100
▁서저ᄀ 100
ᅡ가 100
▁드리나 100
▁구ᄀ가과 100
▁토ᄋ하ᄀ하 100
저므로 100
▁드러ᄊ냐 100
▁째 100
기잖ᅡᅭ 100
▁ᅭᄋ거 100
▁바드시 100
▁시프셔 100
▁보ᅧᄊ 100
리라서 100
▁트ᄆ 100
▁떠ᅩᄅ 100
▁부조ᄀ하고 100
쉬ᅮᄂ데 100
ᄆ스 100
▁피ᅯ 100
ᄡᅳᄅ 100
▁조러ᄇ해 100
혀니 100
ᄋ무 100
▁다ᄅ라져 100
▁주벼느 100
사ᄋ자 100
▁가시ᄂ다 100
▁토ᄋ나 100
▁고ᄋ부해ᅣ 100
▁서ᅧ 100
려써ᅭ 100
저기라 100
무ᄅ드리 100
도에서 100
▁저기고 100
▁시ᄂ기 100
너가 100
ᅥᄡᅵ 100
▁ᅵᄂ새이 100
▁ᅧ내하 100
▁피ᄅ리피느 100
▁ᅩ느리 100
▁ᅧᄋ구기 100
▁사여 100
▁부ᄂ다ᄋ서 100
▁주무시고 100
▁괘ᄂ찮다라 100
▁ᅩᄅ라ᅩ시 100
쳐서 100
▁수지ᄇ하 100
▁누나ᅵ 100
▁더러ᄇ 100
▁ᅧ해ᄋ해 100
로ᄇ고 100
▁회ᅴᅦ 100
다더ᄂ지 100
ᅯ써ᅭ 100
▁바껴써 100
▁조ᄂ겨ᄋ 100
▁거기서ᄂ 100
레나 100
▁ᅢᄀ셔 100
▁추ᄅ새ᄋ하 100
혀이 100
▁ᅵ래써 100
벼에 100
▁주ᅧ 100
▁부ᄂ랴 100
▁쓰레기토 100
게ᄊ네ᅭ 100
▁ᅢᅵᄂ 100
다레 100
▁누ᄂ무 100
▁ᅣ다 100
거ᄅ로 100
미ᄂ드레게 100
▁처ᄋ소기 100
ᄋ하지 100
▁ᅩᄅ라가더ᄂ 100
ᄀ하 100
▁시ᄋ 100
▁부니셔 100
▁서ᄇ서ᄇ해 100
ᄂ사 100
▁피ᄅ드 100
끼지 100
최하 100
▁조하써ᄊ 100
초느ᄂ 100
▁ᅩ주 100
▁나ᄆ하ᄀ새ᄋ드르 100
▁사라미ᅥ쓰 100
써ᄊ지마ᄂ 100
져ᄊ거드뇨 100
ᅢ드리 100
드리ᅥ 100
도ᅴ 100
▁마ᄌ기 100
▁부ᄅ마 100
▁피츠버그라 100
▁계시다 100
겨에 100
▁화ᄂ겨으 100
▁때쯔메 100
▁더ᄂ지 100
▁저그으 100
▁느껴ᄊ 100
하려며느ᄂ 100
▁머러져 100
▁ᅵᅦ 100
ᄉ지브ᄂ 100
▁나라르 100
▁바뀌며ᄂ 100
▁새ᄀ 100
ᄋ치도 100
▁ᅧᄂ추 100
▁줘ᄊ고 100
▁노려 100
▁커지ᄂ 100
고드ᄋ하ᄀ교 100
▁키ᅮ려 100
▁해써ᄊ지마 100
쪼게도 100
▁지가ᄀ하 100
ᄂ두 100
드ᄅ처러ᄆ 100
▁지ᅩ 100
▁거ᄆ 100
▁서ᄅ치 100
ᅥ쓰니까 100
▁키ᅯ써ᄊ 100
주거나 100
▁고ᅣᄋ시ᅦ 100
ᄉ드ᄅ과 100
▁드러ᄊ 100
고이 100
▁ᅡᆭᅳ셔 100
▁대부부니고 100
ᄂ재 100
ᅥᄊ잖ᅡᅭ 100
냐ᄀ 100
▁처ᄂ구 100
▁가ᄊ지 100
▁조시ᄆ 100
▁차드 100
무ᅯ느로 100
ᄅ려서 100
▁흐ᄂ저 100
▁ᅬ구그 100
▁부조ᄀ 100
▁꿔 100
▁ᅧ르미며 100
▁시ᄅ패하 100
▁타려 100
▁혀ᄂ시르 100
▁ᅭ저ᄋ 100
▁걔네드르 100
▁부ᄅ버 100
카로 100
ᄅ지르ᄅ 100
▁새ᄋ겨써 100
▁재느 100
▁체ᅲ그 100
▁퇴그ᄂ 100
▁추ᄅ새ᄋ 100
▁때리기 100
▁따뜨ᄉ 100
▁대포 100
ᅤ기 100
▁다르다 100
사시ᄅ 100
▁그거ᄉ보다 100
▁시고 100
▁허ᄅ 100
려져 100
부부느ᄂ 100
▁사다ᄋ도 100
▁대기 100
▁ᅵ써써 100
하셔써ᄊ느ᄂ데 100
▁마ᄅ드ᄂ 100
리버 100
▁기퍼 100
▁뭐하느ᄂ 100
▁사써 100
고서 100
▁비지 100
ᄋ보다느ᄂ 100
▁마니 100
지로 100
▁지ᄇ드르 100
▁지내ᅣ 100
▁자ᄅ하시 100
ᄊ다느ᄂ데 100
지그므ᄂ 100
니ᅥᄊ죠 100
▁시ᄅ마ᄋ해 100
▁ᅵᅭ 100
▁배구 100
▁커ᄂ 100
꾸ᄂ 100
▁바ᄋ소ᄋ바 100
▁ᅩ사 100
▁새ᄋ가ᄀ하시며ᄂ 100
▁화사 100
라더ᄂ 100
▁화교 100
러가며ᄂ 100
저ᄂ까지 100
▁나지 100
ᅵ지 100
거ᅦᅭ 100
▁조하지고 100
사네서 100
ᅵᄅ구 100
▁도ᅭ 100
구시보 100
▁느끼느ᄂ데 100
뭐ᄂ 100
▁바ᄂ하이 100
회ᅴ 100
서에 100
▁대하라 100
▁ᅩᄚ 100
▁고ᄋ토ᄋ 100
▁자ᄋ저미라 100
▁거ᄂ저ᄂ하 100
▁조러ᄇ하 100
▁나므셔 100
▁거러다니 100
하이라고 100
▁ᅲ화 100
구ᄀ도 100
려ᄊ더ᄂ 100
▁꾸시 100
▁도ᄋ무리 100
저ᄉ 100
▁또ᄀ가ᄐ고 100
지게서 100
시가 100
새ᄋ화르ᄅ 100
▁ᅴ지하 100
ᅡ무래도 100
서게 100
다기보다ᄂ 100
▁돼ᄊ네 100
하ᄂ다 100
기ᅥᄊ느ᄂ데 100
▁떠ᅡ 100
▁마ᄂ드러써 100
▁ᅵᄊ다라 100
하자고 100
프로느ᄂ 100
다브ᄅ 100
▁ᅧ서ᄂ새ᄋ니ᄆ 100
▁하ᄂ구기니 100
써써 100
▁ᅣᄀ해 100
취 100
새ᄋ도 100
자으로 100
▁ᅱ기 100
▁게도 100
▁조저 100
소하ᄂ 100
소가 100
ᄋ해ᅭ 100
▁소토 100
거기 100
하더라도 100
자ᄆ까ᄂ 100
ᅥ지느ᄂ 100
치ᄂ구 100
▁보ᄀ하 100
▁ᅭᄀ하 100
▁고시다 100
거ᄉ보다도 100
무ᄂ제 100
ᅵᄅ다ᄂ 100
치ᄂ저ᄅ해ᄊ 100
교사드리 100
▁피고ᄂ 100
뜨ᄃ 100
▁서피 100
▁화나며 100
▁조ᅭᄋ해 100
▁지리사 100
ᄂ계가 100
ᅵ스ᄂ 100
▁ᅡ레 100
▁마시ᄂ다드ᄂ 100
▁사무 100
하ᄆ 100
▁서ᄅ드ᄀ하 100
되나 100
▁바다ᄀ 100
▁ᅩ느 100
▁서ᄋ고 100
▁나ᄆ자ᅢ고 100
버ᄅ 100
▁ᅮᅲ라 100
ᄊ거나 100
▁새ᄋ화ᄅ궈 100
▁ᅧ어궈 100
ᄆ바 100
▁ᅦᄂ화 100
▁부러지 100
▁무ᄂ하기라 100
래서 100
▁ᅨ쁘다 100
▁녀서ᄀ드 100
▁ᅧᄅ푸 100
▁스쿠 100
퍼가 100
▁녀네다 100
드러ᅭ 100
그래ᄆ 100
▁무료고 100
ᅣᄀ해지 100
▁처ᄋ소녀ᄂ드ᄅ 100
▁저ᄂ시 100
구니 100
▁모르ᄂ다 100
ᄋ새 100
▁사라ᄋ 100
ᄅ더ᄂ 100
지그로 100
대ᅦ서 100
▁ᅧᄅ대 100
ᄊ다라느ᄂ 100
라ᄋ마ᄂ 100
꺼리 100
▁소ᄀ사 100
▁마ᄂ드러지고 100
▁ᅵᆰ게 100
ᄅ리이 100
▁트ᄅ려써 100
ᄇ기 100
ᅬ로 100
회사 100
ᅵᄊ다고 100
▁자여 100
▁저ᄋ화ᄀ 100
▁처ᄀ 100
기드ᄅ 100
▁그ᅳ 100
데ᄂ 100
▁미ᄂ가ᄆ하시 100
이ᅥ써ᄊ느ᄂ데 100
▁나ᄆ느ᄂ다 100
하더라 100
▁ᅵ리기 100
사ᄀ 100
▁저리 100
▁내주 100
해ᄊ다고 100
저ᄆ저ᄆ 100
부ᅵᄂ 100
ᅡᄂ도 100
바리 100
ᄂ체 100
ᄊ다거나 100
리다 100
바라ᄆ 100
▁ᅪᄊ 100
▁ᅡ까ᄇ게 100
나잖ᅡᅭ 100
▁도차ᄀ해ᄊ 100
▁토ᄋ해 100
▁화기ᄂ해 100
ᅦ프 100
ᅪᄊ 100
▁ᅩᄅ라ᅩ지 100
쳐써ᅭ 100
ᅥ니 100
ᄂ해이라 100
▁하ᄀ새이ᄂ 100
▁가지ᄅ려 100
▁바그ᄅ바그ᄅ 100
▁처ᄋ소하 100
프로 100
▁마즈셔 100
▁또ᄀ가ᄐ지 100
ᄀ하느ᄂ 100
▁저래 100
느ᄋ하ᄂ 100
▁ᅵᅮᄉ지 100
바다 100
나지 100
▁고ᄋ시ᄀ저 100
사라 100
ᄂ자 100
▁ᅵ도 100
러지ᄂ 100
▁타ᄂ타ᄂ 100
떠 100
▁쳐써ᄊ 100
ᄋ도가 100
기지 100
▁지ᄉ게 100
▁ᅧᄂ라ᄀ하기 100
ᅵᄅ패 100
▁시ᄀ사하 100
ᅩ잖ᅡᅭ 100
▁후배드르 100
거ᄉ 100
차ᅵ가 100
려다 100
겨ᄅ 100
차ᄀ 100
▁보내셔ᄊ 100
▁고ᄋ부하며ᄂ 100
▁저노야 100
▁뒤ᄉ마 100
▁채ᅮᄂ다 100
시ᅭ 100
▁라고 100
▁ᅨ츠 100
ᄀ다ᄅ 100
그래 100
가ᄆ도 100
저에 100
▁수하 100
새ᄋ화르ᄂ 100
러ᄇ잖ᅡᅭ 100
ᅡ쓰ᄅ 100
ᄋ수 100
▁하ᄂ도아 100
▁도ᄋ가 100
▁사ᄋ화 100
▁겨ᄅ호ᄂ시ᄀ 100
▁ᅵᄅ사 100
▁지나다니 100
ᄋ시ᄂ 100
가며ᄂ서 100
▁기바 100
자꾸 100
▁부늬 100
▁나ᅪᄊ기 100
거ᄆ 100
저ᄂ화 100
ᄂ사도ᄋ 100
▁저그ᄋ하느ᄂ 100
▁가라고 100
크ᄆ 100
ᅯ네서 100
ᅦᄂ 100
ᄀ제 100
▁파ᄅ구 100
▁마시지 100
나나 100
▁드ᄀ저 100
▁ᅩᄀ사 100
▁ᅧ해ᄋ지 100
ᅵᄅ자이 100
ᅥᅣ 100
▁쓰러 100
쭈ᄀ 100
▁ᅩᄅ리며ᄂ 100
▁시ᄑ다라 100
▁자이 100
며으ᄅ 100
하ᄅ머니 100
ᄋ펴ᄋ하 100
▁추처ᄂ하 100
지ᅥ 100
▁태ᅥ나셔 100
▁그러시며ᄂ 100
ᅪᅭ 100
게다가 100
페라 100
▁보ᄋ사하 100
ᄂ저기ᄂ 100
▁대기ᅥ 100
시니 100
▁디 100
노느ᄂ 100
나ᄅ로 100
▁사거리 100
▁구니 100
▁ᅯᄂ마 100
지게ᄊ죠 100
▁자ᄀ서ᄋ 100
▁자ᄅ사ᄅ 100
▁재미ᄊ느ᄂ데 100
네가 100
▁후ᄅ 100
▁배ᅮ다 100
비느ᄂ 100
▁거리가므 100
주니 100
▁초그 100
▁서ᄇ서ᄇ해하 100
▁하ᄂ가하 100
▁마ᄅ쓰ᄆ해 100
▁ᅡ끼 100
ᄋ비가 100
▁ᅡ쉬ᅯᄊ 100
노도 100
어비 100
▁많ᅡ지잖ᅡ 100
▁주ᄋ구ᄀ보다 100
▁가ᄂ다ᄂ 100
타ᄊ느ᄂ데 100
ᅩ며ᄂ서 100
ᅡ네 100
버스 100
ᄊ냐며느ᄂ 100
사ᄋ하고 100
▁더ᄀ 100
사라미 100
▁며이ᄂ 100
▁많ᅡ지지 100
▁새ᄋ가ᄀ하셔 100
▁그래써ᄊ 100
▁기수 100
▁ᅵᄅ하시 100
▁태ᅥ나쓰 100
부티 100
▁바쁘시 100
서ᅮ 100
▁지ᄂ해ᄋ 100
리ᄆ도 100
느ᄂ지느ᄂ 100
▁대저ᄇ하 100
가느ᄋ하다 100
구기라느ᄂ 100
과ᅦ 100
봐쓰 100
치ᄆ 100
▁ᅵᄅ보너ᅦ 100
▁보조ᄂ 100
▁모ᄉ해써 100
머그ᄅ 100
뿌ᄂ 100
▁ᅭ리버 100
드라고 100
가써ᄊ느ᄂ데 100
래ᄂ 100
▁도라다니더라고 100
▁뛰ᅥ드 100
▁기ᅮ 100
드시고 100
ᅵ머 100
▁미ᄂ 100
구가 100
ᄋ벼 100
▁주ᄋ바 100
▁머ᄅ지 100
껴ᄊ느ᄂ데 100
▁새이 100
자그ᄂ 100
봐ᄊ느ᄂ데ᅭ 100
▁트ᄅ리기 100
▁타며 100
기니까ᅭ 100
러지고 100
▁무ᄂ화저 100
파써ᅭ 100
▁조하하기 100
▁ᅩᄂ다 100
조ᄋ 100
기보다ᄂ 100
▁화ᄅ바ᄅ 100
토ᄋ저그로 100
▁ᅣ사ᄂ 100
새ᄋ가기 100
ᄅ리느ᄂ 100
녀니 100
짜르 100
▁저ᄋ사ᄋ 100
▁하ᄂ무 100
대하궈ᄂ 100
▁모셔ᄊ 100
과ᄂ리 100
▁바ᄅ새 100
▁모ᄉ하기 100
자라쓰ᄅ 100
▁고려하 100
▁많ᅡ써써 100
▁저그ᄋ하 100
시리 100
허므ᄅ 100
▁자기네드 100
▁저ᄂ소 100
▁ᅯᄅ마 100
▁흐기 100
▁주시며ᄂ 100
▁부ᄅ펴ᄂ하다 100
내서 100
ᅥ기 100
거ᅭ 100
▁가더라 100
▁드러봐 100
▁가ᄅ지 100
쪼그ᄂ 100
수느ᄂ 100
러져써ᅭ 100
▁ᅧᄂ수도 100
ᄋ새ᄋ 100
▁기ᅵᄇ 100
▁터ᄅ 100
▁대구ᅦ 100
▁자사ᄋ 100
개ᄀ 100
▁부부ᄂ드ᄅ 100
ᄅ가티 100
하에 100
ᄋ과 100
▁ᅥᄡᅳ셔 100
ᅪᄊ구나 100
되셔써ᅭ 100
▁새ᄋ무 100
키기 100
려르ᄅ 100
▁지나가시 100
다에서 100
ᅵ버ᅣ 100
내기가 100
▁크셔 100
▁도이 100
▁ᅧ려 100
▁ᅧᄋ구그 100
도이ᅭ 100
ᅩ느ᄂ 100
가니 100
다녀ᄊ느ᄂ데 100
▁바꿔ᄊ 100
비ᄋ 100
▁ᅥ새ᄀ하 100
리며느ᄂ 100
▁ᅵ러냐 100
▁내ᄋ저ᄋ 100
▁가르치ᄂ다 100
거리나 100
▁다ᄂ도ᄀ주태 100
▁지바으 100
체ᅦ서 100
▁지내써 100
▁모ᅧᄊ다 100
▁느끼지 100
▁ᅵᄅ사ᄋ 100
▁ᅧᄂ대 100
▁구ᄀ미ᄂ드 100
▁ᅢ매모호 100
배ᄀ구 100
▁교도 100
▁해겨ᄅ해 100
▁바다ᄉ가라 100
ᄅ하지 100
▁나마ᄊ 100
▁거ᄂ드리 100
▁ᅣᄀ구 100
▁다이 100
▁비스ᄉ하지 100
ᄂ다ᄋ 100
사느ᄂ데 100
이ᄇ니다 100
미느ᄂ 100
▁바ᄃ잖ᅡ 100
▁싸ᅮ므 100
도이 100
ᅲ레 100
여그 100
파서 100
▁배미 100
ᄋ히 100
▁부부니라 100
▁저교 100
ᅡ드ᄅ 100
테ᄂ데 100
▁자니ᄂ 100
쉬 100
기저그로 100
▁화ᄅ바ᄅ하기 100
▁마냐 100
ᅥᄆ 100
▁시ᄂ겨 100
▁차며해 100
ᅲ사ᄂ 100
나ᅪ 100
디르ᄅ 100
▁조ᄋ하ᄇ바느 100
자으ᄂ 100
ᄀ도이ᄂ데 100
즈ᄋ 100
께서느ᄂ 100
▁후보ᅧᄊ 100
▁다ᄂ수ᄂ하 100
ᄋ하ᄀ교ᅧᄊ나ᅭ 100
▁기ᅥᄇ저 100
▁추서기 100
ᅵ니까 100
기ᅦ서느ᄂ 100
르ᄉ 100
▁기저기 100
▁계사 100
▁고시ᄂ 100
니ᄆ 100
부리 100
▁배드미ᄂ터느 100
려ᄀ 100
▁ᅮᄅ지느 100
새ᄋ화리 100
▁스ᄋ무ᅯ 100
따라 100
▁따드ᄉ 100
▁부서ᅦ 100
▁자세 100
▁조하쓰 100
커피 100
하라버지 100
줘ᅣ 100
▁가지고도 100
마레 100
▁펴네 100
배ᅮ 100
▁ᅵᄊ자 100
▁사라쓰 100
수다ᄋ 100
▁떠러지지 100
▁시미니 100
ᄋ마 100
꾸미 100
ᅢ기 100
▁마라ᅣ 100
구자ᄋ 100
▁거테 100
▁치ᅡ 100
ᅥᄡᅳ니까 100
스ᄇ니까 100
▁치ᄂ구라 100
▁저ᄂ고ᄋ해ᄊ 100
▁마시쓰 100
호르ᄅ 100
즈ᄆ 100
▁ᅩᄅ라가기 100
ᄀ느ᄂ다 100
스도 100
차도 100
▁노ᄅ지 100
▁수주 100
그러고 100
▁주미ᄂ드르 100
▁ᅭ구르 100
례 100
▁러브 100
ᆬ고 100
▁다ᄇ다ᄇ하지 100
도ᄋ사ᄂ 100
▁바다기 100
하려며ᄂ 100
지ᄇ해 100
▁배ᄆ 100
▁되지마 100
▁호테리 100
나ᄂ가ᄆ 100
▁그리므 100
나리 100
▁버느 100
돼ᄊ다 100
싸 100
ᄀ소 100
어가 100
▁괴ᄋ 100
ᄀ가 100
자ᄋ해 100
▁ᅡᄂ사네 100
시ᄂ주 100
다이니 100
▁저ᄂ고이라 100
ᄂ도으로 100
▁구가ᄂ 100
▁후배드 100
▁무ᄂ제마 100
▁스타크래프트라 100
느ᄌ게 100
▁ᅣ그ᄂ 100
저도 100
▁시ᄅ수해ᄊ 100
▁마가 100
▁ᅧᄋ구 100
▁너머지며 100
▁하ᄂ도 100
▁구ᄋ그ᄆ 100
ᄆ치 100
▁해무ᄅ 100
ᅵ브 100
▁뒤쪼 100
▁ᅡ프며ᄂ 100
▁지루 100
기거드뇨 100
▁겨꺼ᄊ 100
저ᄂ고ᄋ 100
▁추처 100
타ᄋ지 100
리사 100
ᅮ느ᄂ 100
저느로 100
ᄂ도ᅦ 100
▁도ᄀ트ᄀ 100
▁화려 100
▁짜ᄀ 100
▁되ᅣ 100
뚜ᄀ 100
ᅧᄊ다가 100
저니 100
ᄋ자에서 100
저네느ᄂ 100
▁대리 100
캐 100
▁가ᄆ사해 100
하셔써ᄊ 100
ᅡᅦ 100
가쓰ᄅ 100
▁배ᄀ치ᄅ시 100
▁저거하ᄂ 100
보수 100
하ᄀ새의 100
서ᄂ새ᄋ니ᄆ드ᄅ 100
▁ᅡ니지마 100
해쓰니까 100
시ᄂ다고 100
셔ᄊ더 100
혀네서 100
소리가 100
▁ᅨᄉ나ᄅ마ᄂ크 100
▁가ᄆ다ᄋ 100
▁ᅮ스시 100
▁기리라드ᄂ 100
기라도 100
▁쇼피 100
▁ᅵ녀 100
▁나ᄆ자ᅢ드리 100
▁차ᄌ느 100
▁모ᄅ라써 100
해ᄊ 100
▁ᅵᄂ무 100
▁후ᄂ 100
▁즈ᄅ거ᅯ하 100
셔ᄊ다가 100
▁ᅩ게ᄊ 100
▁새ᄋ기며 100
가태 100
▁ᅩ버하 100
▁차ᄉ 100
내ᄂ 100
▁소도ᄀ 100
ᅵᄇ고 100
▁ᅥ너하그 100
겨ᄋ제 100
ᄊ냐며ᄂ 100
비해ᄋ기 100
▁마ᄂ나지 100
ᄀ푸ᄆ 100
로르ᄅ 100
주로 100
초부터 100
▁노시 100
ᄊ느냐 100
저ᄂ고으ᄅ 100
하더ᄂ가 100
되ᄂ다 100
▁허마ᄀ 100
▁저ᄅ바느 100
ᄅ려ᄊ느ᄂ데 100
▁쿠 100
▁자ᄅ하지 100
▁쓰다 100
▁거드ᄅ 100
내고ᅭ 100
모ᄅ래 100
야이 100
사회 100
라니 100
ᅵ거드뇨 100
▁시ᄅ려 100
드러ᄊ거드뇨 100
▁사소 100
▁부러ᄇ 100
계고 100
빼 100
싸게 100
비ᅭᄋ 100
▁ᅡ래ᄉ 100
▁저ᄂ체ᅦ 100
되느ᄂ지 100
ᅤ기르ᄅ 100
사의 100
두고 100
▁나뉘느ᄂ 100
모르ᄅ 100
ᅡ니며ᄂ 100
처ᄅ 100
▁마려ᄂ 100
▁마차ᄂ가지ᅧ 100
끼리도 100
비ᅥᄊ느ᄂ데 100
바ᄆ 100
ᄋ화되 100
▁ᅵ마트ᅦ 100
누네 100
▁드ᄅ지 100
지느ᄂ데 100
저녀ᄀ 100
르시니까 100
가ᄐ지 100
▁ᅣᄀ저 100
▁쓰ᅧ 100
▁화ᄅ도ᄋ드 100
▁추ᄅ퇴그ᄂ 100
ᄅ리ᄂ다고 100
브리 100
ᄅ리게 100
ᄊ게ᄊ다 100
ᅥᄇ 100
ᄉ기 100
찌ᄀ 100
라써ᅭ 100
끄ᄅ 100
라ᄂ드 100
추ᅥ 100
▁ᅥᅮᄅ려 100
나무가 100
▁사ᄂ기 100
처ᄋ소 100
▁사ᄋ저 100
스토리 100
줘서 100
드ᄉ하ᄂ 100
▁ᅥ려ᄇ기 100
하ᅧ 100
주벼ᄂ 100
가조ᄀ 100
▁미개보이 100
도ᄋ새으ᄂ 100
▁프라ᅵ드 100
셔ᄊ거드ᄂ 100
▁수하ᄀ하 100
ᅵ터 100
▁ᅢ매하ᄂ 100
ᄅ라서 100
되느ᄂ데 100
ᄂ다에 100
ᄅ려ᄊ더ᄂ 100
부지 100
게도 100
▁헤ᄅ스자 100
ᄇ저그로 100
▁뛰느 100
ᅡᆭ게 100
▁다ᄅ라지고 100
다ᄆ배 100
가ᄡᅳ 100
ᅥᄡᅥᅭ 100
ᅡᅳ 100
▁느끼미ᅥ 100
차로 100
▁ᅡᄂ저ᄋ저기라 100
과ᅵᄂ데 100
떠ᄀ보끼 100
ᅵ써써ᅭ 100
저기기 100
▁내ᄋ 100
끄ᄂ 100
네ᅦ 100
회나 100
버리고 100
▁나비 100
▁ᅥ디드ᄂ 100
▁기계고ᄋ 100
▁ᅮ리하ᄂ테 100
마라 100
▁계저 100
되미 100
▁도ᄋ네ᅵᄂ 100
처르ᄅ 100
새이니까 100
▁펴ᄋ규 100
▁차벼리 100
까봐 100
하지느ᄂ 100
그나ᄅ 100
▁되ᅥᄊ 100
▁ᅵᄊ게ᄊ 100
ᄂ다기보다느ᄂ 100
ᄆ스ᄋ 100
▁소리ᄂ 100
서해도 100
▁죄소ᄋ 100
▁주려ᄊ 100
러ᄇ 100
▁가버리 100
마ᅳ므ᄅ 100
하자 100
▁취햐 100
기구 100
에다가 100
▁해다ᄋ 100
보ᅵ 100
때까지느ᄂ 100
▁펴ᄂ리하 100
거드 100
추ᄅ해 100
무ᄂ화가 100
미ᄂ지 100
ᄂ주가 100
거보다느ᄂ 100
▁부부ᄂ드 100
사ᄋ태ᅦ서 100
모ᅧ서 100
가라 100
노ᄒ고서ᄂ 100
▁저내 100
자ᄀ녀니 100
▁하ᄀ교라 100
버려 100
러ᄆ 100
▁보ᄅ리ᄋ자 100
▁화ᄅ도 100
▁과모기ᄂ 100
츠에 100
▁재래시 100
ᄇ마ᄂ 100
거ᄆ사 100
▁가ᄂ저 100
▁대느ᄂ 100
머거 100
▁기프 100
보드 100
▁서ᄂ지ᄂ구기 100
▁라며 100
기차 100
저녀게 100
수ᄂ가ᄂ 100
▁바ᄂ마 100
▁자ᄋ나니 100
▁해ᄂ 100
버리잖ᅡᅭ 100
태그 100
모ᄉ해 100
▁가디거 100
텨 100
▁차리 100
누리 100
▁배ᅮᄂ다 100
ᄋ개ᄀ 100
시자이 100
가지르ᄅ 100
▁자ᄆ자 100
▁ᅧ자부ᄂ 100
▁ᅦ르ᄅ 100
▁귀해 100
▁제빠 100
미니 100
지ᅦ서 100
▁도라다녀ᄊ 100
ᄅ하려고 100
너머 100
서ᄀ사 100
패 100
▁해ᄋ저ᄋ시 100
▁ᅥᄡᅥᄊ지 100
사ᄋ가 100
▁ᅵᄅ과 100
▁다니잖ᅡ 100
▁고기ᅦ 100
버뮈 100
사라ᄆ드리 100
▁마ᄌ느ᄂ다느ᄂ 100
고ᄋ가ᄂ 100
바ᄋ소ᄋ 100
▁지ᄂ하ᄀ하 100
▁부ᄂ자 100
▁나ᄆ자ᅦ 100
겨서 100
ᅵ라느ᄂ 100
▁ᅱᄉ 100
▁시ᄆ시ᄆ 100
계회ᄀ 100
▁트ᄀ기 100
ᅢᄀ셔ᄂ 100
ᄂ라ᄂ 100
▁배고 100
게ᄊ다라고 100
주ᄀ 100
구ᄅ 100
회과 100
소개 100
ᄇ도 100
제하고 100
하ᄀ새ᄋ 100
겨ᅮ 100
▁마ᄋ가 100
그ᄇ하시 100
가시고 100
ᅵ자 100
저ᄂ세 100
사ᅵᅦ 100
ᅵ지마ᄂ 100
규모 100
저ᄋ부 100
ᄆ거리 100
▁교ᅲᄀ과라 100
▁지쳐 100
쉬ᄇ고 100
ᅧ도 100
겨ᄅ돼 100
▁모스ᄇ드 100
주니까 100
대바 100
주ᄋ하ᄀ교 100
지ᄂ하다 100
▁호ᄋ 100
▁따라ᅵ 100
▁도ᄋ네며 100
▁새ᄋ기게 100
▁가ᅳ 100
▁내ᄋ래ᄋ 100
▁자ᄋ며니 100
▁주겨ᄋ기자 100
시ᄃ 100
ᄅ버 100
ᄋ기 100
메서느ᄂ 100
▁바뀌ᅥᄊ 100
▁그래ᄊ잖ᅡ 100
보ᅵ고 100
자ᄀ무 100
바다ᄀ 100
주ᄆ 100
ᅪ도 100
흐며ᄂ 100
시ᄅ지 100
▁ᅥ새ᄀ 100
리카 100
▁나리ᅥ 100
고세 100
사너ᄇ 100
머ᄋ 100
ᄊ느ᄂ데도 100
스트 100
그거 100
하구 100
하ᄇ니 100
▁부ᄅ싸ᄋ 100
▁바다드 100
ᅥ찌 100
떠러지지 100
▁뉴ᅭ기라 100
저리 100
즈으 100
▁미ᄃ느ᄂ다 100
▁바뀌셔ᄊ 100
▁피기 100
싸ᅮ미 100
▁그러시느ᄂ 100
머ᄅ 100
마ᄂ크므 100
ᄂ하게 100
▁뻐 100
ᄀ기 100
베르 100
ᅯᄂ니미 100
라ᄇ 100
ᄀ다 100
계저ᄅ 100
소게 100
▁수서ᄋ고 100
▁드러서며ᄂ 100
▁루르 100
노ᄂ 100
조이 100
머ᄀ느ᄂ데 100
뿌니 100
▁저ᄀ저 100
차벼ᄅ 100
개녀ᄆ 100
다ᄂ지ᅦ 100
수뉘 100
▁나ᄆ다르 100
▁거ᄅ려써 100
▁저ᄋ치저 100
▁무거 100
배ᄆ 100
▁태ᅥ나셔ᄊ 100
스키 100
머ᄀ거리 100
누나느ᄂ 100
▁피ᄅ토 100
▁그ᄀ보 100
녀ᄆ 100
ᅵᄇ니 100
때쯔메 100
노피 100
▁ᅢ드ᄅ마 100
ᅥᄡᅥ서 100
서류 100
터미너 100
▁시흐 100
사자ᄋ 100
기조 100
▁무드 100
▁ᅵ거ᄉ 100
고ᄋ하ᄀ과 100
벼워네 100
내가 100
▁사ᄆ시ᄇ사 100
▁부부니기 100
▁부ᄂ시ᄀ 100
배ᅮ가 100
푸르 100
대표 100
▁프로그래 100
고ᄋ리ᄇ 100
▁해고 100
태ᄀ하 100
▁고하ᄀ녀 100
타ᄇ 100
▁지ᅥᄊ 100
세려기 100
ᅯᄂ도 100
▁ᅵᄅ하다 100
대도 100
호수 100
트ᄅ리 100
▁계시기 100
▁모ᄉ사 100
벼ᄂ해 100
고ᄋ하에서 100
하시더라고ᅭ 100
보려고 100
▁나ᄂ다 100
자리ᅦ 100
▁자ᅯ 100
기ᄆ 100
놔ᅣ 100
▁후까 100
▁ᅡᄂ내하 100
▁시드ᄅ 100
바ᄋ시기 100
▁시ᄂ사 100
파티르ᄅ 100
드ᄋ바ᄂ 100
츠에서 100
ᅮᄂ도으ᄂ 100
ᅲ리 100
세다고 100
▁지ᄇ차ᄀ 100
삐 100
▁나ᅪᄊ더라 100
파ᄂ매르ᄅ 100
▁크더라고 100
저기라서 100
라기보다ᄂ 100
새ᄋ화리라 100
주ᅵᄂ고ᄋ 100
패ᄋ 100
파라 100
▁바뀌ᅥ쓰 100
뚜ᄚᅥ 100
놔써ᅭ 100
꾸ᄆ 100
가바ᄋ 100
마ᄅ고도 100
기과네 100
머ᄅ미 100
되느ᄂ가 100
▁저ᄂ체저 100
사네 100
▁저뭐 100
새ᄋ화레 100
▁저ᄂ저ᄂ 100
ᄆ드ᄅ도 100
수사ᄂ 100
▁저ᄀ그ᄀ저 100
하구나 100
저ᄂ화느ᄂ 100
도아네 100
혜 100
끄티 100
시ᄆ해 100
▁자ᄋ하ᄀ그 100
서ᄅ레 100
고ᄉ 100
ᅥ르ᄂ 100
ᄒ더라고ᅭ 100
버녀ᄀ 100
고ᄋ사ᄂ 100
▁고ᄋ주 100
ᅮᄉ 100
바ᄃ죠 100
가비ᅥ 100
빠지ᄂ 100
▁ᅡᆭ느 100
시ᄂ겨으ᄂ 100
펴에서 100
ᅱ치 100
사ᅣ 100
봐ᄊ거드뇨 100
▁자ᄅ새ᄋ 100
▁노ᄂ다 100
시가ᄂ도 100
ᄋ호하 100
체로 100
ᄋ돼서 100
떼 100
▁ᅧᄋ화라 100
고소ᄀ도로 100
뚜 100
넓게 100
▁소ᄂ니 100
▁많ᅳ셔 100
▁나가써 100
포도 100
모ᄆ 100
캐니ᅥ 100
ᅥᅮ 100
ᅲ나 100
쓰ᅵ 100
하ᄀ새이라 100
마ᅵ 100
꼬ᄀ지 100
▁보냐 100
▁계자ᄋ 100
처ᄀ 100
ᅥ지ᄂ다 100
▁고ᅡ 100
▁내노ᄒ 100
ᄂ구게 100
▁모ᄉ하ᄅ까 100
가ᅮᄂ데 100
초나 100
니ᅥ서 100
매ᄀ주 100
▁주ᄋ시하 100
며ᄎ 100
나서부터 100
기라 100
ᅵ르키 100
켜라 100
▁지저 100
자ᄆ 100
ᅩ브 100
게ᄊ느냐 100
샤 100
사ᅥᄇ과 100
▁ᅧ어하 100
바ᄋ사 100
저의 100
나ᄆ도ᄋ 100
▁흐벼 100
▁ᅥᅭ 100
ᅮᄅ지 100
소그로 100
쏘 100
회르ᄅ 100
하ᄀ새으로 100
ᅮᄀ 100
▁고ᄋ무ᅯ니ᄂ 100
ᅭᄋ거 100
벼ᄀ도ᄅ 100
▁교화 100
노ᄋ자ᄋ 100
워니 100
▁피며ᄂ 100
▁과ᄂ과 100
ᅢ드ᄅ 100
▁사ᄋ과너ᄡ느ᄂ 100
▁도에 100
▁부부니ᅥ 100
호테 100
시더ᄂ 100
▁시저리 100
되ᅥᄊ더ᄂ 100
사라ᄋ 100
▁보ᄀ자ᄇ하ᄂ 100
프라ᄋ 100
다녀ᅣ 100
▁바ᄅ다ᄅ해 100
▁사무소 100
뵈 100
구도 100
▁드리지 100
파ᄀ 100
ᄂ서부터 100
구거르ᄅ 100
디ᅵ 100
떠ᄅ 100
▁ᅩ시ᄇ사 100
며ᄋ도 100
훼 100
밟 100
▁버러져 100
▁주ᄂ다거 100
▁재사 100
미라서 100
바ᄂ차 100
▁추ᄅ자 100
▁대ᄉ 100
ᄇ하고 100
노리도 100
추해ᄋ 100
▁느ᄋ 100
▁끄티ᄂ 100
노가 100
자며느ᄂ 100
쥐 100
▁수바 100
▁지ᅥ써 100
▁거지ᄉ마ᄅ하 100
리라으ᄂ 100
▁나ᅩ게 100
모스 100
▁소ᅯᄂ 100
고ᄅ모ᄀ 100
▁조하하잖ᅡ 100
▁노파져 100
▁가조 100
시기가 100
▁구로구 100
부니ᅥᄊ느ᄂ데 100
ᄆ무 100
페ᅵ 100
주에도 100
해ᄊ지마ᄂ 100
▁무느ᄅ 100
자여 100
▁ᅵ쓰ᄅ까라 100
치느ᄂ데 100
▁차ᄋ자 100
▁찌ᄀ느 100
▁쪼끄마 100
▁거ᄆ소 100
끄ᄆ씨ᄀ 100
부니라 100
ᅵᅲ 100
대게 100
시기ᅦ 100
▁마ᄌ느 100
시피 100
니기 100
모셔 100
▁히ᄆ드ᄅ게ᄊ 100
▁수하겨해 100
▁ᅵ료ᅵᄅ마 100
시ᄂ가 100
ᅦ스ᅦ 100
▁ᅡ니다라 100
후바ᄂ 100
ᅥ쓰ᄅ 100
드러서 100
▁부ᅳ 100
▁노래바 100
차느ᄂ 100
화자 100
부ᄆ 100
▁내ᅵ 100
▁부ᄅ비 100
▁세그 100
ᅮ서 100
시기ᄂ데 100
ᄋ드리 100
켜서 100
▁새ᄋ화 100
시키ᄂ다 100
려ᄊ거드뇨 100
초드ᄋ하ᄀ교 100
그거ᄅ 100
소ᄅ로 100
해져쓰ᄅ 100
부ᄂ드레 100
화ᄅ도으 100
▁저ᄋ기저 100
뿌 100
지도르ᄅ 100
파리ᅦ 100
배ᄅ 100
▁거ᄀ저ᄋ스러 100
하ᄀ자 100
버리ᄂ다 100
▁지혜로 100
▁하시더 100
과수 100
ᅮ나 100
▁츠ᄀ며 100
ᅵ라고 100
▁그ᄇ하 100
▁저지ᄅ 100
▁자조ᄂ시 100
▁새ᄀ까 100
▁치ᄂ구드 100
나비 100
▁세세 100
▁ᅥ드 100
▁자거비 100
▁구리 100
수하고 100
▁봐ᄊ더라 100
▁저ᄋ치가 100
되죠 100
ᅥ쓰며느ᄂ 100
져ᄊ고 100
하ᄋ사ᄋ 100
소나 100
▁ᅩᄋ 100
돼써써ᅭ 100
▁거ᄂ대 100
러ᅭ 100
부ᅦ서 100
▁저니 100
ᄅ코 100
▁ᅵᄅ사ᄂ 100
▁머ᄋ 100
▁추ᄋ겨기 100
자ᄂ 100
ᄂ하다고 100
새이ᄇ니다 100
▁그러세 100
부모니ᄆ드르ᄂ 100
기ᄂ가 100
ᅥ느 100
고ᄂ 100
▁저ᄋ채그 100
ᅥᄡ고 100
▁드ᄅ다 100
가무ᄅ 100
그ᄀ자에 100
자교ᄋ 100
▁두ᄂ다 100
화ᄂ겨 100
벼이 100
ᄅ려써ᅭ 100
▁교차 100
▁지ᄂ지 100
겨ᄋ기자이 100
▁느껴지ᄂ 100
세게 100
노ᄋ사 100
▁호ᄆ페ᅵ지 100
▁부모드ᄅ 100
시ᄀ하고 100
미ᄂ하ᄂ 100
▁ᅵᄇ지 100
ᄒ다 100
새ᄋ드ᄅ 100
▁ᅵᄚ 100
거냐 100
배ᄋ 100
▁ᅵᄅ보ᄂ스러 100
▁져 100
러써ᅭ 100
▁두시 100
부니ᄂ데 100
ᅭ그ᄅ 100
ᄉ보다도 100
▁제가ᄀ가 100
▁카페라드ᄂ 100
리ᅦ서 100
▁사보 100
꿔ᄊ느ᄂ데 100
▁그러시더라 100
▁며ᄋ무니 100
▁서러ᄇ 100
▁서ᄂ새ᄋ니미셔ᄊ 100
구느ᄂ 100
▁내시 100
▁대표저 100
▁시자으 100
스프 100
▁놔ᄊ더 100
▁조끄ᄆ 100
▁서ᄅ교가 100
▁토로 100
ᅧᄊ다고 100
▁계다느 100
▁가더ᄂ 100
ᅧ써ᄊ 100
▁때ᅧ써 100
미ᅥ서 100
쿼 100
▁모모 100
▁과수ᅯ느 100
주시고 100
▁ᅮᅧ 100
▁시ᄂ초 100
ᄅ바 100
ᄒ잖ᅡᅭ 100
▁주자 100
▁모ᄉ하게ᄊ느ᄂ 100
▁새벼 100
▁그ᄇ시 100
▁시끄러 100
▁무ᄂ버 100
▁자보 100
▁벼ᄅ로ᄂ 100
거기서 100
자ᄋ하느ᄂ 100
ᄂ바ᄋ 100
▁거ᄂ추ᄀ하 100
▁ᅥ르시 100
▁ᅡ쉬 100
ᄊ다기 100
그마ᄂ 100
▁며이ᅥ 100
▁드러써ᄊ느ᄂ 100
▁저니ᅥᄊ 100
▁보다느 100
나ᄊ죠 100
▁즈ᄅ거 100
트리 100
ᄋ드르ᄅ 100
▁제대 100
▁치며 100
▁찌ᄅ 100
하니 100
▁소바ᄀ 100
ᅵᄊ느 100
하ᄀ저기ᄂ 100
지ᄂ해 100
ᄂ처 100
▁다ᄋ해 100
▁마시게 100
▁ᅪᄊ느 100
ᄇ하느ᄂ 100
배ᄐ느ᄂ 100
▁ᅴᅯᄂ 100
▁가쓰 100
▁도아 100
파ᅭ 100
▁거ᄆ사하느ᄂ 100
ᅧᄊ지마ᄂ 100
▁ᅱ혀 100
드가 100
거ᄇ 100
리하기 100
▁다ᄂ체ᅦ 100
▁꼬ᄎ가 100
▁무러보느ᄂ 100
▁추ᄋ부ᄂ하 100
ᅮ리ᄂ 100
라ᅧ 100
▁하ᄂ쪼게 100
하기로 100
▁무ᄂ제ᅵ 100
▁치ᄂ하지 100
▁ᅥᄂ더 100
겨기 100
스토리ᅦ 100
▁과모 100
▁햐 100
▁처버 100
▁스크 100
▁고ᄋ토 100
수ᅥ 100
마리ᅦᅭ 100
해ᄋ도 100
▁마시ᄂ다 100
▁바ᄋ하기ᅥ 100
▁디자ᅵ니 100
▁소ᄋ타 100
세스 100
거리며 100
하니까느ᄂ 100
계로 100
▁쳐다 100
사ᄋ저그로 100
해져써ᅭ 100
▁새누 100
▁추ᄅ자ᄋ 100
도이라 100
▁ᅵ부 100
하네ᅭ 100
▁지ᄀ채 100
▁빠ᄅ라 100
▁시즈 100
새ᄋ드리 100
▁그부ᄂ드ᄅ 100
▁드러ᄊ더 100
▁노ᅯ녀 100
▁떠러 100
려하고 100
▁무ᄂ하 100
ᄇ다고 100
거브ᄂ 100
르네 100
교로 100
ᄂ서ᄂ하ᄂ 100
드ᄋ하교 100
려기라ᄋ 100
▁거지ᄉ마 100
▁끄느 100
▁체계저 100
ᄆ대로 100
매ᄂ 100
▁자ᄆ까 100
쪼끄ᄆ 100
시ᄀ지ᄇ 100
ᄇ교르ᄅ 100
▁스ᄅ프 100
▁처ᄆ부 100
ᅨ고 100
이ᅥ서 100
ᄆ보다느ᄂ 100
▁거지ᄉ마리 100
▁하ᄂ다더 100
저리ᅥᄊ 100
돼ᄊ지 100
ᄋ사가 100
▁하ᄀ교ᅧᄊ 100
▁주바ᄋ 100
ᄋ자ᄋ하고 100
▁규치 100
사ᄋ부 100
펴ᄂ차ᄂ 100
▁ᅡᄂ타까 100
▁커ᄂ트로 100
ᅩ셔ᄊ고 100
▁ᅡ피라 100
▁재래 100
끼느ᄂ 100
▁다ᄂ저ᄅ 100
▁나ᅩ지마 100
▁초로 100
내써ᄊ느ᄂ데 100
▁내새 100
▁거ᄅ러 100
ᅥᄆ마 100
▁무ᄂ허 100
쓰니 100
▁초주ᄋ 100
ᄆ미 100
▁다혀ᄅ지ᄅ 100
▁화ᄂ 100
▁차ᅵ나타ᅮ 100
▁쓰ᄅ데 100
▁체ᅲᄀ과 100
그므ᄂ 100
▁지ᄂ과ᄂ도 100
드ᄅ하고ᅴ 100
▁노ᄋ다 100
주ᄋ후 100
▁포ᄀ려ᄀ 100
▁구겨 100
▁ᅵᄂ저ᄇ 100
▁지ᄀ저 100
지스 100
▁추ᄋ겨ᄀ 100
끄미 100
스러ᄇ고 100
ᄑ고 100
▁ᅰᄂ마ᄂ 100
▁ᅳ워 100
▁고여 100
▁노무혀 100
▁배ᄀ파ᄅ 100
▁ᅳᄆ서ᄋ하 100
ᄋ사나 100
▁퇴그 100
자ᄂ치 100
▁ᅲ하ᄀ새ᄋ드 100
▁ᅲ니버서 100
▁나라드ᄂ 100
거느ᄅ 100
사거ᄂ 100
▁무ᅧᄀ 100
▁크ᄅ러 100
▁추ᄋ부 100
사ᄆ처ᄂ 100
치ᅮᄂ 100
드ᅱ 100
▁ᅮᄆ지 100
초니ᅥᄊ 100
▁ᅵ저버 100
▁지바혀 100
▁레베 100
계회 100
▁ᅡᅵ스크리 100
▁ᅬ추 100
▁시너 100
▁부ᄂ꼬 100
▁나써 100
▁ᅩᄅ리ᄂ 100
보이라 100
부ᄂ서ᄀ 100
ᅥᄇ체 100
▁허허버ᄅ파 100
▁거ᄂ추 100
토그로 100
▁가까 100
ᄀ사니니 100
▁귀하 100
사ᄆ배ᄀ 100
▁ᅱ스코ᄂ시 100
ᅵᄂ드 100
대기르ᄅ 100
▁구서워 100
▁ᅦᅥ커 100
▁처ᄋ계사 100
▁ᅡ지ᄀ까 100
ᄀ매 100
과ᄂ도 100
교ᅦ서 100
▁시스테 100
▁사추ᄂ 100
드려ᄊ거드뇨 100
▁ᅲ재서 100
파ᄅ리 100
▁바ᄅ레리 100
ᅭ이니 100
▁투지 100
▁ᅨ체느 100
▁푸ᄅ타ᅵ 100
카르 100
▁구ᄀ무ᄂ하ᄀ과 100
▁사나ᄀ 100
▁저ᄂ무ᄂ화 100
사ᄂ지 100
ᄉ드 100
비거드뇨 100
저ᄋ저기지 100
티ᅦ 100
ᄂ제ᅧᄊ느ᄂ데 100
▁무ᅦ 100
르잖ᅡᅭ 100
▁ᅣ으 100
▁ᅧᄋ무ᄂ 100
▁가쓰니 100
미사 100
▁체ᅵᄂ 100
▁토ᄋ시 100
겨ᅣ 100
▁미개보 100
▁주ᄂ비하ᄂ 100
▁화료 100
▁수ᅧᄋ자 100
▁ᅥᄂ로 100
하ᄀ녀 100
▁서ᄋ겨기고 100
▁서초 100
▁스토 100
▁조끄 100
▁드ᄅ잖ᅡ 100
▁도라가ᄂ 100
▁ᅮᄉ기느ᄂ 100
▁마ᄋ하ᄂ 100
쳐쓰니까 100
ᄅ지그로 100
▁ᅥᄅ마짜 100
▁거ᄆ새 100
▁모ᅵ메 100
▁주ᄋ소 100
▁배ᅭᄋ 100
매ᅵ 100
대ᅧ서 100
▁자시ᄀ드ᄅ 100
▁화ᄀ시 100
▁겨여ᄋ하ᄀ 100
▁ᅵᄅ주ᅵ 100
▁테스 100
▁저ᄋ화 100
▁파ᄂ매하기 100
▁과저에 100
▁몫 100
페서 100
▁ᅧ녜 100
▁ᅡ버니ᄆ께 100
▁ᅵ써ᄊ스ᄇ 100
해지느ᄂ 100
▁쳐ᄊ다 100
ᄑ 100
터가 100
▁마차ᄂ가 100
▁부녀 100
기며느ᄂ 100
리라드ᄂ 100
▁크ᄅ래 100
▁까ᄅ끄 100
▁허마 100
▁떠러뜨 100
▁펴ᄂ차 100
▁대저 100
ᄅ하대ᅭ 100
▁드라 100
▁ᅡᄂ되게ᄊ 100
▁도주 100
▁하늬ᅯ 100
▁ᅡ시ᄅ 100
▁기보 100
▁지거ᄇ구니 100
▁ᅡ기자기하 100
지ᄉ구 100
모ᄀ하고 100
▁서ᄅ드 100
▁캐ᄆ 100
▁서ᅲ러 100
▁바다ᄉ 100
▁조하하느 100
ᄉ해써ᅭ 100
▁바아느 100
▁바ᄀ무ᄅ과 100
뉘 100
▁ᅩ더라 100
ᅰᅵ 100
▁스ᄇ드 100
▁바ᄋ버 100
ᄀ하며느ᄂ 100
ᅮ지 100
그ᄇ저기 100
▁머그며 100
▁짧ᅳ 100
▁나머 100
▁무스 100
ᄆ드리나 100
처ᄋ해 100
▁토ᄋ시ᄂ비 100
▁귀ᅧ 100
떠ᄒ다 100
요 100
ᅵᅪ 100
ᄋ해ᄊ거드뇨 100
▁초ᄉ부 100
여ᄂ하 100
▁빼노ᄒ 100
▁파뤄 100
무ᅯ니 100
▁찌그며 100
바다라 100
▁계소 100
▁띠 100
부ᄂ하ᄂ테 100
▁무너 100
스러ᅮ 100
스러ᅮᄂ데 100
▁시ᄅ지ᄅ 100
▁저ᄌ소 100
봐써ᄊ거드뇨 100
러ᄒ다 100
▁피ᅡ니스트 100
▁프레ᄂ 100
▁ᅬ하라버지 100
려ᅯᅭ 100
ᄡ다 100
▁저ᄇ모ᄀ시 100
저미라ᄋ 100
▁추ᄀ하하ᄂ다 100
ᄀ돼ᄊ다느 100
▁ᅲ흐ᄋ가 100
▁시ᄆ사 100
▁괘ᄂ찮더라 100
우 100
▁가라ᅵᄇ 100
▁추ᄆ추 100
▁ᅯ니라 100
▁ᅩᄅ케 100
려놔 100
그저께 100
버지도 100
뮤 100
▁서라ᄀ사 100
쳐져 100
▁포하 100
▁자ᅲ로ᄇ 100
▁ᅡᄂ쓰러 100
ᄋ채그ᄂ 100
▁가ᄋ나며게 100
▁재미ᄊ더라고 100
▁과ᄂ하 100
꿔ᅣ 100
▁ᅦᄅ리베ᅵ 100
▁트ᄀ화 100
▁해써ᄊ잖ᅡ 100
▁ᅱ허ᄆ해 100
녀ᄊ고 100
유 100
야ᄋ 100
▁무꺼 100
▁추ᄅ퇴 100
티르ᄅ 100
▁드ᄅ더라고 100
▁도더ᄀ 100
▁재거ᄂ추 100
▁리모데ᄅ리 100
▁ᅩ피스 100
과모그 100
▁ᅡᄇ구저 100
▁괴로ᄇ 100
▁저눠ᄂ주태 100
▁ᅥ머니께 100
▁가ᄐ스ᄇ니 100
▁피료하니 100
▁ᅧᄂ녀ᄂ새 100
▁지그ᄆ처러 100
▁터미 100
▁시ᄂ부ᄂ즈 100
교하고 100
▁ᅵ며ᄋ바 100
▁ᅡᄅ게ᄊ스 100
끄러ᅯ서 100
▁사ᄆ처ᄋ도 100
▁부치ᄆ 100
시게ᄊ 100
ᄋ패 100
▁초기ᅦ 100
▁ᅩ버타ᅵ 100
▁다녀ᅪ써 100
ᄂ화시키 100
까뇨 100
효 100
▁지지ᄅ하ᄀ 100
▁조저ᄋ리 100
붜ᄂ 100
튜 100
▁가ᄆ사하ᄇ니 100
▁ᅯᄅ드커 100
▁ᅡᄂ녀ᄋ하 100
뎌 100
ᄋ새이라 100
▁구ᄀ무ᄂ하ᄀ 100
뤄ᄂ 100
켜ᄊ 100
ᄅ퇴그ᄂ 100
예 100
춰지 100
▁다혀ᄅ 100
▁쿠ᄋ콰ᄋ 100
춰서 100
끄ᄉ해써 100
▁바ᄋ배도 100
뙤 100
오 100
외 100
▁ᅪ쓰니 100
쿠ᄋ짜ᄀ 100
▁커뮤니 100
▁훠ᄅ 100
긁 100
꿰 100
떄 100
먀 100
뵤 100
붉 100
뷔 100
뼈 100
셰 100
싀 100
와 100
이ᅥ쓰 100
주부ᅵ 100
짢 100
쩨 100
츄 100
츼 100
콰ᄋ 100
쿠ᄋ짜기 100
틔 100
▁사그라드 100
뤼 100
봬 100
갉 100
▁다ᄋ화ᄋ스러 100
ᅵ셔ᄂ 100
러ᄋ거리 100
▁부조 100
▁거ᄂ너펴 100
▁가ᄆ사하ᄇ 100
▁보ᄋ처 100
▁흐ᄂ드ᄅ 100
▁ᅣ유 100
▁모르잖ᅡ 100
프셔 100
▁도ᄋ그라 100
어ᄅ거리 100
▁구ᄋ그ᄆ해 100
바게트 100
스요ᄋ 100
▁해쓰며 100
▁쓰더라고 100
▁ᅡᄅ게ᄊ스ᄇ 100
프ᄅ러스 100
페ᅵ스 100
대하시 100
▁ᅵ래ᄊ느ᄂ 100
▁류스 100
써쓰ᄅ까 100
▁나ᅩ잖 100
▁히ᄆ드ᄅ잖 100
▁조ᄂ주 100
ᅱ터 100
▁ᅥᄡ잖 100
레ᅵ터 100
▁ᅩᄀ수 100
▁ᅡᅵᅥᄂ 100
▁카카 100
태ᄀ하라 100
▁무ᄂ래도 100
▁겨ᄋ희대 100
▁되느 100
케ᄉ 100
▁파ᄅ시비 100
▁많ᅳ세 100
쯔므ᄂ 100
▁마ᄌ스ᄇ 100
▁터ᄉ 100
▁ᅪᄋ보 100
▁미수리 100
▁가ᄐ더라고 100
▁시자ᄀ해써 100
티브 100
▁자ᄅ하세 100
▁ᅭ즈 100
▁미뉴 100
하ᄀ과ᅧ서 100
▁ᅡᆭ잖ᅡ 100
테ᄂ 100
▁트ᅱ 100
▁사뮤 100
래포 100
▁계시더라 100
스커 100
▁ᅳ요 100
▁가ᄋ르 100
▁ᅧᄂ녀 100
▁나ᅪᄊ다느ᄂ 100
▁꼬바ᄀ 100
▁수ᅯ녀 100
▁ᅴ조 100
화이라 100
▁최대 100
▁스튜ᅥ 100
프ᄅ레 100
귀지 100
모니ᄆ 100
▁스카 100
프트 100
▁구거교 100
그ᄂ혜 100
▁사라ᄆ드레 100
▁해ᄊ스 100
부ᄅ노리 100
게ᄊ네 100
ᄀ차고 100
▁많잖ᅡ 100
▁괘ᄂ찮더라고 100
▁ᅬ도ᄋ 100
▁조러ᄇ해ᄊ 100
겨ᄀ저기 100
▁나르ᄆ대 100
▁그러ᄒ잖ᅡ 100
▁저ᄂ체저그 100
▁가ᄐ스ᄇ 100
▁모므 100
드라드 100
찌ᄇ 100
▁조ᄒ더라 100
채이 100
▁자ᄋ래 100
▁고츠으 100
▁스리ᄅ 100
▁그래써써 100
자교이 100
▁다ᅵᅥ 100
▁서ᄋ취가 100
▁내서ᄋ저기ᄂ 100
▁해쓰니 100
혀이ᄂ데 100
▁ᅵᄊ스ᄇ 100
자ᄋ니미나 100
구거ᅦ서 100
▁ᅡᄅ바새 100
▁보ᄀ수 100
부하라 100
아ᄋ 100
드러지고 100
머니나 100
처에 100
려다보며ᄂ 100
ᄂ려ᄂ 100
▁ᅡ니ᅥ써 100
ᅧ라 100
ᄅ러스 100
▁많더라 100
ᄋ까 100
▁펴에 100
토리도 100
▁파겨 100
자ᄀ해 100
타에서 100
부ᄂ드리라ᄋ 100
후라 100
▁그ᄂ래 100
▁느껴써 100
뉴리 100
▁추ᄋ다 100
타ᅮᄂ 100
▁추ᄅ그 100
▁쓰셔 100
▁구체 100
처레 100
래ᅣ 100
▁레미 100
▁사ᄂ소 100
▁ᅩ며 100
▁치ᄋ구 100
ᄉ대 100
▁피ᄅ리피네 100
토라ᄋ 100
▁수ᄅ지ᄇ 100
▁ᅡᆭ더라고 100
▁자그나 100
미ᄊ 100
도ᄀ주 100
▁ᅡ니ᅧ 100
▁사ᄅ짜 100
▁해ᄋ사드 100
▁ᅵᅥ져 100
▁바ᄅ저ᄂ해 100
ᄅ러ᄊ다 100
찮게 100
▁ᅡᄂ저ᄋ서 100
▁버티다 100
떠ᄒ게 100
재자 100
ᅥ져쓰 100
ᄂ체ᅦ 100
희나 100
료이 100
ᄅ리니 100
려이 100
▁ᅲ흐 100
흐ᄇ 100
▁저ᄅ치 100
▁구머 100
▁가써써 100
표ᅦ 100
구ᄀ시 100
모구 100
ᄀ시ᄅ 100
녀ᄋ 100
▁고워네 100
▁초주 100
카프 100
▁교ᅲᄀ저기 100
▁ᅡᆭᅳ니 100
뜨리게 100
▁구스ᄅ 100
▁노ᄋ미 100
▁수ᄀ기 100
▁ᅡ니ᅥᄊ거 100
▁ᅵᆰᅳ며ᄂ 100
▁ᅥᄡ더라고 100
▁ᅲ해 100
▁드러ᅪᄊ느ᄂ 100
루스 100
▁도ᄅ며ᄂ 100
▁다ᅳ므로 100
기ᅥᄊ거드뇨 100
▁태모이ᄂ 100
▁마ᄂ크 100
머니 100
▁사라ᄆ드리잖ᅡ 100
▁드ᄋ그 100
저ᄋ하게 100
▁고소ᄀ 100
▁거ᅧᄊ느ᄂ 100
▁시ᄀ서 100
다여 100
▁시ᄅ지ᄅ저그 100
▁ᅧᄋ무ᄂ하 100
▁모르게ᄊ네 100
▁저ᄋ치사 100
ᅮ레서 100
ᄇ하기 100
트포 100
대하다 100
겨ᄊ 100
거리며ᄂ서 100
▁마포 100
ᄀ지사 100
▁미ᅧ 100
▁주잖ᅡ 100
ᅥ려쓰ᄅ 100
▁가워ᄂ 100
▁녀서 100
▁사라미잖ᅡ 100
니미나 100
▁무ᅧ 100
끼며ᄂ 100
▁저ᄆ부 100
ᄆ포 100
▁치ᄂ구드ᄅ로 100
▁w 100
껴ᄊ고 100
ᅡᅵ니 100
거리다 100
▁ᅩ래ᄉ 100
새에게 100
▁비ᅲᄅ 100
▁머ᄀ다 100
▁노리터ᅦ 100
▁재미ᅥᄡ다 100
ᄀ하다 100
▁바ᄅ레다 100
시뇨 100
자ᅩ 100
▁시자에 100
니미기 100
디ᅦ 100
▁하ᄀ스 100
▁ᅡ니더라고 100
▁ᅭ이네 100
ᄋ저ᄀ 100
ᄂ하ᄂ테 100
회보ᄀ 100
▁저ᄋ차 100
ᄇ히고 100
▁미수ᄅ과 100
ᄉ드ᄅ 100
부ᄂ해 100
구ᅪ 100
▁보내느 100
▁해ᄊ지 100
▁지내시 100
▁ᅧ자라 100
▁캐 100
ᄀ터 100
▁구ᄀ내ᅦ 100
▁ᅡ니잖ᅡ 100
모ᅴ 100
▁주고바ᄃ 100
▁ᅳ무ᄂ 100
▁벼ᄀ도 100
미셔 100
꾸려 100
▁그러더라 100
주태그ᄂ 100
희하ᄂ 100
▁주더라 100
▁코ᄋ 100
고ᄋ겨 100
▁시ᄋ그 100
▁크더 100
어ᄇ 100
디ᅥ 100
자드르ᄂ 100
▁되게ᄊ지 100
▁ᅧᄅ시 100
▁체ᅵᄂ저 100
써ᄊ지 100
▁주이ᄂ 100
거지ᄉ 100
▁조바 100
새ᄋ하고 100
▁ᅴ미ᅦ 100
러스 100
▁나서부 100
▁ᅥ떠ᄒ게써 100
류하ᄂ 100
▁주겨 100
▁며ᄎ며 100
마느로도 100
모ᄀ고 100
▁주자ᄋ하 100
라스 100
▁고스 100
포느로 100
▁하게써 100
▁노ᄋ사지 100
▁저ᄋ도ᅵᄂ 100
께서도 100
도라보 100
ᄂ다더ᄂ 100
가ᄅ려 100
교ᅲ기라드ᄂ 100
▁교사로 100
서ᄂ하고 100
ᄀ지 100
▁매려그 100
구하ᄂ다 100
대ᅧ 100
ᅯ녀기라 100
드시더라고ᅭ 100
ᅦᅦᅦᅦ 100
바ᄋ그ᄆ 100
화시키려 100
ᄇ하ᄂ데 100
▁도시ᄆ 100
▁치ᄂ구드리라 100
▁거ᄅ까 100
끄ᄆ마ᄂ 100
▁미ᅡ 100
나가시며ᄂ 100
처네 100
ᄀ후 100
▁ᅡᄅ며ᄂ 100
ᄋ시ᄅ 100
치미 100
며ᄋ해서 100
▁그러ᄒ게ᄊ 100
꾸며 100
그니까 100
저기잖ᅡᅭ 100
▁저ᄂ바ᄂ 100
▁조하하니 100
써느 100
바ᄀ하ᄂ 100
▁하ᄀ과ᅦ 100
허버 100
▁사ᄋ태ᅦ 100
▁해ᅬᅧ해으 100
▁ᅢ드리ᅦ 100
▁ᅵ써ᄊ지 100
▁ᅵᄊ게ᄊ지마 100
ᅵ너 100
ᄋ가네 100
▁나ᅪᄊ고 100
하ᄇ서ᄋ 100
▁시기ᅥ 100
▁추ᅡ 100
디ᄂ데 100
ᄅ레ᄀ 100
▁보호자 100
▁부ᄅ고 100
주ᅵᄅ마 100
니셔써ᅭ 100
사초 100
▁바네다 100
▁하ᄅ머 100
▁회ᄋ 100
니ᅥᄊ지마ᄂ 100
▁배ᅮ며ᄂ 100
▁가ᄅ드 100
ᄀ보다 100
▁그ᄆ바 100
▁저쪼게 100
두이 100
▁저희끼 100
▁하ᄂ자 100
▁피ᅡ 100
ᅡᄊ고 100
▁조ᄒ게ᄊ느ᄂ 100
▁뉴스ᅦ 100
▁가ᄇ자 100
ᄇ겨ᄀ하 100
저ᄋ시ᄀ 100
대잖 100
▁ᅵ쓰시고 100
▁고소 100
대ᅴ 100
▁차ᅵᄂ데 100
▁크리 100
서ᄅ사 100
마ᅦ서 100
▁시끄 100
▁ᅰᄂ마ᄂ하며 100
녀가 100
구ᅵᄇ 100
▁ᅦᄅ리 100
▁ᅧᄅ과 100
다ᄋ하다 100
▁시ᄂ부ᄂ 100
타니 100
ᄂ드레 100
지느 100
▁ᅵ무ᄂ도 100
시레 100
▁모ᄀ사 100
냐이 100
시ᅦᅭ 100
채그로 100
포구 100
주ᄋ고드ᄋ하ᄀ새ᄋ 100
▁거ᄅ리거드 100
▁타ᄆ 100
▁ᅡ주ᄆ 100
▁최ᅮ 100
게ᄊ구나라 100
▁시ᄚᅥ하ᄂ 100
ᅡ드 100
▁조교드ᄅ 100
▁싸기 100
▁지ᄂ그 100
마ᄋ하기 100
하자며느ᄂ 100
▁파라ᄂ 100
바기ᄂ 100
ᄂ짜리 100
▁저너 100
트ᅦ 100
▁ᅯᄂ자 100
▁나셔 100
ᄋ드 100
▁자ᄋ다 100
▁쓰러지 100
고ᄅ드 100
▁바ᄋ과 100
▁되더ᄂ 100
▁지베레 100
▁모데 100
토리 100
▁가리키시 100
네다가 100
ᄀ시 100
구거과 100
▁저ᄀ고 100
태로 100
▁ᅡᅵ라 100
▁ᅲ니 100
▁지나다 100
려게 100
▁저ᄂ보 100
이ᄅ 100
▁ᅡ파트라 100
무ᄅ려 100
겨ᄅ하 100
비ᄂ데 100
▁깨다 100
녀니ᄂ데 100
하겨ᄂ 100
사ᄂ하고 100
주태그ᄅ 100
▁ᅮᄆ 100
해ᄊ느 100
ᅵ터가 100
러ᄊ더ᄂ 100
▁ᅳ르 100
▁뭐해ᄊ 100
빠라 100
쓰시ᄂ가 100
▁다ᄋ다ᄋ 100
▁지거브 100
ᅧ니 100
▁사ᄅ지 100
마케 100
▁사ᄆ부 100
싸더라고ᅭ 100
교ᅲᄀ 100
▁하세 100
▁하ᄋ사ᄋ서 100
ᄂ거로 100
봐쓰니 100
파ᄅ시ᄇ사 100
▁고드ᄋ하 100
드리라 100
호르 100
ᅵ저 100
ᅡ지느ᄂ 100
▁고ᄋ리 100
▁자자 100
도ᄋ저그로 100
▁도시ᅦ 100
ᄆ싸 100
▁모라 100
고ᄋ해 100
▁ᅵᄅ조 100
시리라 100
▁호ᄆ 100
비하고 100
끼거드뇨 100
코ᄂ 100
다투ᄆ 100
태가 100
▁추ᄅ시ᄂ드 100
▁ᅭᄋ도니라 100
기세 100
▁가르치시 100
▁서르 100
래ᄀ 100
끼느ᄂ데 100
ᄂ하 100
▁노리도 100
▁소화 100
▁지ᄇ하 100
▁바느 100
미죠 100
▁모르게ᄊ지마 100
▁대자ᄋ 100
서ᄀ도 100
▁모리 100
비며ᄂ 100
흐세 100
교ᅲ그로 100
▁지궈ᄂ부 100
▁수저 100
ᄆ하ᄂ테느ᄂ 100
▁시ᄚᅥ하거드 100
▁ᅵᄅ하며ᄂ 100
두ᄀ 100
어도 100
계느ᄂ 100
테ᄅ 100
ᄀ푸므 100
▁그리며ᄂ 100
▁자ᅧ어 100
스크리 100
▁비하 100
교ᄂ데 100
▁사니라 100
마서 100
ᅡᄊ 100
ᅵ그ᄅ 100
ᅵᄂ데도 100
버ᄂ호르ᄅ 100
ᄂ트르ᄅ 100
취해서 100
ᄋ소ᅦ 100
▁누나ᄂ 100
▁빠져써 100
녀ᄂ쯔ᄆ 100
▁무ᄅ로 100
▁치ᄋ 100
ᄆ브ᄅ 100
가더라고ᅭ 100
서ᄋ하 100
스테 100
ᄆ겨서 100
자ᅦ 100
저ᄂ나리 100
▁그쯔 100
▁따ᄆ나 100
ᅮ르ᄂ 100
내로 100
▁가ᄆ시 100
니하 100
하ᄇ바ᄂ 100
▁나ᄆ녀고ᄋ하 100
▁구ᄂ대ᅦ 100
ᅮ시느ᄂ 100
저그로나 100
가시며ᄂ 100
▁부모니ᄆ하ᄂ 100
▁ᅮᄂ저느 100
▁ᅵ리ᅥᄊ 100
▁또ᄀ가트 100
ᄋ미 100
▁ᅩ자 100
기구나 100
더더 100
ᄀ저ᄅ 100
▁버ᄀ 100
▁ᅧᄑ바 100
▁세ᅵ 100
▁주ᄋ하 100
새이고 100
▁나ᄆ하ᄂ 100
보ᅦ 100
▁ᅥ초 100
차자이라 100
씨라 100
트ᅧ 100
대구거 100
▁ᅩᄇ 100
▁수시ᄂ 100
▁나ᄇ 100
▁가ᄊ느ᄂ 100
▁모스브 100
자ᄋ사가 100
▁떠드 100
▁계ᅣᄀ 100
▁ᅧᄆ 100
ᅯ도 100
하ᄇ바느ᄂ 100
▁보ᄋ 100
대서ᄋ 100
▁조하해ᄊ거드 100
고어 100
▁노ᄅ다 100
▁무고 100
ᄂ무ᄅ 100
▁소그 100
▁가타쓰며 100
보디 100
주이ᄂ 100
줘라 100
▁케ᅵ스ᄂ 100
ᄀ빠 100
ᄋ치느ᄂ 100
ᄇ니다마ᄂ 100
나ᄆ도 100
▁자ᄀ다 100
▁ᅵ러니 100
ᄀ지마ᄂ 100
▁ᅡ니더 100
자리ᅦ서 100
▁그러더ᄂ 100
▁지자 100
▁ᅳᄋ그 100
▁마ᄂ드느 100
▁그ᄀ 100
▁저ᄋ거 100
▁그러시더 100
소기나 100
▁대라 100
▁ᅨ주ᄋ 100
▁저마 100
▁마ᄂ드ᄅ거드 100
거치 100
▁시러 100
니ᅥᄊ느ᄂ 100
주네 100
▁바니ᄂ 100
이죠 100
ᄆ서ᄀ 100
ᄅ마 100
▁바다ᄊ거드 100
세지 100
▁가ᄐ더 100
저ᄋ서ᄋ 100
느리ᄂ 100
시드ᄂ 100
▁서ᄂ새ᄋ니ᄆ드 100
며ᄋ바ᄀ 100
▁배다 100
대무ᄂ 100
베ᅵ 100
▁해비 100
ᅡ래 100
ᅡᄊ지 100
과네 100
로보 100
▁ᅡᆭᅡ써ᄊ 100
▁저리ᅥ 100
뤄ᄅ 100
하며ᄂ서부터 100
▁그ᄇ시그 100
구네 100
기더라고ᅭ 100
ᄆ더 100
저ᄅ제 100
▁가드ᄂ 100
▁부ᄂ서 100
▁화ᄅ도ᄋ하 100
▁사ᅯ 100
저ᄂ무ᄂ하ᄀ 100
타라 100
▁다ᅮ 100
▁배ᅮ시 100
▁데ᅵ 100
▁가벼ᄇ 100
펴ᄂ하다 100
▁바ᄐ 100
▁고ᄅ모ᄀ 100
퍼서 100
▁그냐 100
퍼ᅭ 100
니지 100
▁모스 100
▁ᅮ서 100
ᅡᄅ고 100
ᄀ사하고 100
다며 100
▁ᅬ구기 100
ᄂ처ᄂ 100
드ᄂ데 100
머ᄀ고 100
모ᄉ해ᄊ다 100
▁모ᄀ도 100
▁도리 100
▁ᅥ겨 100
▁수지 100
ᅵ크도 100
▁치니 100
▁지드ᄅ 100
▁리디 100
미니ᅦᅭ 100
▁치며느 100
▁짜ᄅ 100
▁ᅩᄅ라ᅪ 100
나며ᄂ 100
▁수ᄉ 100
펴이ᄂ 100
▁사사 100
보허미 100
▁지나ᄅ 100
▁씨ᄇ 100
펴ᄂ하지 100
ᄀ자에서 100
ᄆ새 100
▁도기 100
수나 100
▁무ᄅ고 100
▁봐ᄊ거드 100
처ᄂ도 100
ᄅ고비 100
ᅡᄀ마 100
▁ᅵ태 100
ᄂ주 100
과ᄂ녀 100
▁ᅡᄀ수 100
▁나ᄆ자부 100
▁ᅵᄂ거 100
르ᄆ바 100
▁나니 100
해이 100
고ᄅ 100
느ᄂ지도 100
사ᄇ 100
▁바ᄂ저 100
▁배거 100
무소 100
ᄋ치며ᄂ 100
라ᄀ사니 100
배ᄉ 100
▁대바 100
게ᄊ스ᄇ니다 100
기하 100
▁주저 100
▁가드 100
▁기수ᄀ 100
째ᄂ 100
▁시ᄂ서 100
▁ᅡ르 100
나쓰 100
주지 100
도ᄋ사네 100
히며느ᄂ 100
로그 100
ᄋ하ᄀ새이ᅥ 100
바르ᄂ 100
▁페ᅵ 100
기자ᄋ 100
써라 100
▁토ᄋ자 100
▁드러주 100
▁제리 100
▁조거 100
ᅵᄂ부ᄂ 100
▁해ᄊ지마 100
▁느러ᄊ 100
녀써 100
까ᄅ 100
▁ᅵᄅ해 100
▁자라ᄋ 100
ᄅ머 100
▁ᅵ러기 100
▁내녀느 100
▁ᅣᄋ재ᅧ 100
마게 100
▁거ᅮ 100
▁모시 100
ᄂ회 100
기ᅦ다 100
나ᄆ자 100
프리ᄂ 100
▁ᅮᄀ 100
▁ᅨ스 100
▁고르 100
자이ᄂ 100
ᄋ비 100
▁해ᄋ도 100
▁차벼 100
뭐ᄂ가 100
▁따져ᄊ 100
가려고 100
▁도ᄋ바 100
구하며ᄂ 100
로그ᄅ 100
새ᄋ겨ᄊ다 100
▁하ᄇ바느 100
▁추ᄋ겨기ᅥ 100
부텨 100
저ᄆ까지 100
▁부ᄅ싸ᄋ하 100
나ᅩᄂ 100
▁고야그 100
▁걔네드 100
가트ᄂ데 100
두그 100
▁ᅢ드ᄅ하ᄂ 100
▁초드ᄋ하ᄀ새ᄋ드 100
▁ᅥ하 100
▁수ᅯ느 100
▁도ᄋ네마 100
▁써써 100
▁ᅱᄂ 100
ᅥ쓰ᄅ까 100
▁바ᄂ차 100
부ᄂ하고 100
▁저ᄂ해 100
▁무ᄅ과 100
▁사리브 100
▁그라 100
ᄂ호르ᄅ 100
▁데다 100
시구나 100
▁캐니ᅥ 100
▁ᅡᄂ겨 100
▁프라 100
도ᅮ 100
끼게 100
▁치ᄅ파 100
니ᄂ드리 100
▁ᅥᄂ제ᄂ 100
ᄀ대 100
매ᅣ 100
나ᄊ다고 100
▁미러부 100
▁저리ᅥᄊ 100
키느ᄂ 100
ᄋ처ᄋ 100
드리ᅦ 100
도ᄋ네ᅧ 100
▁ᅡ차 100
싸죠 100
▁과도 100
ᄇ겨 100
미미 100
ᄂ서 100
▁교화ᄂ 100
소ᄂ 100
ᄂ하ᄅ 100
ᅲ부 100
ᄂ해지기 100
▁써ᄊ 100
ᄂ푸ᄋ 100
▁수ᅥ 100
▁혀ᄂ그므 100
지나ᄂ 100
하시더라고 100
드러ᄊ죠 100
구기 100
보토ᄋ 100
히느ᄂ 100
채ᄀ하고 100
드리니 100
▁ᅭ거느 100
▁새ᄋ화리라 100
니셔ᄊ거드뇨 100
▁ᅪ써ᄊ 100
▁치ᄂ저ᄅ 100
무ᄅ고 100
▁세다 100
▁마ᄂ지 100
▁기과네 100
▁차서 100
리해 100
기하고 100
시ᄆ하고 100
▁바ᄋ사 100
▁베푸ᄅ며 100
▁ᅵ뤄ᄂ도 100
▁봐주시 100
드러ᄊ다 100
보게ᄊ다 100
버려ᅭ 100
▁프로그래므 100
▁ᅵ지 100
ᄂ하니까 100
ᄂ져 100
시키기 100
ᄅ까라고 100
▁ᅵᄊ네 100
떠ᄂ 100
부터ᄂ 100
▁트ᄀ서ᄋ 100
주ᅴ저기 100
▁ᅭᄋ도 100
ᄇ과 100
ᅮᄅ리느ᄂ 100
허니 100
ᅮᄂ하고 100
까ᅵ 100
리ᄇ저기 100
도ᄋ화 100
▁푸ᄅ려ᄊ 100
▁며으 100
무러 100
나타 100
ᄅ라느ᄂ 100
▁시자ᄀ하며 100
회ᄀ 100
▁내게 100
▁시ᄅ처 100
드ᄅ며ᄂ 100
끼리느ᄂ 100
▁고지 100
ᄀ씨ᄀ 100
계라 100
드려ᅣ 100
▁고ᄋ도 100
▁해서ᄀ 100
▁ᅫ냐하며 100
ᄅ자ᄋ나ᄂ 100
래ᄊ더니 100
다ᄂ과 100
부다 100
▁시흐ᄋ 100
▁저ᄋ다 100
▁차ᄆ서 100
가려며ᄂ 100
ᅣ마ᄂ 100
▁꾸미ᅥ 100
ᄅ려ᄀ 100
ᄂ스 100
가라느ᄂ 100
ᄅ타리 100
해써써 100
지다 100
▁타ᄇ 100
▁다쳐 100
▁ᅨ사으 100
소ᄅ지ᄀ히 100
구ᄀ저 100
▁ᅢ겨 100
ᄋ시미 100
스드 100
▁많ᅡ져 100
▁버ᄂ까지 100
기ᄉ 100
▁거더라 100
▁ᅵ러나느 100
▁보내ᄊ 100
▁지하처르 100
▁ᅵᄀ수ᄀ해 100
하키 100
ᅥᄆ처ᄋ 100
리더라고ᅭ 100
▁호ᄅ 100
▁과처느 100
구거ᅦ 100
로ᅣ 100
교ᅦ 100
▁로ᄅ 100
▁며ᄋ화ᄀ 100
ᅩ더래ᅭ 100
소고 100
▁대토ᄋ려ᄋ부 100
호ᄂ하ᄂ 100
히ᄅ 100
▁저메 100
커리 100
▁고ᄅ모 100
더서 100
ᄉ지비 100
▁펴니거드 100
▁베ᅵ 100
미르ᄅ 100
ᄀ보ᄀ 100
ᄂ혀ᄋ 100
벼ᄂ 100
ᄂ퇴 100
▁다녀써ᄊ 100
▁다ᄂ시 100
ᅲ기고 100
때도 100
치ᄂ구드ᄅ 100
나ᄊ다 100
배드ᄅ 100
▁하ᄇ니 100
기ᅣ 100
▁도야 100
ᄂ하지 100
▁부ᄂ시ᄀ저 100
시ᄀ비가 100
저에서 100
▁희 100
ᅮ느ᄂ데 100
나빠 100
▁시느ᄂ 100
쓰라고 100
▁지ᄂ도 100
드리ᅦᅭ 100
▁하기ᄅ 100
ᅥ져ᅣ 100
겨우ᅦ느ᄂ 100
▁ᅥ구 100
▁태모이라 100
▁가ᄆ며 100
라드 100
쓰니까느ᄂ 100
▁두리ᄂ 100
드ᄂ다느ᄂ 100
▁교ᅲ기ᅥ 100
프레 100
▁하ᄋ고 100
ᅡ니ᅭ 100
▁되려 100
회자으 100
▁자ᄋ도 100
드러ᄊ고ᅭ 100
고파 100
ᄅ기가 100
▁자ᄋ나 100
리라 100
▁자거ᄇ시 100
비시 100
ᄂ구기 100
▁주ᄋ도ᄀ서 100
기드 100
▁처ᄅ드 100
부하고 100
셔ᄊ스ᄇ니다 100
▁트ᄀ서 100
ᅵ써ᄊ거드뇨 100
ᄅ하며ᄂ서 100
ᅵᅦ게 100
▁ᅵᄇ자으 100
▁ᅵᄅ드ᄋ서 100
ᄊ 100
꼬 100
ᅫ 100
봐 100
쾨 100
촤 100
쭤 100
쐬 100
쇠 100
뢰 100
낡 100
꾀 100
튀 100
붜 100
몫 100
닭 100
콰 100
쪄 100
띄 100
롸 100
뒈 100
꽈 100
쑤 100
띠 100
퀴 100
쿄 100
맑 100
흙 100
닮 100
뮈 100
밝 100
짧 100
씌 100
슈 100
ᆱ 100
꿔 100
죄 100
쟤 100
꽤 100
삶 100
뤄 100
랴 100
ᆬ 100
퇴 100
끊 100
뽀 100
젊 100
쿠 100
쇼 100
훠 100
춰 100
놔 100
넓 100
깨 100
ᆰ 100
뛰 100
꺼 100
눠 100
뒤 100
야 100
뀌 100
워 100
귀 100
줘 100
햐 100
ɰ 100
괘 100
찮 100
걔 100
ᄚ 100
빠 100
펴 100
ᆭ 100
쪼 100
ᅤ 100
으 100
ᄡ 100
많 100
ᄒ 100
w 100
a 100
j 100
